'また'
'▁Alberto'
'▁મદદ'
'▁ನಷ್ಟ'
'▁በደንብ'
'isiwe'
'▁utawi'
'▁табу'
'▁dużo'
'▁tänker'
'▁blanc'
'▁ᱥᱚ'
'▁aboa'
'▁merkittä'
'▁Schiff'
'▁बिरा'
'▁Πού'
'▁ادر'
'▁ساع'
'▁zostanie'
'ugwa'
'▁sul'
'▁respondis'
'PR'
'▁पारित'
'ilija'
'▁байдлыг'
'utsua'
'rile'
'isial'
'arse'
'以上'
'▁миний'
'trä'
'ército'
'▁국제'
'▁rentrer'
'▁mudzimai'
'▁ରକ୍ଷା'
'▁बचपन'
'uswi'
'憑'
'▁развития'
'▁komabe'
'▁recommended'
'лений'
'ாங்க'
'engene'
'jana'
'ңынан'
'blá'
'▁هوا'
'▁кож'
'▁tikai'
'Robert'
'ظة'
'▁umie'
'urai'
'coins'
'▁cake'
'বেদ'
'▁Quando'
'▁smal'
'▁korleis'
'っち'
'ۈشمەن'
'শেষ'
'▁زى'
'▁ගමන'
'▁Үкі'
'▁повеќето'
'▁시켜'
'▁歴史'
'ąpi'
'▁mkp'
'varbu'
'▁saranno'
'ଯୋଗ୍ୟ'
'asalala'
'▁imaxe'
'ynene'
'ونکي'
'▁1992.'
'関連'
'▁गइ'
'▁fâ'
'▁جيئن'
'▁hästi'
'വിശ്വാസ'
'र्वाद'
'▁yʋʋm'
'ราย'
'ᱩᱱ'
'ynedd'
'್ತ'
'▁سازگار'
'▁biztonság'
'▁antigu'
'est'
'handiza'
'elto'
'▁naho'
'по'
'hancur'
'▁뭐라고'
'▁jordens'
'▁وی'
'▁mabasa'
'ჯი'
'jött'
'ой'
'থ্য'
'▁Ɛzɩma'
'▁ũtao'
'▁diferència'
'ineminyaka'
'▁fordul'
'大統領は'
'бен'
'غيير'
'▁ممکن'
'▁سونرا'
'▁Agripa'
'▁Énɛ'
'革新'
'ustas'
'▁የተቀ'
'▁lavori'
'▁соҳи'
'▁എനിക്ക'
'zané'
'ሉም'
'▁হিসাবে'
'▁morreu'
'▁20).'
'júci'
'▁ଯାହାର'
'စေ'
'▁нара'
'▁Phone'
'▁หนู'
'性が'
'▁شاوخوا'
'George'
'իծաղ'
'▁Mibeko'
'▁estados'
'▁imon'
'▁مطالع'
'▁skaičia'
'▁eigent'
'වුරු'
'ጀመረ'
'▁srečo'
'▁berkali'
'kani'
'▁հնարավորություն'
'▁сю'
'▁යහ'
'▁žiūr'
'ಕವನ್ನು'
'▁Grazas'
'▁페이'
'enah'
'▁minū'
'▁লি'
'irg'
'اروں'
'▁menos'
'▁wâ'
'forderungen'
'▁сподіва'
'ທ'
'▁cars'
'щего'
'▁totta'
'▁ਛੋ'
'▁sót'
'▁Markii'
'ilmiş'
'さに'
'▁дауы'
'bòl'
'▁tregojnë'
'▁মানুহৰ'
'cisa'
'▁Mitt'
'▁দ্বি'
'▁היית'
'▁इहे'
'▁અમને'
'本を'
'▁eitha'
'▁उप'
'▁എളുപ്പ'
'▁പേരു'
'-22'
'▁autores'
'Bus'
'གས་'
'limb'
'nile'
'▁حداقل'
'▁лишь'
'▁Vakacava'
'▁ಬಳ'
'▁विवरण'
'[13]'
'คร'
'▁noM'
'でも'
'▁phuthego'
'oon'
'▁дій'
'いていた'
'▁sel'
'▁cart'
'▁admir'
'目の'
'拘'
'jmy'
'▁שט'
'▁Dô'
'▁activiteiten'
'ਸਥਾ'
'▁tlhalos'
'িত'
'摂取'
'▁enz'
'ವುದಿಲ್ಲ'
'▁Onyankopɔn'
'▁menika'
'ሆነ'
'▁vamwe'
'롭고'
'pengba'
'▁større'
'▁bonwa'
'▁dž'
'▁ugb'
'ាវ'
'ireanach'
'ombano'
'йг'
'▁அர'
'даас'
'▁luck'
'選び'
'▁podpr'
'λο'
'▁pulogalamu'
'衆'
'agwa'
'▁máximo'
'ilte'
'קיד'
'▁həftə'
'náth'
'ཆེ་བའི་'
'▁háború'
'▁이르는'
'▁차지'
'engero'
'▁әлеуме'
'▁států'
'lirani'
'▁որպեսզի'
'▁시작하는'
'▁Thig'
'▁кӯда'
'▁brú'
'▁bevoegde'
'▁nagu'
'wengkon'
'▁θερ'
'ıkları'
'▁Bereichen'
'▁ayan'
'▁siar'
'ugana'
'▁18)'
'issin'
'▁あら'
'▁atitinka'
'▁vehicles'
'▁orde'
'apu'
'▁malaka'
'▁குறிப்பிட'
'▁ક્ષમતા'
'▁отбасы'
'nachadh'
'▁pārs'
'관이'
'ంతు'
'▁ɗaukar'
'ċenzja'
'▁povolen'
'bol'
'▁probablement'
'▁kateg'
'▁environ'
'▁sakd'
'▁yleensä'
'порт'
'▁Kodwa'
'▁ሐ'
'▁primiti'
'ريان'
'▁Ðo'
'▁каза'
'▁cofio'
'든지'
'▁tehakse'
'▁통화'
'တြႃး'
'jujejo'
'shire'
'ኩም።'
'▁نن'
'ələri'
'▁godā'
'ansay'
'▁druhej'
'▁lʋɩ'
'llahu'
'цк'
'▁شود'
'▁Nie'
'▁kéng'
'플'
'▁Tuj'
'вори'
'▁sitter'
'▁deva'
'▁ⵜⵜ'
'▁욕망'
'umo'
'τών'
'▁postępo'
'▁بقیه'
'▁より'
'▁каса'
'istre'
'▁tradition'
'winak'
'▁installation'
'▁ĩthe'
'▁ಆಟಗಾರ'
'▁very'
'怀'
'▁ફિલ્મ'
'▁всё'
'首先'
'之地'
'優秀'
'u'
'િકા'
'▁ము'
'وند'
'▁nagħ'
'▁آنهایی'
'ʽ'
'eto'
'▁ሶ'
'▁bheachd'
'fashe'
'▁нэм'
'чає'
'▁Mūsų'
'▁interesu'
'uthe'
'▁اصلي'
'▁susitik'
'uruka'
'න්නෙ'
'▁oyat'
'▁verteld'
'▁responsabili'
'hoch'
'▁Real'
'▁Pentek'
'tiku'
'▁kuom'
'orb'
'lagano'
'▁vanligvis'
'▁ronú'
'いわ'
'是一个'
'▁itũũra'
'▁Carla'
'▁προηγ'
'▁khuyapt'
'irian'
'īd'
'iba'
'▁ख़ु'
'imiz'
'▁हिम्मत'
'▁uztic'
'▁Prac'
'དྲ་'
'eteko'
'▁چاکه'
'▁abil'
'▁Ris'
'▁vož'
'▁주셔서'
'ōma'
'ulapo'
'skata'
'▁өк'
'は世界'
'▁Suprema'
'Spain'
'通貨'
'që'
'▁གིས'
'▁તેમના'
'wononga'
'▁image'
'▁بىزنىڭ'
'▁golo'
'▁vandemone'
'vas'
'▁안됩니다'
'ສັດ'
'▁Þ'
'ETA'
'使われる'
'備え'
'ାନୀ'
'▁drie'
'راون'
'▁Football'
'▁meán'
'▁chiemo'
'▁Estou'
'▁назди'
'▁түсіні'
'▁स्त्र'
'▁buaidh'
'▁urunak'
'ಿತ'
'অ'
'▁thought'
'▁Izany'
'porte'
'▁ڕە'
'▁schen'
'▁gior'
'▁колата'
'άν'
'81'
'▁provoca'
'▁شخصا'
'▁پەیوەندی'
'▁ευ'
'▁esumbilo'
'ကိုလည်း'
'▁Ně'
'ombra'
'جاق'
'akaboni'
'▁sits'
'führen'
'▁rangahau'
'▁ناتوان'
'▁xihatla'
'▁ಪ್ರಸ'
'žna'
'eddwa'
'▁yaĩtye'
'▁völ'
'▁선거'
'▁༥'
'▁سرحد'
'▁Afer'
'▁дэм'
'ണിയ'
'กลับมา'
'▁හිතා'
'▁ખરીદ'
'▁ukudla'
'▁قوي'
'▁ведна'
'▁ظهر'
'▁primeiros'
'▁સાધનો'
'▁խոս'
'▁връз'
'ksamhet'
'▁мүмкіндігі'
'гетика'
'復'
'勝'
'▁ماڭا'
'▁ਉਹਨਾਂ'
'መነ'
'muma'
'桁'
'▁gondo'
'▁ઉપ'
'▁жәрдем'
'لىكتە'
'を追加'
'▁музыка'
'년'
'▁zapravo'
'ཐོགས་'
'▁который'
'chak'
'▁kovin'
'▁twari'
'ບັບ'
'ขอ'
'▁melibatkan'
'▁Ста'
'▁fogja'
'▁архитек'
'▁ostaa'
'▁šiame'
'јуће'
'▁구축'
'▁asiye'
'प्ट'
'olucion'
'▁atravè'
'▁sorte'
'▁Amit'
'▁부엌'
'▁cér'
'elaka'
'▁nél'
'ကြတဲ့'
'▁анализа'
'▁Marin'
'▁አልተ'
'≈'
'▁चाहिए'
'▁semi'
'ĩa'
'рою'
'ذن'
'▁stred'
'▁असले'
'ollinen'
'སྐྱབས་མགོན་ཡེ་ཤ'
'▁menge'
'لاث'
'낄'
'ɣer'
'▁πά'
'▁наблю'
'ologist'
'ນ້ໍາ'
'▁жөндеу'
'▁cheanna'
'▁அணு'
'▁ఉండాలి'
'intar'
'▁kwukwara'
'czek'
'作家'
'▁cë'
'▁навігацыі'
'▁දවසක්'
'アン'
'現在は'
'વ્યું'
'▁Ќ'
'▁χορη'
'▁atụmatụ'
'▁državo'
'▁ukwishiba'
'참'
'▁nahatonga'
'▁자주'
'▁vaatte'
'▁yatanze'
'▁определя'
'▁ਸੰਗਠ'
'ោក'
'▁119:'
'horaho'
'▁vostre'
'▁Odd'
'onať'
'ɩzɩɣ'
'▁Можеш'
'▁윌리'
'▁presenten'
'委'
'किर'
'lucht'
'▁જેમાં'
'jambula'
'▁چر'
'limong'
'jte'
'▁tohto'
'▁මෙය'
'ნო'
'▁ئەمەش'
'▁pirsgirê'
'▁རྒྱལ་པོ་'
'▁věcí'
'▁hkan'
'ululo'
'▁సందర్భంలో'
'▁ክርስቶስ'
'▁इंजन'
'སྐད་'
'ക്കുന്ന'
'▁Сове'
'▁آتان'
'▁স্থ'
'рганда'
'voriť'
'虛'
'結果を'
'atum'
'▁школы'
'obu'
'દા'
'ීක්ෂ'
'unko'
'▁유발'
'▁годину'
'▁жертва'
'▁קענען'
'일한'
'▁netefatsa'
'achtaí'
'▁економски'
'▁lulameke'
'▁belesela'
'▁එහෙනම්'
'▁föður'
'▁tonn'
'▁น'
'från'
'anyane'
'▁visoje'
'▁Willi'
'▁ბრიტან'
'▁দায়িত্ব'
'▁목소리를'
'▁Žinoma'
'▁amagama'
'▁多くの人'
'▁اثبات'
'zinto'
'▁fiican'
'▁ផ្សេង'
'▁ymisk'
'ષા'
'▁그것에'
'▁hanyoyi'
'ግለ'
'amban'
'▁zhǐ'
'▁gagawaen'
'▁இத'
'▁frum'
'irahamwe'
'irta'
'▁joj'
'తున్న'
'ikat'
'▁ಪರಿಸ್ಥಿತ'
'▁Τι'
'्यात'
'▁Persona'
'▁леп'
'▁geus'
'▁dalawa'
'▁lung'
'▁mantsoe'
'▁убакты'
'▁skatt'
'▁usuarios'
'▁잘못된'
'▁他們'
'▁концеп'
'▁hadé'
'▁dîsa'
'▁kasmet'
'hirika'
'▁bux'
'▁Cùng'
'▁kontakt'
'োয়'
'▁laik'
'▁Nyang'
'▁згідно'
'▁ಬಂದ'
'▁алғаш'
'рект'
'კარ'
'▁କରୁ'
'▁1970,'
'▁ʋ'
'malo'
'▁уради'
'▁sjálvur'
'▁ngbanga'
'▁ይቕ'
'▁tarvitaan'
'힌'
'▁компаній'
'▁nkoka'
'▁praat'
'▁kwikama'
'▁Cik'
'拔'
'▁хворо'
'▁Bidh'
'▁ehleketa'
'▁Message'
'▁firma'
'Beaeɛ'
'▁basali'
'ccarat'
'verdad'
'▁zabisaka'
'会計'
'▁lidaʋ'
'འགལ་'
'▁қол'
'▁влия'
'▁ngisor'
'بين'
'▁varnost'
'ላት'
'▁Stephen'
'▁slet'
'째'
'എസ്'
'úva'
'esz'
'▁կարիք'
'▁ፈጣሪ'
'ityèl'
'▁անդամ'
'悲劇'
'▁ಭಾಗ'
'▁Pharaoh'
'▁ဢမ်ႇၸႂ်ႈ'
'akhale'
'idile'
'▁Bergen'
'urare'
'tienne'
'目指'
'▁ymlaen'
'▁permiso'
'▁маҳ'
'tụtụ'
'ẓẓ'
'▁bhfu'
'prisen'
'▁taċ'
'▁democracia'
'▁byrå'
'▁степен'
'▁Nus'
'▁mposa'
'▁consenti'
'상에'
'▁Tko'
'▁Meh'
'▁Pier'
'▁hukkunna'
'▁ruzivo'
'▁جاۋاب'
'▁свог'
'▁اضطراب'
'くなる'
'curuzi'
'▁ouders'
'▁uliwonse'
'iraf'
'▁तपाईँ'
'▁üstünden'
'▁قەلب'
'▁panam'
'▁måtte'
'▁передба'
'asira'
'lop'
'▁Gob'
'iddwa'
'▁само'
'▁메'
'▁phantsi'
'▁kunak'
'▁intention'
'▁listrik'
'anst'
'▁bimeze'
'utar'
'▁ветери'
'▁хий'
'anson'
'▁Ci'
'ミュージ'
'離'
'▁kakubi'
'▁ମ୍ୟାଚ'
'▁द्'
'ське'
'▁chỉnh'
'▁Муқаддас'
'▁சரியாக'
'▁görüntü'
'▁твари'
'ээл'
'chikijile'
'▁संबंधों'
'▁conver'
'▁Language'
'▁દેખા'
'▁Uru'
'usius'
'瓜'
'▁тааны'
'▁salú'
'▁Clim'
'▁ਮਿ'
'▁fand'
'فوظ'
'▁bik'
'▁Salmo'
'मइँ'
'▁שג'
'▁अजीब'
'јни'
'▁minőség'
'▁alates'
'andura'
'▁Bushe'
'쿄'
'చ'
'▁viss'
'ようやく'
'▁hely'
'▁Yani'
'▁podran'
'▁ომ'
'▁blm'
'▁įstat'
'ৰ্থ'
'▁jeres'
'vave'
'vulukile'
'ંશ'
'cadh'
'ཕེབས་པར་'
'▁සියල්ල'
'boro'
'▁Ehipto'
'irme'
'▁erau'
'▁Umub'
'▁pocit'
'intys'
'▁kompleks'
'気に入りの'
'iegħ'
'ಕ್ಕ'
'ćeš'
'▁životu'
'áh'
'▁dopravy'
'aku'
'▁ýurt'
'▁注'
'▁हालांकि'
'νοι'
'▁ш'
'ངོ་མ་'
'▁boljše'
'▁ivaluka'
'どのくらい'
'卑'
'▁אמיתי'
'بژارد'
'杯'
'▁ᱠᱟ'
'テー'
'ႅၼ်ႈ'
'лесті'
'▁Karisito'
'canto'
'ул'
'▁ەك'
'▁әлегә'
'▁Hunyo'
'▁мү'
'ító'
'െങ്കിൽ'
'▁Düş'
'▁ਅਮ'
'▁تخت'
'▁અધિકારી'
'윤'
'▁यात्रा'
'حاد'
'▁dumela'
'▁Kapit'
'ettevõ'
'▁bugun'
'iak'
'вуваат'
'тпа'
'שטח'
'▁connaissance'
'сла'
'▁crisi'
'▁نابود'
'inib'
'▁venue'
'▁საუბ'
'кои'
'▁откри'
'というのは'
'hliziyo'
'▁istra'
'▁subs'
'FL'
'فض'
'▁σκ'
'ဘူး'
'▁roboty'
'▁ચાલે'
'▁Павел'
'世'
'▁לכל'
'bail'
'▁تؤ'
'▁thờ'
'▁ব'
'▁refle'
'խտ'
'▁Zomwe'
'ىمە'
'懸命'
'▁zanak'
'▁estic'
'▁detailed'
'▁فش'
'▁Pied'
'wero'
'▁개는'
'Iz'
'▁δρα'
'Nar'
'▁prescri'
'tele'
'▁למשל'
'འགན་'
'rasyon'
'edahan'
'▁uitg'
'▁ⵎⴰ'
'▁fiori'
'loga'
'▁nạn'
'オリジ'
'▁Lọ'
'<'
'టానికి'
'▁Күз'
'▁qué'
'▁Austr'
'▁yakë'
'▁πρωτο'
'▁стая'
'▁شەپ'
'/23'
'征服'
'▁kasutatud'
'▁මර'
'▁Tiro'
'▁согласи'
'▁멍청'
'▁akor'
'ଢ଼'
'çada'
'▁hakuna'
'▁améli'
'▁بیچ'
'▁اذن'
'▁particolare'
'▁pene'
'▁האמ'
'▁lead'
'▁بریتانیا'
'hasa'
'▁တင်'
'▁bayina'
'▁ass'
'▁svet'
'▁tsoron'
'WHO'
'▁strādāt'
'溜'
'▁indike'
'▁теку'
'inggal'
'مع'
'▁kusikia'
'▁keuadaan'
'▁kuyowoya'
'▁Helen'
'mady'
'▁Pohjo'
'▁kuomba'
'▁hinder'
'▁gallai'
'になって'
'קות'
'ogs'
'▁ಸ್ವತಃ'
'▁ສໍາ'
'ཚོང་'
'є'
'▁fortsätta'
'ໄປໃນ'
'▁хви'
'耶稣'
'▁Эм'
'▁käytetään'
'▁העי'
'▁ཁག་'
'llant'
'▁abazali'
'▁তেওঁলোকে'
'▁глибо'
'▁ডল'
'▁eigi'
'▁বেঁচে'
'爆'
'▁۶'
'▁sot'
'▁આવે'
'▁Demet'
'▁שיה'
'▁אישי'
'▁lidz'
'దైనా'
'▁tangohia'
'ಾಗಿದ್ದ'
'▁parque'
'▁పడ'
'▁bɔbɔ'
'Nda'
'▁Public'
'▁അത്യ'
'▁kudz'
'ুক'
'▁švent'
'zwis'
'虑'
'ེ།'
'▁comente'
'▁boek'
'▁chiều'
'▁strach'
'▁médi'
'▁बरकरार'
'▁percentage'
'▁yob'
'ҙың'
'▁(15)'
'för'
'གཙོ་བོ་ཡེ་ཤུ་'
'▁Kësh'
'ствениот'
'πότε'
'▁gcu'
'▁jät'
'▁Vuk'
'ღვ'
'▁lill'
'▁ភាគ'
'▁걸릴'
'▁vprašanje'
'ዩ።'
'шгүй'
'▁Þær'
'どん'
'▁Seguro'
'▁yaĩ'
'ātu'
'interno'
'▁vulavula'
'▁वापस'
'ന്തി'
'▁Cai'
'bam_Latn'
'▁миңә'
'▁വിശ'
'▁چیزها'
'nīcu'
'▁gcéad'
'át'
'▁କରିଦେଇ'
'▁sådant'
'ņģa'
'向上'
'▁koyaushe'
'▁oliv'
'▁bbaż'
'▁icip'
'▁Вашингтон'
'alı'
'రికా'
'▁ಯಾರಾದರೂ'
'▁rakenn'
'▁андай'
'wied'
'liau'
'ङ्क'
'ཕྱག་ལཱ་'
'Yesaya'
'ಕೊಳ್ಳ'
'လည်'
']".'
'▁소개'
'brat'
'▁નાખ'
'▁omutukuvu'
'izar'
'ार'
'धारण'
'▁והיא'
'▁sünd'
'▁endowooza'
'мн'
'καν'
'liment'
'τος'
'▁мэдр'
'▁sv'
'▁hã'
'して'
'asoo'
'вань'
'▁ਯਾਤਰਾ'
'▁kwek'
'▁कपड़ा'
'ăn'
'▁вәкил'
'▁Fon'
'ھىسىز'
'ពេលវេល'
'idh'
'▁utang'
'korũo'
'ೇಶ'
'▁ด'
'▁imbi'
'▁متش'
'▁ಫ್ರಾ'
'歷'
'▁หนึ่ง'
'▁уровня'
'ojama'
'▁πλά'
'▁yordam'
'▁забав'
'▁easier'
'▁mengejar'
'▁올라'
'ཁོངས་'
'hibit'
'▁ठेव'
'當地'
'▁egyedül'
'▁hmasa'
'▁જોડ'
'▁بەیانی'
'▁yola'
'hiĩ'
'▁mpikambana'
'▁yakanaka'
'▁पुराना'
'▁archite'
'▁کامیاب'
'▁mulher'
'aawo'
'▁پنهنجو'
'👉'
'istan'
'чує'
'▁חמש'
'▁насо'
'▁toidu'
'յանք'
'▁ane'
'▁sık'
'▁àlù'
'itud'
'因'
'▁Cus'
'▁dzid'
'សាន'
'šia'
'ेंद्र'
'▁anon'
'▁idiay'
'▁oketša'
'▁lebs'
'▁šalyje'
'лықтар'
'▁vaat'
'ตาย'
'▁히'
'yahay'
'▁ಬಲ'
'▁sokongan'
'pomín'
'▁nji'
'▁Biro'
'usayithi'
'▁66'
'▁ŋa'
'▁말라'
'دىغانلار'
'▁pārvad'
'tuig'
'▁Rede'
'▁їх'
'레스'
'▁vardı'
'イエスは'
'eting'
'པ་ཡིན་ནོ།'
'чего'
'▁sumas'
'▁белг'
'▁Babâ'
'ondzisiwa'
'▁molimo'
'endzo'
'ضاء'
'ቃ'
'cishe'
'▁τό'
'hanna'
'なう'
'ısını'
'ولد'
'▁mey'
'▁милли'
'▁Луѓето'
'▁eagla'
'▁因为'
'▁taasi'
'▁hojjet'
'▁zã'
'كاس'
'क्क'
'▁afhæng'
'▁bofelo'
'▁döntés'
'uneha'
'▁आयात'
'▁बहू'
'▁ਸਮਰ'
'▁ओह'
'hoved'
'▁zostały'
'▁itavi'
'երին'
'▁निगर'
'▁kuon'
'▁ግዝ'
'▁긍'
'▁предлага'
'▁ascult'
'層'
'▁ائله'
'misen'
'▁okug'
'▁szko'
'뇨'
'شمه'
'Red'
'alda'
'estival'
'նար'
'ografia'
'upon'
'▁պայման'
'erebutsi'
'▁babaeng'
'▁থাকি'
'ற்க'
'▁Thlarau'
'ለን።'
'úš'
'lements'
'▁görür'
'▁देण्यात'
'egangen'
'▁máli'
'▁porodi'
'▁Tars'
'êó'
'лік'
'jets'
'▁φυ'
'ersen'
'hiwe'
'upas'
'▁вак'
'▁rele'
'▁air'
'▁sørge'
'▁beting'
'に入る'
'▁tangga'
'▁врска'
'▁Esit'
'▁vall'
'▁ያለው'
'▁nokufa'
'ُّ'
'▁कठोर'
'ndɩ'
'▁yaiva'
'▁filled'
'▁omkring'
'▁לקר'
'實上'
'▁쓰'
'▁সদা'
'依'
'▁tshwanela'
'▁జూ'
'▁sök'
'application'
'▁সারা'
'liale'
'▁klop'
'itament'
'▁montag'
'▁않았다'
'▁պիտի'
'འགོ་དཔོན་'
'▁hoy'
'▁ମୋତେ'
'▁tikang'
'များ'
'▁Dɛn'
'▁बू'
'प्रमाणे'
'▁ға'
'ocfaidh'
'▁trebamo'
'▁taqsim'
'▁مقدار'
'▁glavu'
'▁একদিন'
'▁Mha'
'alandira'
'▁уште'
'▁писа'
'▁vjen'
'▁ribuan'
'▁Although'
'▁алдан'
'zuia'
'٩'
'▁پێش'
'▁малень'
'▁wana'
'▁ια'
'ော်လ'
'▁ولا'
'ਸ਼ਾਹ'
'▁savy'
'▁डोमेन'
'▁teuma'
'▁جاب'
'zést'
'▁насле'
'▁Kalpasan'
'▁kura'
'arbības'
'▁hapori'
'▁Walaupun'
'▁Օր'
'▁موضوعات'
'ထားပါတယ်။'
'▁থ'
'▁ubone'
'inu'
'▁сиё'
'▁imiryango'
'▁دوا'
'fazi'
'▁엔지니'
'▁tšepo'
'▁Ngwana'
'ത്തിലാണ്'
'पत'
'▁நிற்க'
'nosis'
'okiya'
'렉'
'▁ýokary'
'▁huvitatud'
'▁miegħu'
'A'
'▁버'
'Far'
'务'
'੍ਹਾਂ'
'อยาก'
'▁ფას'
'▁zemalja'
'▁Voluali'
'▁správa'
'▁buwan'
'▁하시는'
'လို့ပါ။'
'▁saili'
'ියක්'
'dae'
'kli'
'▁اراده'
'▁ڪيئن'
'▁pamwamba'
'atte'
'▁여성이'
'▁cluichí'
'美術'
'indika'
'▁retire'
'▁نېمىدېگەن'
'▁Eva'
'/96'
'વર'
'▁ري'
'▁Ured'
'քում'
'▁ppi'
'▁ую'
'▁వ'
'▁soo'
'▁fors'
'▁đưa'
'śl'
'▁ipe'
'هيئن'
'ছিল'
'čnim'
'▁darījumu'
'بہ'
'བརྗོད་'
'▁নিৰ্বাচ'
'▁త్వ'
'▁ඔහොම'
'▁kunjämtix'
'îst'
'▁تنگ'
'▁Ss'
'▁schön'
'kyl'
'ctha'
'▁процен'
'कम्'
'▁қызме'
'▁1,4'
'▁člena'
'▁greš'
'wé'
'▁reen'
'ヽ'
'▁albar'
'▁Wisc'
'▁নকৰে'
'aden'
'▁Tiago'
'▁acc'
'▁Little'
'▁ýaşulu'
'▁судо'
'俾'
'▁འདི་གི་'
'▁Romo'
'▁tɛ'
'▁bakora'
'▁Vac'
'▁meaalofa'
'вају'
'▁kay'
'▁jupanakax'
'▁kamachis'
'▁ಪ್ರಯಾಣ'
'▁जनवरी'
'пова'
'▁ನಿರ್ಧರಿಸ'
'▁केन्द्र'
'слам'
'▁Latve'
'▁kendilerine'
'aron'
'▁Сек'
'нув'
'▁ცვლი'
'asian'
'onjongole'
'raa'
'▁malamumalamu'
'▁ŋutik'
'▁hefyd'
'▁ṣí'
'үрөөк'
'uras'
'meg'
'▁computer'
'▁Rékko'
'▁따르는'
'▁Servi'
'णि'
'▁vjeç'
'▁usually'
'▁společnosti'
'▁경우'
'▁Македо'
'ërve'
'رتي'
'LT'
'▁촬영'
'habat'
'▁길에'
'▁республикалық'
'wijile'
'periu'
'eddu'
'▁Виж'
'▁jago'
'▁stykke'
'▁결혼'
'ത്തേക്ക്'
'▁آتاسي'
'▁무엇보다'
'[5].'
'▁cieka'
'▁יח'
'প্তাহ'
'▁ဖတ်'
'नि'
'▁batin'
'malısın'
'▁대규모'
'▁daa'
'▁vysoko'
'yankha'
'iloni'
'Unit'
'▁nac'
'abut'
'▁Λυπάμαι'
'▁nandzu'
'▁Iri'
'imor'
'▁τύπο'
'དཔེ་'
'▁kaniya'
'▁ඒත්'
'▁Tr'
'制'
'▁jɔn'
'bete'
'사이트'
'彼らに'
'ใคร'
'▁gumi'
'obanuro'
'招待'
'anakampi'
'▁1.4'
'ũk'
'▁شرک'
'liket'
'▁galak'
'▁mü'
'▁Fad'
'▁1-2'
'今世'
'wendi'
'▁meɛna'
'ïm'
'▁나서'
'▁політи'
'वाती'
'ugosla'
'▁split'
'▁hào'
'▁བརྡ'
'▁miglior'
'▁Vince'
'iling'
'amatala'
'▁varik'
'▁Ий'
'▁desigu'
'▁Belle'
'▁བྷ'
'▁forpligtelser'
'▁ühe'
'সময়'
'▁eredménye'
'хын'
'மைப்பு'
'▁دەکات'
'▁Independent'
'▁туристи'
'▁wopɛ'
'▁minister'
'▁꺼'
'▁αληθ'
'▁ہوجائے'
'▁fihetsik'
'▁mau'
'▁embri'
'iteten'
'ที่ผม'
'▁누군'
'▁iegūt'
'▁peugah'
'▁వ్యక్తిగత'
'▁بکە'
'▁garçon'
'ခဲ'
'▁përfshin'
'▁ਉਮਰ'
'▁የብል'
'▁প্ৰেম'
'▁pixka'
'▁nooit'
'▁बेटा'
'计'
'▁گؤز'
'enden'
'▁predlož'
'▁mukuru'
'▁이틀'
'▁litsenzi'
'▁가까워'
'▁фе'
'▁μέχρι'
'▁Kudz'
'▁Deeg'
'るかに'
'▁саты'
'adija'
'▁가격'
'▁ɖeɖe'
'▁ahyr'
'▁mwenye'
'▁przez'
'czych'
'lsin'
'▁बाँ'
'ctures'
'▁telefons'
'▁ვერ'
'bomfya'
'ਤੀਆਂ'
'▁остро'
'ộp'
'▁हव'
'▁Neću'
'ઝને'
'hɛzɩyɛ'
'可能性がある'
'▁hih'
'▁බලාපොරොත්තු'
'ଡିକ'
'funktion'
'▁jà'
'▁afs'
'පු'
'▁बइ'
'▁viwa'
'▁ئىختى'
'▁faatino'
'కీ'
'▁переко'
'лән'
'▁typer'
'▁kgan'
'▁soka'
'hia'
'▁muma'
'▁persis'
'ɲɛ'
'▁sante'
'▁বো'
'्नुहोस्'
'▁٢٠'
'izwa'
'▁Dz'
'▁మాత్రమే'
'watch'
'▁ལངམ་ཅིག་ཨིན།'
'levate'
'▁malamalama'
'▁ũvoo'
'▁طورس'
'▁dongo'
'▁akadz'
'授'
'▁होना'
'▁dienu'
'pami'
'צרים'
'hias'
'ခဲ့တဲ့'
'δεί'
'▁ongeluk'
'מט'
'▁ភ'
'▁zmeni'
'▁cheve'
'▁jibqgħu'
'нан'
'▁insait'
'ਕਿਸ'
'▁Худои'
'▁حملہ'
'▁biror'
'ukuri'
'▁ukum'
'انک'
'▁fat'
'▁སྡེ་'
'ལོང་'
'▁Shuningdek'
'ставува'
'▁ypač'
'▁kumut'
'▁överför'
'គ្គល'
'▁greater'
'▁Euro'
'riwi'
'던'
'▁робо'
'łop'
'▁Romeo'
'▁Θε'
'▁Wayah'
'ላቅ'
'▁Verbesserung'
'▁byaba'
'utsandvo'
'▁قاچان'
'▁nodrošinātu'
'▁sapjj'
'▁service'
'▁모으'
'itosť'
'ರ್ಚ'
'лмеген'
'▁taon'
'▁respe'
'相手'
'ınıñ'
'▁empa'
'yum'
'▁ክርስቲ'
'欧'
'urski'
'ଟ୍'
'▁makkekkuwangngé'
'unyama'
'sstat'
'▁фотографии'
'▁tekiwa'
'▁бәйрәм'
'▁studer'
'▁technology'
'▁செ'
'▁баш'
'▁повече'
'вое'
'▁קומען'
'nske'
'τία'
'▁threat'
'డ్డారు'
'▁strí'
'klju'
'ങ്കേ'
'ಡಿಯೋ'
'▁argachuu'
'▁만약'
'개가'
'šila'
'▁Hội'
'▁lipat'
'▁권고'
'rung'
'▁cysylltu'
'நே'
'ሩም'
'▁ఉంట'
'▁meille'
'▁προσπαθ'
'▁kema'
'▁ડિઝ'
'▁Мил'
'▁қабылда'
'ekten'
'▁pewnie'
'ingak'
'▁lovgivning'
'▁haha'
'न्थे'
'ekuru'
'▁nalož'
'▁pui'
'▁апа'
'ない'
'▁Minute'
'▁мау'
'▁derrot'
'▁авырлык'
'hend'
'▁캡'
'quïnwa'
'▁jupajj'
'राध'
'PF'
'▁году'
'▁chyn'
'▁teroris'
'ண'
'▁Buru'
'▁kuzindikira'
'▁miaka'
'▁മനോഹ'
'▁харил'
'▁dôvodov'
'ጩ'
'ukwu'
'▁аның'
'лін'
'iliga'
'▁Президента'
'rå'
'▁মৌ'
'▁parād'
'▁قالخ'
'▁好'
'兩'
'tung'
'▁پڙه'
'▁Ýazgylar'
'▁sight'
'hedloedd'
'ופא'
'▁บรร'
'ũmbe'
'▁tunka'
'▁uute'
'▁Καλά'
'▁janiw'
'▁marika'
'▁düzgün'
'▁naani'
'▁lipula'
'▁ਮਾਮਲੇ'
'▁lɛlaa'
'▁因為我'
'गर'
'▁Ţi'
'▁Masaba'
'▁diso'
'раў'
'▁naling'
'▁alim'
'xolo'
'▁kafu'
'漆'
'▁мада'
'мәйем'
'责'
'▁grės'
'▁belső'
'▁хакында'
'バック'
'▁ышана'
'▁laips'
'▁lwaki'
'▁tshivua'
'ವಾದ'
'ઉન્ડ'
'▁amafunde'
'▁trader'
'▁carre'
'▁Nyengo'
'▁ھەمدە'
'даш'
'▁ҳама'
'▁چيخارت'
'ସ୍ତାନ'
'istov'
'▁jike'
'▁состои'
'େଟ୍'
'▁kjer'
'▁takde'
'会議'
'шните'
'sõma'
'هه'
'statt'
'▁мерзімді'
'ilinganiso'
'тік'
'▁Banglad'
'▁Muna'
'굉장'
'▁ଗିରଫ'
'▁Ies'
'▁Evropi'
'▁endala'
'희'
'▁חברות'
'▁Otto'
'▁علي'
'▁menit'
'ازهای'
'ാറില്ല'
'ניה'
'▁oktobra'
'▁pamm'
'zwi'
'кле'
'▁ŵas'
'▁seniň'
'2007'
'äksi'
'▁priekšā'
'▁lygio'
'▁yiw'
'▁sko'
'釈放'
'▁toz'
'▁Op'
'▁deze'
'▁nkau'
'ਥ'
'odzro'
'▁ເດັກ'
'kuja'
'▁OR'
'▁ھي'
'をし'
'istanê'
'ρεται'
'▁Merkel'
'▁よっ'
'▁大学'
'interess'
'▁saparsapuluah'
'វិញ'
'▁mitai'
'▁mulai'
'▁జరుగుతుంది'
'▁kutt'
'شتری'
'▁arris'
'▁đừng'
'▁ଆଶ'
'▁nõuetele'
'売買'
'されません'
'-34'
'▁wakufuma'
'ફ્ર'
'त्ती'
'▁95'
'wamukela'
'▁ددي'
'▁SX'
'▁pfun'
'▁ವ್ಯಕ್ತ'
'▁segmen'
'实现'
'▁Babaen'
'▁cani'
'▁Кожен'
'wierd'
'▁olmasına'
'ларды'
'▁diragatsa'
'▁Meie'
'कल'
'›'
'HR'
'Art'
'aknyo'
'▁देय'
'veillez'
'vut'
'占领'
'▁Велика'
'▁옳은'
'▁zlari'
'mawiać'
'▁ģe'
'▁Pete'
'▁Bit'
'▁mediċ'
'▁رسولوں'
'sardz'
'▁কাৰ্য'
'▁Eagle'
'▁Хеҙ'
'▁Sebagai'
'▁dollars'
'ង្គំ'
'▁kilumbu'
'▁želio'
'▁gross'
'▁Nol'
'▁társadalmi'
'▁하나요'
'▁pekerjaan'
'ũthaitha'
'▁Perché'
'▁মিল'
'▁jaqinakax'
'കളും'
'ندار'
'indiso'
'▁हों'
'▁banyalani'
'▁Barak'
'▁iubesc'
'▁abap'
'ပန်း'
'ladi'
'▁विज्ञा'
'▁ovopange'
'opri'
'▁ejercit'
'ുള്ളത്'
'▁actu'
'▁haina'
'▁బ'
'રવ'
'ஜி'
'▁কার'
'▁împ'
'olino'
'▁Sometimes'
'寨'
'-4;'
'кія'
'ေတြက'
'▁җә'
'▁હંમેશા'
'▁jāņem'
'▁س'
'何かを'
'▁ཨ'
'enzeke'
'▁itse'
'▁tan'
'▁نیازهای'
'ЕН'
'sind'
'▁უს'
'▁fanerile'
'▁экономика'
'okua'
'▁thuse'
'▁китап'
'▁flott'
'▁Xer'
'訴え'
'▁vakama'
'▁맞이'
'▁išvengti'
'▁tesi'
'iau'
'▁억'
'▁kuzvi'
'▁Fransa'
'روسہ'
'▁Vie'
'▁sözü'
'▁profeet'
'▁scala'
'ందు'
'▁ໃຜ'
'▁Explorer'
'番'
'တင်း'
'ingaw'
'▁mmušo'
'дырып'
'▁যৌ'
'▁접근'
'▁inay'
'▁lokuta'
'מידים'
'▁definitely'
'oloġija'
'▁கொடுத்த'
'▁riset'
'وسط'
'▁сабаб'
'▁Turaga'
'▁ترجمہ'
'είου'
'▁መግለጫ'
'плом'
'cək'
'▁chabwino'
'▁оброб'
'▁ampahany'
'▁positi'
'ようだ'
'頓'
'▁ndani'
'kulumo'
'▁ئىز'
'gery'
'▁pahukkungeng'
'۟'
'▁ho'
'😊'
'ukunuk'
'▁متع'
'▁ဝၼ်း'
'▁Господа'
'kg'
'emeza'
'oleo'
'རླུང་'
'▁Traduc'
'▁сонир'
'▁ピ'
'プログラミング'
'▁בוד'
'▁စိတ်'
'ལོངས་སྤྱོད་'
'▁fabric'
'▁צור'
'ners'
'▁गेलो'
'▁камил'
'▁לס'
'▁dihang'
'omwoyo'
':1.'
'litev'
'▁telefona'
'▁위에'
'▁engka'
',4'
'▁belə'
'▁ELi'
'འདས་'
'▁کړئ'
'▁contains'
'▁nhu'
'แย'
'▁≤'
'enol'
'▁تلا'
'▁어려움을'
'▁ອັດ'
'フは'
'ciaż'
'▁специали'
'▁ფოტ'
'▁એક્સ'
'詛'
'▁అతడు'
'маи'
'▁mawar'
'▁oficiali'
'▁प्रका'
'▁vív'
'เดียว'
'▁deh'
'▁발견했습니다'
'ତିକ'
'urade'
'ളി'
'libot'
'▁tunda'
'▁kokia'
'▁Arsenal'
'运'
'▁לי'
'▁Linɔ'
'ñê'
'▁creu'
'▁tèm'
'▁pren'
'▁fetoga'
'▁वायरस'
'纏'
'▁Jikidistá'
'▁para'
'ely'
'▁umbi'
'èë'
'נר'
'▁نسلی'
'ɖose'
'ңүл'
'ireli'
'ਾਕ'
'▁һора'
'▁ysraýylly'
'लित'
'▁दाऊद'
'▁သုံး'
'国际社会'
'▁uejidile'
'▁chảy'
'▁ginamit'
'irinhyia'
'▁Ó'
'▁julka'
'▁Debbie'
'▁világot'
'▁বিয়ে'
'▁ogw'
'▁твой'
'▁વાર'
'▁svarar'
'ffie'
'سىپ'
'▁επειδή'
'ومو'
'hambaye'
'fao_Latn'
'▁бал'
'▁منظور'
'▁pocs'
'▁anuncia'
'▁Lukas'
'▁ŋutɔŋutɔ'
'miy'
'▁tí'
'▁نەم'
'▁җылы'
'ams'
'렐'
'▁raio'
'▁7,'
'▁سات'
'ası'
'▁പൂർ'
'▁ukw'
'શ્વ'
'zara'
'▁peuet'
'▁helse'
'ගයක්'
'▁court'
'ворю'
'▁ngoni'
'पणा'
'▁tient'
'ঠ'
'▁dáv'
'▁Izlayɛ'
'เหน'
'2,'
'▁వీడియో'
'ຍົມ'
'okisi'
'將'
'གནང་བར་'
'▁ເຮັດໃຫ້'
'ĩe'
'▁Spojen'
'▁विजे'
'ဆီကို'
'lasan'
'nutie'
'▁გაკეთება'
'isei'
'ینەوە'
'дзей'
'▁makumi'
'▁гор'
'ල්ලා'
'हेर'
'▁முடியும்'
'▁vyinshi'
'▁agradecer'
'່ຽວ'
'uɣ'
'▁şol'
'åñ'
'▁tawag'
'▁šť'
'▁존중'
'▁Jich'
'▁piaci'
'եռն'
'▁شيلر'
'▁چارەسەری'
'▁besit'
'▁धूप'
'eranye'
'▁نٿ'
'飼い'
'▁맹'
'ၢ'
'▁akej'
'▁persones'
'▁xila'
'らず'
'Nzambi'
'▁Nein'
'ঔ'
'이자'
'▁vuotta'
'mür'
'▁Ezinye'
'▁라'
'▁לראות'
'っくり'
'▁റെ'
'tsaina'
'finansi'
'wuri'
'▁yttr'
'قرار'
'▁მაინ'
'ziji'
'क्षे'
'▁lapkričio'
'▁bakwa'
'ovie'
'▁yov'
'гъ'
'しゃ'
'▁неща'
'▁deza'
'▁tella'
'動'
'につれて'
'▁щях'
'▁ná'
'▁hyökk'
'▁നി'
'oport'
'▁стой'
'▁ыкты'
'දු'
'ดัง'
'▁Aristotle'
'▁farigxis'
'gri'
'ıyordum'
'▁apostel'
'▁espect'
'জ্ঞা'
'▁heilig'
'遂'
'▁ren'
'▁দিন'
'▁lintlha'
'▁засно'
'▁Matanitu'
'▁데이터를'
'▁адна'
'▁বিনামূল'
'▁8.1'
'րաշ'
'ແກ້'
'άνι'
'▁kvart'
'кто'
'▁mandrakizay'
'ക്കൾ'
'juta'
'▁Feumaidh'
'ych'
'▁öğ'
'▁ନିବେଶ'
'▁kapaligiran'
'災'
'okolwiek'
'▁nogal'
'ಜ'
'▁isagoo'
'▁petites'
'▁mundan'
'નું'
'▁chỉ'
'▁Elabena'
'▁conference'
'နဲ'
'emmo'
'▁Fundo'
'imenyetso'
'▁olan'
'zną'
'▁glo'
'▁प्रिय'
'▁ađ'
'▁botën'
'▁тән'
'jur'
'▁առանց'
'წრ'
'ᱩᱢ'
'▁কৰো'
'▁능력을'
'▁Unut'
'▁약속을'
'▁ಬಂದು'
'limkien'
'▁krij'
'nummer'
'▁স্ত্রী'
'▁tshamaka'
'▁ስጋ'
'worthy'
'▁thos'
'▁dzied'
'▁главни'
'▁bagiye'
'▁tender'
'▁enjalo'
'▁nue'
'仿'
'▁paciente'
'部分を'
'ίκα'
'▁sì'
'▁jü'
'▁ହର'
'шка'
'▁நாங்கள்'
'ND'
'▁Ар'
'ignement'
'と一緒に'
'垣'
'▁navo'
'▁Njye'
'▁yè'
'▁kafsh'
'▁युरोप'
'▁བྱ་'
'▁direktiivi'
'▁perlahan'
'▁prepare'
'▁kaJehova'
'▁manuf'
'▁Nguva'
'គ្រោះ'
'▁kluba'
'▁hangtud'
'Man'
'▁оронд'
'▁obtener'
'▁Hat'
'春'
'▁କନ'
'▁aspectos'
'с'
'▁mulighet'
'▁Hall'
'▁fórmula'
'itura'
'some'
'▁ኣእ'
'▁şart'
'opeho'
'▁ബ്ലോഗ'
'▁ciut'
'▁Pirm'
'治疗'
'▁お'
'▁نخ'
'▁polu'
'▁vjer'
'tiden'
'지않'
'▁چونکي'
'раат'
'နှင့်'
'nels'
'اتر'
'▁متناسب'
'If'
'▁(30'
'onra'
'▁ڵات'
'숙'
'ནི་མི་'
'ጅም'
'ପେ'
'éwé'
'▁একমাত্র'
'로운'
'рых'
'ical'
'▁тавыш'
'▁მახ'
'iranya'
'WY'
'jið'
'ġiżlazzjoni'
'▁ٿيو'
'▁selek'
'レ'
'▁بكات'
'▁okkum'
'▁humbur'
'ुत'
'ปืน'
'▁對'
'▁منز'
'▁mhux'
'رمپ'
'▁ustav'
'▁इकाई'
'▁tills'
'▁kutali'
'asip'
'▁Җ'
'▁barutiwa'
'gaze'
'▁spoor'
'▁Anw'
'▁ylɔ'
'▁בשל'
'▁하나님은'
'▁ɛhulolɛ'
'рив'
'▁пристро'
'ىمىز'
'▁گتدئلر'
'▁cyfle'
'▁contento'
'བགོ་'
'疹'
'▁erila'
'ផល'
'話題'
'▁leat'
'▁navedene'
'▁bouche'
'▁Һ'
'ىشا'
'▁organizations'
'▁యెహో'
'▁šalis'
'認'
'譲'
'▁ขอ'
'яз'
'▁ប្រហែល'
'ၶၢဝ်ႇ'
'րբեջ'
'▁அக'
'▁administrativa'
'▁namu'
'persuni'
'ⵓⵍ'
'▁불렀'
'▁کره'
'bn'
'ците'
'▁변호사'
'മാ'
'حك'
'}'
'▁matalek'
'▁хал'
'▁ٽيڪنال'
'▁baa'
'▁perut'
'ңіз'
'▁ռ'
'மார்'
'ngal'
'▁Fou'
'▁Ọpọlọpọ'
'▁mien'
'cajj'
'ଦୀ'
'▁رس'
'▁patēr'
'▁Rydych'
'щени'
'лис'
'гети'
'мере'
'ítésére'
'ျပီး'
'▁tintuża'
'▁ਰੂ'
'huquqiy'
'edwa'
'▁probleme'
'lamang'
'དེམ་'
'▁qytet'
'▁NCB'
'ಿಸಲಾಯಿತು'
'▁ڕان'
'ẽn'
'▁likuminya'
'であるか'
'goa'
'вине'
'▁includes'
'hot'
'▁kërɛɛc'
'सने'
'Green'
'▁Baibel'
'waz'
'▁тръ'
'▁tiempo'
'ử'
'警'
'covi'
'átt'
'▁Қағида'
'▁বিভাগ'
'▁اومئد'
'▁بەرگری'
'għarfien'
'شنل'
'▁ብኸ'
'▁chawo'
'중에'
'▁শিক্ষা'
'гын'
'кан'
'▁hotels'
'▁прису'
'▁үн'
'ຖະ'
'▁aggi'
'▁зазна'
'▁Ита'
'▁campaign'
'▁वद'
'▁εσείς'
'prez'
'ပါလိမ့်မယ်။'
'▁његовог'
'▁가'
'ဗျာ။'
'▁aafiaga'
'▁yenna'
'ルー'
'▁acordos'
'मेर'
'کی'
'▁fleksibel'
'▁quyết'
'▁것으로'
'▁حاق'
'kpụ'
'▁osutatud'
'endada'
'▁(13'
'▁감지'
'▁finne'
'▁бакча'
'르게'
'▁Miss'
'▁thënë'
'▁गत'
'▁mihandzu'
'▁frances'
'▁ਵਰਗੇ'
'ikun'
'▁둘러싸'
'értelmű'
'ົ'
'▁redz'
'ៀន'
'ວມ'
'▁przyja'
'▁ဥ'
'▁veril'
'▁życiu'
'fula'
'ල්ප'
'▁bee'
'▁teda'
'▁сваке'
'▁masole'
'▁pob'
'▁Sole'
'aneli'
'▁vanhem'
'xari'
'▁nhïïm'
'▁கூ'
'▁madera'
'▁nkhaŵa'
'▁সাধাৰণতে'
'▁chako'
'▁марке'
'▁markat'
'qayku'
'ାଯ'
'ストライキ'
'្នាក់'
'Spe'
'▁ಲಭ್ಯ'
'▁voiture'
'▁ఆన'
'▁윌'
'▁daripada'
'▁stāsta'
'▁χρεια'
'▁uviali'
'▁Cand'
'ġiji'
'▁slut'
'ули'
'常に'
'▁Iv'
'▁patyş'
'న్యా'
'▁କ୍ୟ'
'▁ngakyile'
'▁번'
'▁အများကြီး'
'▁पहिने'
'▁tansah'
'▁조치를'
'▁야곱'
'▁maranéhanana'
'▁aans'
'▁ཁོ་'
'廢'
'▁ucu'
'▁ціка'
'ូវ'
'ths'
'▁וויאזוי'
'忧'
'▁cerin'
'▁چارچوب'
'ligini'
'▁Rik'
'olás'
'비스'
'▁enjo'
'▁tobom'
'พันธ์'
'▁કોંગ'
'▁jāat'
'▁senyum'
'▁içeri'
'▁быны'
'erste'
'▁encu'
'▁lañu'
'▁khal'
'▁አንዳ'
'▁jetu'
'зеге'
'▁зароб'
'▁سولي'
'▁halak'
'▁skull'
'▁መሲ'
'▁متخص'
'▁आपको'
'▁leswaku'
'jongo'
'▁నియంత్రణ'
'Od'
'warte'
'▁Den'
'▁asend'
'ðinum'
'ङ'
'ཅག་གིས་'
'▁theihna'
'▁Zonke'
'道具'
'પરા'
'▁superviż'
'▁intézkedéseket'
'mert'
'ıld'
'▁тат'
'▁giya'
'సై'
'▁грошей'
'▁ευτυχ'
'5%)'
'cym'
'▁המל'
'გან'
'▁мекте'
'ノロ'
'▁Fɔ'
'分で'
'▁мое'
'ပိ'
'▁judicial'
'▁wabi'
'▁हाम्रा'
'▁tletšego'
'angile'
'▁පොඩ්'
'vidu'
'γουν'
'▁berpu'
'▁жетк'
'▁sid'
'തിനെ'
'▁cuimhne'
'筈'
'▁სტუდენ'
'▁ٱلض'
'▁dans'
'лад'
'▁mbar'
'▁koskevien'
'▁ပြီးတော့'
'▁ئۇنىڭغا'
'щее'
'▁hvor'
'▁شاگئرد'
'▁დამო'
'▁رەسىم'
'▁δικό'
'▁сериозно'
'posel'
'ໃນ'
'▁geupe'
'ткү'
'▁жылда'
'▁знаешь'
'▁menekan'
'▁filiste'
'▁Sà'
'▁ತೆರಿಗೆ'
'קס'
'▁relle'
'▁problémy'
'▁MAT'
'▁તેથી'
'▁לז'
'▁rubutun'
'▁kore'
'▁aelodau'
'▁қызметтерді'
'tais'
'▁xunu'
'▁يېنى'
'▁बिंदु'
'▁tumelo'
'ក្រុង'
'▁Carbon'
'▁それから'
'▁eaba'
'▁ಆಡಳಿತ'
'Hu'
'ودي'
'udzimu'
'▁Rasulullah'
'▁Okay'
'siv'
'▁Safe'
'ømme'
'▁وسی'
'▁hire'
'▁denken'
'▁ਕ੍ਰ'
'dị'
'▁kaws'
'▁ένα'
'хову'
'▁sembl'
'▁mubili'
'▁Իս'
'▁КС'
'▁መልክ'
'irnir'
'шы'
'▁akyldar'
'이블'
'▁Month'
'▁উপরে'
'sip'
'áp'
'▁sotto'
'wethu'
'▁Feder'
'▁hendaklah'
'▁uzaq'
'▁Für'
'彼女に'
'▁pwede'
'ттар'
'▁पृष्ठ'
'▁ezink'
'▁propiu'
'▁bibuti'
'▁supply'
'▁citas'
'▁git'
'▁mpaghara'
'▁idirnáisiúnta'
'itag'
'▁कांग्रेस'
'이면'
'འགྲ'
'▁దూ'
'▁Миңә'
'nac'
'▁growth'
'ينداکي'
'▁Милли'
'▁flic'
'ütün'
'▁metoda'
'▁սրտ'
'alyň'
'rifen'
'OB'
'yiwe'
'ortun'
'▁balet'
'ődött'
'বোৰ'
'執筆'
'▁unbe'
'▁Arena'
'ŋic'
'labor'
'▁izni'
'▁अध्ययन'
'▁fotos'
'шее'
'▁quim'
'들과'
'anyuma'
'bubu'
'▁άλλων'
'▁liema'
'chay'
'പടി'
'▁سگهجي'
'▁dzīvot'
'会社の'
'antenana'
'huru'
'▁সু'
'▁راز'
'▁vozil'
'麽'
'▁ئېيتتى'
'eswa'
'fă'
'vend'
'isala'
'obanukirwa'
'▁prodaje'
'ለህ።'
'▁Sli'
'▁ᱦᱚ'
'uwar'
'▁ceni'
'cî'
'▁שאנו'
'▁येन'
'ຫວັງ'
'ပေ'
'gið'
'▁tiszt'
'▁ditemana'
'▁fuar'
'▁pia'
'▁vem'
'▁nge'
'▁piti'
'siɣ'
'いただけ'
'ランダ'
'▁[.'
'▁cid'
'▁cxar'
'▁проје'
'▁vaha'
'▁Miksi'
'▁жүрг'
'▁итүче'
'weba'
'▁37.'
'▁дослід'
'heure'
'▁ngokug'
'▁Chrome'
'રે'
'ង្ហ'
'▁elintarvik'
'▁VPN'
'terday'
'▁ئېلان'
'▁кафе'
'▁einfald'
'▁여기에서'
'▁دلوں'
'▁малку'
'▁Lob'
'▁kumeka'
'ورس'
'шиш'
'engeneza'
'々と'
'▁گجه'
'▁Muti'
'▁fatta'
'▁карт'
'▁saal'
'ஓ'
'▁spus'
'▁Kontrol'
'▁menyesuaikan'
'▁olara'
'ibihugu'
'▁وتوو'
'өт'
'ズ'
'▁39)'
'이니라'
'斧'
'▁Minä'
'▁vakit'
'▁próx'
'ବେଳେ'
'▁3:16.'
'赤ちゃん'
'▁ପୂର୍'
'▁ɖɩɩ'
'▁tandis'
'▁মিলিয়ন'
'▁bite'
'둑'
'▁vakanga'
'▁Einstein'
'▁asta'
'ទទួលបាន'
'▁tiedät'
'▁قېلىپ'
'▁respek'
'▁cuerpu'
'▁اخر'
'про'
'▁milag'
'殆ど'
'▁mĩ'
'▁تجرب'
'▁cikakken'
'lililɛ'
'ەکەمان'
'▁entidades'
'▁ahky'
'བཙག་འཐུ་'
'▁nayo'
'▁말한다'
'▁تحقیقات'
'འོངས་'
'▁લઈને'
'ved'
'玩'
'ənc'
'▁רצי'
'▁overfor'
'buiidã'
'▁कुर्'
'MI'
'▁чадна'
'▁alk'
'▁Annie'
'▁кий'
'yami'
'▁mobu'
'弟兄'
'яси'
'▁jọ'
'関係'
'▁išmet'
'▁betaling'
'須'
'▁остана'
'▁toiminn'
'ियात'
'landse'
'▁કરાર'
'▁Sidee'
'bbang'
'조차도'
'▁shëndet'
'völd'
'▁例如'
'▁сағат'
'▁frihet'
'▁ζω'
'▁կոչ'
'▁جنگل'
'urisa'
'льно'
'chairt'
'nni'
'なければ'
'▁vòng'
'སྒྲིང་'
'▁सध'
'▁کوێ'
'ဒေ'
'xxip'
'▁အဆို'
'▁Maret'
'▁ҡот'
'▁sembo'
'erali'
'▁מתכוון'
'ሬት'
'▁edildi'
'▁سایه'
'▁באותה'
'▁だ'
'▁کۆتایی'
'▁тэдэнд'
'▁schools'
'ா'
'ekend'
'яўляецца'
'വരും'
'▁talega'
'▁hunde'
'ၼႄ'
'монро'
'▁рӯи'
'ጎ'
'▁natʋyʋ'
'▁کارول'
'kr'
'▁بازیکن'
'alẽhe'
'▁দিনৰ'
'▁теркә'
'▁வேண்டுமா'
'▁мот'
'▁volevo'
'ிலும்'
'▁Európ'
'▁svoja'
'▁fanda'
'課'
'jenih'
'ჟთ'
'▁између'
'दानी'
'▁százal'
'▁servei'
'ካል'
'▁식량'
'▁jikkon'
'տում'
'▁ဆိုလို'
'▁tk'
'▁Pappassalama'
'ileach'
'▁ɔkae'
'▁dikjarazzjoni'
'▁Luxemburg'
'▁aire'
'▁nasto'
'▁pyy'
'▁ግንኙ'
'▁ugboro'
'▁wakale'
'▁ئىكەن'
'amatay'
'ွပ်ႈ'
'▁anih'
'ateen'
'afia'
'▁sidroe'
'thlak'
'erung'
'▁hữu'
'▁довољно'
'њу'
'▁үст'
'▁ĩandĩkonĩ'
'▁पर्यंत'
'▁rangu'
'▁маж'
'▁dî'
'▁prve'
'ふさ'
'▁بس'
'▁malinga'
'▁altceva'
'hanog'
'uroe'
'▁Listra'
'apachas'
'▁paus'
'▁existencia'
'▁wapo'
'▁ҳай'
'▁Boeing'
'▁Potřebu'
'ดี๋ยว'
'興'
'▁hangin'
'▁kuphatikizapo'
'▁evidente'
'ڪن'
'urratti'
'▁leda'
'manie'
'īt'
'▁sangad'
'väär'
'▁офари'
'▁ፍላ'
'▁einschließlich'
'chikpaq'
'▁cruaidh'
'▁inatey'
'כו'
'▁Akkasumas'
'jhaba'
'धिकार'
'▁સી'
'▁жылы'
'▁umkh'
'▁Malta'
'8/'
'▁sepertinya'
'▁għad'
'гор'
'inabang'
'▁સ્ટે'
'▁greu'
'▁छैक'
'▁bakter'
'▁வாங்கி'
'▁Cookies'
'▁tegevuse'
'ikeke'
'elta'
'ནག་'
'atora'
'embrī'
'▁срок'
'都是'
'▁kũumã'
'▁Cos'
'麻'
'▁nangabe'
'osavuta'
'ove'
'▁ուշ'
'▁dragon'
'▁botša'
'▁చా'
'▁turvallisuus'
'▁sanya'
'▁adun'
'ց'
'▁Sag'
'▁techni'
'▁kawen'
'▁obrov'
'▁qend'
'▁бей'
'▁କର୍ତ୍ତ'
'elum'
'▁noticias'
'▁lille'
'我是'
'▁filino'
'▁اورشلئمده'
'▁nemaju'
'ondola'
'▁kansi'
'▁Kob'
'▁gydym'
'glwydd'
'动物'
'uawa'
'位'
'▁mekim'
'▁broj'
'▁জ্'
'▁Pine'
'▁Fariseo'
'▁베'
'▁nr'
'▁mif'
'▁biok'
'▁ባይ'
'▁5.1'
'▁wegen'
'人々は'
'▁போதும்'
'▁kaniadtong'
'▁bhaint'
'▁altes'
'politi'
'▁prichádza'
'▁ᱣ'
'▁εξου'
'ाइल'
'lũngalu'
'▁kugwiritsa'
'▁Conven'
'▁pense'
'ዑ'
'ē'
'batar'
'參與'
'پتى'
'▁זיי'
'جوری'
'माने'
'求你'
'liklə'
'▁मोठ्या'
'▁ວ່າ'
'▁himo'
'ပ်ႉ'
'▁эшмәкәр'
'▁infeksi'
'▁کامی'
'人もの'
'▁Susitar'
'туа'
'ibion'
'▁kän'
'цеп'
'▁lán'
'▁nzubu'
'ᱤᱞ'
'▁Holiday'
'▁бағдарлама'
'▁ግና፡'
'▁bonala'
'▁세계적인'
'▁requis'
'▁emner'
'тель'
'▁комитет'
'▁kinder'
'▁makuha'
'▁өнімді'
'▁Tech'
'▁dispuesto'
'▁III'
'▁ദേ'
'▁Ýeho'
'ontosabb'
'์'
'▁demain'
'ostra'
'ismus'
'▁وهذا'
'贈'
'▁להיכנס'
'iew'
'▁убил'
'▁diwa'
'▁እርስዎ'
'▁faay'
'▁ندارید'
'成人'
'▁egna'
'Ị'
'赦'
'▁আমেৰিকা'
'▁যা'
'zʋʋ'
'ဆာင္'
'▁හැම'
'▁moes'
'▁sạn'
'直に'
'▁पक'
'▁ATM'
'▁Bingana'
'▁nima'
'iji'
'▁Jehov'
'皇帝'
'မှုနဲ့'
'▁konyi'
'馬'
'▁machen'
'▁pwod'
'▁посе'
'▁nala'
'▁вол'
'大いに'
'币'
'laren'
'▁bruidhinn'
'wònman'
'▁ಆಫ'
'▁korist'
'▁لەوانەیە'
'latha'
'οδο'
'もしない'
'jid'
'▁何を'
'▁protok'
'▁уга'
'▁Romano'
'▁ವೈದ್ಯಕೀಯ'
'▁ɛleka'
'Аллаһ'
'技'
'imbi'
'لين'
'▁16'
'▁ئێ'
'arit'
'▁ཞིབ་དཔྱད་རྐྱབ་'
'▁құжаттардың'
'▁Shah'
'წვე'
'▁எ'
'▁АН'
'▁сёння'
'Uffiċċju'
'▁rave'
'кве'
'hawini'
'▁ovdje'
'ຕົນ'
'▁सुनी'
'▁момиче'
'▁fys'
'ამოვნ'
'▁kurya'
'▁ياشاي'
'bina'
'▁любы'
'アの'
'▁અધ'
'რ'
'▁cɔk'
'▁rượu'
'▁Answer'
'にならない'
'▁grab'
'▁Nacions'
'tiba'
'ulindlela'
'▁নিশ'
'▁жазу'
'▁ተጠ'
'▁의미하는'
'▁Konstantin'
'ുകൊണ്ട'
'ವಿಷ್ಯ'
'▁이삭'
'▁Anaa'
'▁जगह'
'fetikilo'
'▁humà'
'ຂາຍ'
'しており'
'と指摘'
'많'
'▁Эми'
'▁moeili'
'▁ଦେଖିବାକୁ'
'▁gjendje'
'▁Arts'
'▁Despues'
'پیوتر'
'ារម្មណ៍'
'yira'
'▁megért'
'▁پڑھیں'
'▁ወትሩ'
'gabanya'
'▁vahvist'
'न्ह'
'▁ધી'
'оба'
'▁thart'
'pā'
'▁toimiv'
'▁ішкі'
'▁naveg'
'▁поми'
'▁ক্লা'
'▁മനുഷ്യൻ'
'operasi'
'▁hebt'
'▁Ӯро'
'▁آيو'
'სენ'
'▁يرده'
'▁Mimo'
'▁tiis'
'▁szó'
'▁чыгып'
'▁ajuda'
'▁šok'
'▁Büyük'
'ସ୍'
'▁geboorte'
'▁नयँ'
'▁gadrevi'
'▁pikiran'
'▁пеши'
'▁garantizar'
'▁കോൺഗ്ര'
'programme'
'을'
'▁كرده'
'活動の'
'▁팀을'
'စွာ'
'▁unions'
'▁likuavo'
'0,'
'▁lenaneo'
'mişdir'
'▁ɔkasa'
'▁Commissie'
'ాలి'
'▁často'
'▁получи'
'yonna'
'▁ተዋ'
'▁gyárt'
'▁desarr'
'rati'
'▁Abe'
'▁уйлап'
'▁heim'
'ũng'
'ficació'
'▁inimene'
'▁Ам'
'▁20.000'
'vvur'
'销'
'all'
'▁Kir'
'▁نوش'
'tout'
'▁자신과'
'▁ترافی'
'▁menyebabkan'
'▁pamutu'
'▁경향'
'▁וואלט'
'िनो'
'innan'
'▁rokoch'
'▁전부터'
'inete'
'▁batali'
'žia'
'▁نوجوان'
'▁napl'
'▁iei'
'ピン'
'▁सोने'
'▁vasaras'
'▁taikomas'
'▁зема'
'▁я'
'öbb'
'▁විශ්වාස'
'▁fragen'
'यों'
'embros'
'▁Five'
'▁používať'
'▁re'
'အင်'
'भागी'
'ụdị'
'▁calcula'
'ାରିଖ'
'▁කවදාවත්'
'ndo'
'しているが'
'▁jautā'
'▁chó'
'▁Ɛsɔ'
'▁leoleo'
'ethi'
'▁spreek'
'▁kelion'
'▁көрөлү'
'证'
'▁हाथ'
'▁korláto'
'▁بشأن'
'▁entèn'
'▁therešo'
'▁करताना'
'▁kuntigiw'
'▁ಒದಗ'
'werke'
'▁सर्व'
'▁kontrola'
'▁聖書'
'▁पसंद'
'isión'
'ئەو'
'▁ತುಂಬಾ'
'▁chho'
'▁սովոր'
'▁Jakob'
'▁ههههههه'
'▁сталося'
'െല്ലാം'
'▁wosatha'
'▁venas'
'▁ɖokpo'
'▁geur'
'ስተኛ'
'▁etdir'
'▁jäsenvalti'
'▁फ़'
'▁kuramba'
'lighe'
'CS'
'ૂક'
'спек'
'▁onts'
'▁toată'
'▁Nasıl'
'ulunga'
'▁співпрацю'
'▁bahaya'
'▁hwi'
'vega'
'▁Dú'
'▁ēkas'
'ውንም'
'▁mujer'
'真実'
'▁Ponieważ'
'ሁ።'
'▁Terdapat'
'öc'
'▁חשבון'
'▁गि'
'▁емдеу'
'дөл'
'šlo'
'▁tego'
'agenda'
'▁mwal'
'▁그는'
'▁可'
'▁95/46/'
'▁ዝነበሮ'
'▁Sat'
'周囲'
'归'
'▁idag'
'▁7.000'
'▁sunga'
'化の'
'▁skupnosti'
'▁antaa'
'fordr'
'価格'
'▁סט'
'▁mại'
'రుగ'
'▁ນາທີ'
'knc_Latn'
'▁кӯ'
'▁صاحبان'
'▁dɔɔni'
'▁comando'
'▁ఉత్ప'
'目標を'
'▁uB'
'má'
'▁visage'
'▁Dimatekenu'
'雰囲'
'につなが'
'wikilu'
'ਸਥ'
'▁groß'
'ಿರಬಹುದು'
'▁banso'
'▁ritmo'
'ார்'
'▁খাওয়া'
'▁veiliutaki'
'▁pozná'
'▁ով'
'▁pridru'
'vés'
'fake'
'au'
'úna'
'udessa'
'▁feadh'
'そのまま'
'اهه'
'ಿರುವುದು'
'හුව'
'တုန်း'
'▁dhin'
'λί'
'▁उत्कृष्ट'
'чої'
'▁españo'
'▁ყოველთვის'
'▁صلى'
'AN'
'▁diezgan'
'▁bem'
'▁xunt'
'istus'
'▁rib'
'▁bànni'
'▁taká'
'▁افغان'
'పూర్'
'▁semea'
'▁Gake'
'▁آشنا'
'▁촉진'
'▁abg'
'▁чынында'
'▁rimay'
'▁ర'
'ehl'
'eld'
'▁અવાજ'
'텔'
'▁eby'
'▁평균'
'▁шын'
'ातः'
'හො'
'▁suport'
'▁سوس'
'▁jàmm'
'ppu'
'િકે'
'▁इच्छित'
'garen'
'нет'
'▁құбы'
'흔'
'▁situada'
'▁9:3'
'▁Savienības'
'ၢႆႇ'
'▁boleh'
'▁Individu'
'ición'
'▁дес'
'kea'
'▁wokpɔ'
'▁ukweli'
'▁யூ'
'Imat'
'▁akhala'
'osst'
'▁گام'
'▁enkle'
'恩典'
'raud'
'▁কি'
'▁모른'
'▁бекем'
'फो'
'▁kunnskap'
'▁айыры'
'▁lissa'
'▁શામેલ'
'▁విశ్'
'wesibonelo'
'сылар'
'▁Dag'
'▁ზე'
'tiau'
'▁toma'
'rakan'
'▁skupina'
'▁Európy'
'óç'
'▁بۆچی'
'வி'
'▁nendlela'
'▁capacità'
'klik'
'▁Conte'
'▁omena'
'▁소식'
'▁beren'
'▁bedeutet'
'버'
'▁избори'
'▁skatu'
'િત્વ'
'▁കാർ'
'▁섭취'
'umone'
'▁शुरू'
'▁about'
'інде'
'▁hanze'
'▁sɛgɛsɛ'
'▁dimatekenu'
'▁liosi'
'ītas'
'yasyon'
'▁близо'
'▁ສະຫະລັດ'
'तौर'
'▁Je'
'chikchu'
'▁ndiya'
'▁کہہ'
'▁Tú'
'▁aklat'
'ώρα'
'▁momentos'
'▁csökk'
'тардын'
'ຫນ'
'プライバ'
'दृष्ट'
'▁uruna'
'ৰিক'
'ဘယ်'
'▁Avropa'
'に帰'
'endhe'
'ทรง'
'▁üks'
'vwa'
'ттің'
'▁വ'
'▁mourir'
'▁magt'
'[9]'
'ଙ୍କୁ'
'▁utjäna'
'▁okuwyny'
'▁objeto'
'ردم'
'▁ردی'
'ხმარ'
'▁paliel'
'hlayo'
'えた'
'ήστε'
'▁heter'
'▁के'
'盛り'
'▁ситуація'
'▁teknolog'
'▁cuda'
'▁להא'
'རྒྱལ་བ་'
'гип'
'▁nasem'
'▁propuestas'
'lamaz'
'▁petró'
'▁bakti'
'▁Tira'
'غت'
'▁ھەقى'
'unternehmen'
'▁zadz'
'pod'
'▁abalandeli'
'▁Egy'
'▁jaqisti'
'▁sarugo'
'cemos'
'▁accion'
'▁息子'
'▁들이'
'▁isab'
'kyek'
'indy'
'འབད་'
'▁List'
'▁magagawa'
'▁아무도'
'▁ئاۋ'
'fang'
'▁bilood'
'▁quot'
'తిక'
'hol'
'▁widzisz'
'▁населения'
'ག'
'▁ย'
'▁labantu'
'▁pussi'
'▁designa'
'▁bikin'
'▁месяца'
'вету'
'barima'
'▁ɖɩla'
'ထူး'
'▁Waren'
'tignay'
'▁그대의'
'▁şəxsi'
'▁angat'
'▁ສໍາລັບ'
'島の'
'▁жен'
'ствительно'
'▁যাদের'
'สุข'
'umata'
'щ'
'▁kupitia'
'ศรั'
'▁Yɩɩl'
'ಾಗ್'
'ண்ணு'
'▁viranoma'
'▁پنج'
'▁semetone'
'▁carro'
'する者'
'하여'
'▁Ergeb'
'▁ysraýyl'
'ልም'
'Ки'
'टर्न'
'▁כּ'
'དགོ།'
'жих'
'-9)'
'▁ବିକା'
'ເກັບ'
'caca'
'ayik'
'ၵ'
'▁كله'
'▁होइगा'
'▁סוף'
'▁sapevo'
'▁vst'
'ināsies'
'▁állam'
'▁оҡ'
'▁okuweereza'
'▁linye'
'▁тәэ'
'▁بهتر'
'▁دفه'
'▁ulu'
'▁bilm'
'ارا'
'▁दस'
'▁વાત'
'▁lagée'
'▁Aztán'
'▁mkutano'
'▁месяцев'
'▁zabra'
'▁nhtoi'
'▁ауылдық'
'▁hilbij'
'▁Bezug'
'▁মন্ত্ৰী'
'lava'
'▁dasarnya'
'▁qafas'
'balikan'
'▁سني'
'ിച്ചു'
'üldü'
'ਬਾਤ'
'stru'
'как'
'▁ورزشی'
'impa'
'▁понял'
'ዕድ'
'ayona'
'▁seguinte'
'▁Myslí'
'ật'
'▁venku'
'qur'
'▁margin'
'orth'
'▁Wot'
'لیل'
'▁khana'
'iseho'
'úùkù'
'otsedwa'
'անից'
'▁$2'
'འཚིག'
'ħaq'
'▁опози'
'▁plūs'
'▁dambi'
'理論'
'prin'
'▁feed'
'óòótó'
'▁Тан'
'▁सँग'
'▁הסיבה'
'▁街'
'▁ווי'
'cf'
'ǎ'
'▁트'
'▁zdravst'
'▁konusunda'
'yry'
'bangelwa'
'▁vajab'
'وەها'
'▁ပွ'
'ñeiro'
'▁זען'
'▁מוח'
'▁ಬೀ'
'ໂທລະ'
'▁बरिस'
'▁chis'
'▁dispositivo'
'ཤས་'
'នាំ'
'▁वित्त'
'জনে'
'▁Μπορούμε'
'▁جیهانی'
'▁ҡап'
'וֹ'
'larga'
'▁dutis'
'修正'
'▁nuen'
'ɔtɔ'
'luż'
'Ո'
'్వ'
'▁sad'
'▁방식으로'
'▁tric'
'eszcze'
'མ་བཅུག་'
'▁تای'
'▁meilleur'
'▁крајот'
'lastele'
'▁kieji'
'sahu'
'ându'
'▁khứ'
'PH'
'wezi'
'▁دىل'
'iausių'
'▁kuacha'
'▁otsus'
'▁Mars'
'▁امتی'
'▁Chantapis'
'▁suwe'
'▁erger'
'motor'
'膽'
'▁doga'
'མས་ཅད་'
'▁märk'
'▁dë'
'▁32.'
'▁empê'
'gbu'
'▁бұйым'
'▁شێ'
'▁brutto'
'▁Classic'
'▁ورئل'
'▁চৰকাৰৰ'
'艺术'
'atọ'
'▁нийг'
'▁회사가'
'gel'
'▁menger'
'ຽນ'
'다운'
'njo'
'▁sweswi'
'ເວົ້າວ່າ'
'▁resistencia'
'ึกษา'
'▁ଆମେରିକା'
'▁tenni'
'▁memeriksa'
'ลึก'
'ây'
'rut'
'▁erabiltzen'
'▁கவன'
'▁هكذا'
'▁ឆ'
'▁подпи'
'▁ယုဒ'
'IHubo'
'▁rany'
'▁продъл'
'erit'
'▁huna'
'▁հինգ'
'▁жазылсын'
'ανο'
'▁përp'
'▁והח'
'▁müü'
'▁আছোঁ'
'▁circula'
'inimas'
'▁ነጥብ'
'▁вважає'
'▁vsega'
'emain'
'▁юл'
'▁nahas'
'ائڻ'
'▁හු'
'aysay'
'▁sórt'
'▁죽일'
'▁entier'
'дна'
'を越'
'ɛɛrɛ'
'▁እስካ'
'መስ'
'▁pria'
'▁سڏ'
'▁твои'
'▁letak'
'членки'
'▁क्योंकि'
'▁방지'
'れます'
'▁Worth'
'▁էլեկ'
'▁tomato'
'▁faceţi'
'▁چاپ'
'▁muyenera'
'▁behov'
'cká'
'▁kinn'
'▁कधीही'
'▁शूटिंग'
'▁povz'
'▁নিষে'
'▁toliau'
'▁syntym'
'疆'
'▁sākas'
'ந்த'
'Gi'
'▁vė'
'jnuna'
'▁Тебе'
'▁Бөтен'
'▁ойы'
'▁حد'
'▁passar'
'ಕ್ತಿ'
'▁Ŝ'
'▁maty'
'raindray'
'ダーは'
'▁boshla'
'▁Cone'
'▁soutien'
'▁підкре'
'▁ምዝ'
'па'
'▁ಬಿಡುಗಡೆ'
'odie'
'▁artiklarna'
'madụ'
'▁диләр'
'Michael'
'ALO'
'Υ'
'▁wisq'
'▁kamot'
'周'
'neer'
'▁meug'
'▁છુ'
'nar'
'▁xôna'
'čenja'
'▁kusak'
'▁maanden'
'▁asuransi'
'ють'
'▁کارشن'
'▁nyaya'
'▁Atua'
'▁lebelo'
'▁Пошто'
'▁سۭ'
'ттары'
'▁denunci'
'egg'
'▁musoh'
'▁میش'
'▁Dewi'
'▁αγορά'
'ṣ'
'▁malam'
'ради'
'ສາວ'
'▁загри'
'πρεπε'
'প্পা'
'▁estu'
'▁akí'
'▁marané'
'yig'
'▁аҙ'
'▁effekter'
'ವರೆಗೂ'
'▁ಹಲ'
'トレ'
'▁datum'
'кіх'
'▁vats'
'▁thiaan'
'▁liknande'
'االله'
'overs'
'དཀོན་མཆོག་ག'
'isab'
'テキサス'
'▁तपा'
'հար'
'▁http'
'hina'
'▁kwel'
'▁véget'
'▁dermed'
'▁inje'
'žiu'
'stad'
'▁சக்தி'
'ishka'
'%-'
'▁sowohl'
'▁laén'
'▁several'
'ऱ्या'
'▁performance'
'▁سلس'
'▁biktima'
'▁җиң'
'▁Ane'
'feka'
'▁anseo'
'အနည်းငယ်'
'ৰ্ভ'
'▁privat'
'▁lewai'
'нито'
'စား'
'▁tool'
'▁відмін'
'▁employ'
'▁zvi'
'ොන්'
'pna'
'zweni'
'ႂၢမ်း'
'мәгез'
'▁Warum'
'▁kembar'
'▁sát'
'дот'
'▁throw'
'បុ'
'▁arkitekt'
'▁anner'
'zı'
'werhu'
'igisho'
'▁Ogni'
'ንና'
'ukuntu'
'▁gɩ'
'お母'
'関連の'
'פיים'
'▁ҡоро'
'▁krijgen'
'이라'
'▁kënne'
'確認'
'▁merak'
'▁निकै'
'▁podataka'
'郡'
'zingiz'
'▁Бра'
'మాన'
'دىر'
'ទាំងអស់គ្នា'
'Ư'
'▁endelig'
'▁ಪೂರ್ವ'
'ປະເທດ'
'تلي'
'ۇشى'
'▁lower'
'▁жоспар'
'▁امام'
'▁hat'
'▁Belemgbunlililɛ'
'▁fidirana'
'▁ans'
'▁gevo'
'▁얘기'
'▁biya'
'det'
'enyu'
'ಂಧ'
'▁त्याचे'
'▁mubvunzo'
'▁njengobe'
'▁булыр'
'▁‹‹'
'gora'
'▁sce'
'▁matèria'
'▁univers'
'▁pasak'
'etsera'
'▁okviru'
'▁ਬਰ'
'▁zendo'
'члэн'
'ეფ'
'ረኽ'
'andek'
".',"
'▁Garr'
'▁Washington'
'주를'
'̃̀'
'▁Por'
'ပိုင်း'
'乘'
'配慮'
'▁געהאט'
'▁kém'
'▁posla'
'బ్బంది'
'▁viszont'
'▁Lwa'
'▁शिक्ष'
'ຣະ'
'▁indruk'
'▁bolezni'
'▁Chaw'
'▁വാർത്ത'
'▁tivi'
'sod'
'▁entry'
'ханд'
'▁револу'
'જ્ઞ'
'hula'
'▁anuonyam'
'ɖedzi'
'▁осъ'
'▁muvuabu'
'▁obra'
'intul'
'седі'
'рій'
'▁justi'
'ናን'
'olf'
'འཚ'
'менті'
'▁tekniku'
'▁полно'
'ckej'
'▁vach'
'ंगा'
'lidad'
'▁apmāc'
'ื'
'зију'
'▁följd'
'amp'
'▁yurt'
'vys'
'چىلىرى'
'▁birth'
'lenlɛ'
'▁тиіс'
'ektől'
'▁nástroje'
'ロール'
'▁Nike'
'ap'
'▁pozi'
'wura'
'ိုးစား'
'▁Σύ'
'나이다'
'▁politisk'
'▁תוך'
'▁Сезнең'
'▁таж'
'▁astăzi'
'▁සට'
'▁कहो'
'▁स्मृति'
'▁Durant'
'ја'
'тувати'
'▁ụkwụ'
'▁барырга'
'▁assz'
'▁علام'
'▁полови'
'lɔeba'
'▁nezvin'
'밭'
'▁khombo'
'▁주에'
'▁şeýle'
'さは'
'▁사용자는'
'▁بگیرند'
'fél'
'akaza'
'▁įvyko'
'▁mavabyi'
'▁iavulu'
'ĩkia'
'▁kennuu'
'▁içinde'
'ທຶນ'
'▁بوراخ'
'hogy'
'▁Taurat'
'▁medlemsstaten'
'▁2014'
'õn'
'駐車'
'▁dandeessu'
'▁antokaman'
'▁vaikuttaa'
'▁복음을'
'ρίζει'
'▁bagi'
'▁کارم'
'ワールド'
'▁اتحاد'
'śnie'
'الار'
'▁tipo'
'▁promin'
'▁Ibrayima'
'▁կարելի'
'▁ষ্ট'
'▁ɗun'
'▁पाठ्य'
'▁בג'
'ויי'
'Phi'
'▁tagon'
'▁ৰি'
'ciya'
'▁Ысрайыл'
'onyam'
'▁бақы'
'▁Аллаһыга'
'▁Ñu'
'hran'
'ég'
'haŵi'
'тніх'
'▁lac'
'▁પી'
'itahu'
'▁facɛ'
'観光'
'▁hapo'
'▁Նախ'
'▁최근'
'লৈকে'
'lahle'
'เหย'
'▁afei'
'Regolament'
'洁'
'▁gemenskap'
'▁wapens'
'▁pwot'
'▁říkám'
'ɖela'
'▁Klas'
'▁Pomo'
'werenga'
'▁کئچ'
'changes'
'Univers'
'▁kron'
'▁contr'
'▁mikasika'
'▁కాకుండా'
'ếu'
'▁रख'
'शाला'
'ĩtũ'
'▁مير'
'ଚ୍ଛା'
'▁יום'
'▁प्रशिक्ष'
'アクセ'
'▁Mf'
'▁오고'
'▁क़'
'▁ঘুরে'
'dar'
'▁فهم'
'▁omiyo'
'▁hayır'
'▁kũthi'
'▁ceuk'
'▁upi'
'▁शनि'
'ंध'
'▁экономи'
'▁Doc'
'ଳକୁ'
'▁వ్యాయా'
'znos'
'▁bilg'
'▁uká'
'▁Tahu'
'Mint'
'▁Conta'
'▁Meri'
'が必要だ'
'ኩምን'
'▁neb'
'aget'
'ట్టు'
'▁딱'
'▁ئەڵ'
'▁অথচ'
'▁прилику'
'zuba'
'da'
'▁tiedot'
'▁મળ્યું'
'្រី'
'▁herself'
'▁ଉଚିତ୍'
'spa_Latn'
'▁Näin'
'▁jáde'
'▁যোগ'
'সাম'
'ottom'
'alẽ'
'癖'
'وء'
'▁Ilaq'
'▁ಅಂದರೆ'
'▁tập'
'▁արդ'
'▁bilme'
'▁Закона'
'◦'
'▁విద్య'
'ल्लाह'
'▁story'
'▁näiden'
'▁ddatblygu'
'ৰি'
'zades'
'▁yakhe'
'▁вимагає'
'▁ioma'
'▁afon'
'▁issues'
'ୈତିକ'
'ğini'
'bhadh'
'▁visame'
'effett'
'▁aluminium'
'▁jirriżulta'
'▁میدان'
'▁ода'
'གོ་'
'gebracht'
'▁Mupashi'
'▁anana'
'న్నే'
'▁bereits'
'▁говорю'
'▁Lago'
'visning'
'▁ਸਕਦੀ'
'創造'
'▁inkwistjoni'
'nio'
'▁nout'
'▁Шуннан'
'と名'
'ማር'
'▁فرض'
'यर'
'▁zaak'
'▁وکیل'
'řil'
'▁utenti'
'▁га'
'▁הוכ'
'撮'
'▁Swed'
'▁amagambo'
'▁ব্লগ'
'ಡಿಯ'
'leho'
'พลัง'
'伯'
'▁Yaya'
'▁পাঁচ'
'▁ampliar'
'▁pangkat'
'▁Verantwort'
'ыл'
'▁ਘੰ'
'▁በ'
'▁iam'
'▁ကိုယ်တိုင်'
'مق'
'▁көрүн'
'iałam'
'▁Maf'
'▁Мемлеке'
'▁trụ'
'曇'
'▁gələcək'
'▁kanila'
'▁leader'
'▁লু'
'イン'
'▁نق'
'యత్'
'▁ମୋଦୀ'
'▁фаришта'
'ೇಷ'
'ってみ'
'သိမ်း'
'▁տալ'
'ಟ್ಟ'
'▁Naam'
'▁azap'
'▁သင်'
'idy'
'▁xesha'
'▁változás'
'▁Voit'
'idla'
'▁ntate'
'▁ਤਹਿਤ'
'mala'
'କ୍'
'▁شخص'
'▁hotellet'
'념'
'ισα'
'▁rou'
'▁Rib'
'nék'
'бия'
'▁עומ'
'ේසුස්'
'aynatachus'
'shada'
'lavoko'
'▁تذهب'
'▁Dina'
'merce'
'araki'
'йте'
'▁زیست'
'amari'
'▁אני'
'पुट'
'▁ikaw'
'zho_Hans'
'ishibe'
'धील'
'▁ölk'
'yät'
'▁inglesa'
'▁ಬಾ'
'▁信道'
'▁സ്ഥിര'
'▁깊'
'▁महत्व'
'▁organisasyon'
'▁fanehoan'
'▁stak'
'indulitsa'
'чина'
'▁mogolo'
'▁Viss'
'▁santukan'
'▁બન્ને'
'EA'
'wao'
'▁مت'
'ီး'
'▁pomis'
'▁latin'
'▁gcomhr'
'ment'
'wargan'
'▁6:8)'
'▁ģim'
'▁jintu'
'غام'
'▁lö'
'▁zmanj'
'▁dež'
'▁disiplina'
'▁ovit'
'▁праці'
'있게'
'▁studere'
'hlukeneyo'
'ାଗତ'
'▁maay'
'▁nimbã'
'▁CI'
'▁rapa'
'▁چکا'
'▁zastr'
'リス'
'▁stosowania'
'▁lielāku'
'▁kilder'
'ultati'
'▁ngwatan'
'ppess'
'▁неде'
'sì'
'▁सदी'
'zky'
'wodd'
'▁fanela'
'▁Ĩtina'
'▁такива'
'ुनिक'
'▁ശി'
'▁оние'
'ၸိူဝ်း'
'yk'
'▁kampanye'
'▁taps'
'▁мовою'
'▁дозволяє'
'ukora'
'▁perdita'
'▁fewn'
'▁lots'
'▁측면'
'▁selge'
'abhsú'
'៦'
'▁ይችላሉ።'
'နော်။'
'дардың'
'▁Zor'
'▁നിർമ്മ'
'▁გოგ'
'zaza'
'anyiko'
'▁મોટાભાગના'
'ennyi'
'▁dès'
'▁സംബന്ധ'
'▁iesniegt'
'▁letlalo'
'▁tutan'
'▁ڪلا'
'ద్ద'
'▁өтө'
'▁карый'
'▁үҙебеҙ'
'▁relació'
'▁miklu'
'ేష'
'▁લ'
'팠'
'▁ਫੀ'
'▁hukunci'
'▁situat'
'▁كنت'
'▁табылады'
'▁sɔgbe'
'uluka'
'ንካራ'
'▁bersik'
'పెట్ట'
'▁dhiif'
'▁gelo'
'▁td'
'▁olio'
'caniti'
'▁lahay'
'表演'
'board'
'ốt'
'▁mand'
'ğinden'
'▁unyana'
'▁cì'
'述'
'宗族'
'hints'
'▁тем'
'▁반복'
'▁olmaya'
'တည်းက'
'▁astr'
'ራ።'
'▁ਕਿਵੇਂ'
'▁hủy'
'རྐྱངམ་'
'ensin'
'▁उलट'
'▁મુશ્કેલી'
'▁lent'
'ushiwo'
'▁thabile'
'ghia'
'▁angrep'
'ходять'
'wino'
'▁batang'
'ඩ්'
'慈的'
'▁papeles'
'Ĩ'
'▁ג'
'ଧାନ'
'▁worked'
'▁ንጉስ'
'▁Советот'
'▁унан'
'ወድ'
'▁مبارک'
'▁mengwe'
'shores'
'īvās'
'unga'
'వి'
'▁+'
'בודה'
'定義'
'▁Organiza'
'▁autoritats'
'쿨'
'▁ਥ'
'▁կոր'
'▁direktivet'
'▁Bakol'
'nyom'
'▁လက်တွေ့'
'명한'
'▁Bö'
'▁rinne'
'ury'
'▁jwe'
'diz'
'uosi'
'▁దిన'
'oració'
'ivumel'
'▁ũcio'
'▁прија'
'ạch'
'▁išsk'
'▁წლის'
'▁tōna'
'▁mortu'
'▁multilater'
'▁ituxi'
'▁కొనసాగించ'
'▁patay'
'▁철'
'▁pertanyaan'
'▁तिमीहरू'
'▁cïk'
'▁faktori'
'▁ocina'
'ད་པར་'
'▁қаты'
'jila'
'始める'
'▁ggwanga'
'▁тор'
'▁gewel'
'▁tokom'
'▁1871'
'▁Хэрвээ'
'▁إلى'
'▁nom'
'▁théann'
'ганга'
'▁šādi'
'యిన'
'▁bort'
'呼吸'
'▁raksturo'
'▁праве'
'▁ње'
'▁कलम'
'▁iyyan'
'لا'
'":'
'スリ'
'▁agbegbe'
'elekile'
'▁Kag'
'▁Rusland'
'valur'
'▁bendrovės'
'▁свае'
'▁རེད་'
'ాల'
'▁bayyana'
'imbangan'
'▁terras'
'轟'
'▁sauti'
'ders'
'▁സ്ഥാപ'
'▁بشن'
'▁teni'
'っていく'
'▁obstant'
'ona'
'▁chahiye'
'akhala'
'vanana'
'▁afɔku'
'ми'
'ogas'
'ێرد'
'▁ndeye'
'orú'
'▁ponúka'
'▁míenye'
'▁бий'
'ਤਰੀ'
'▁använ'
'▁mbala'
'51'
'▁Lorenzo'
'▁दिवा'
'ពី'
'irh'
'▁maah'
'-28'
'▁conser'
'তঃ'
'▁જાહેર'
'▁fer'
'▁kutwadisa'
'zionâl'
'40'
'▁wapatali'
'▁menerapkan'
'▁kéne'
'▁Син'
'▁булмаса'
'рт'
'▁ďalších'
'▁моите'
'▁Wsp'
'▁நாளை'
'amanje'
'▁dibenarkan'
'ësisht'
'FDA'
'▁semplice'
'asabing'
'osia'
'▁நல்ல'
'ツイ'
'▁nemlig'
'▁ሰዎችን'
'▁Vano'
'▁reemb'
'ਪਨ'
'заб'
'▁34'
'▁төрлө'
'▁erklären'
'▁ఆలోచి'
'▁Lenovo'
'▁السي'
'▁Оған'
'مک'
'έβαι'
'-201'
'tieb'
'▁kuandika'
'บ้า'
'▁deo'
'▁үс'
'▁izstrād'
'jans'
'ace'
'merking'
'etsoe'
'▁taur'
'▁agew'
'ċittadini'
'▁sugo'
'▁Urugero'
'▁OT'
'artista'
'▁کتنا'
'▁lấy'
'etujui'
'▁awaknyan'
'сал'
'▁diploma'
'▁nin'
'▁বাংলাদেশ'
'▁zakł'
'▁δια'
'ineiden'
'ต่อไป'
'▁Ukhamasti'
'▁specta'
'▁Yagize'
'jejwe'
'мд'
'ongoluelu'
'ẹ'
'▁vizit'
'▁пуно'
'сың'
'entiem'
'▁갖고'
'▁Mó'
'somma'
'уе'
'raha'
'▁dikole'
'시피'
'▁طب'
'▁ഇട'
'κύ'
'▁として'
'▁mitɔn'
'▁Prod'
'拡散'
'▁akade'
'eder'
'▁Ser'
'omas'
'21'
'ເພ'
'ධිපති'
'▁sarat'
'▁komekama'
'ទាំងអស់'
'ئ'
'しかった'
'▁bejn'
'ices'
'ipun'
'рят'
'▁ahandi'
'▁へ'
'িক'
'▁fahombia'
'▁thil'
'▁αποδεί'
'ায়ক'
'▁ْ'
'▁kovina'
'▁Messias'
'▁זאל'
'▁secon'
'▁pad'
'ograph'
'▁ngɛ'
'▁wawal'
'▁conv'
'▁ghaghị'
'が存在'
'siga'
'不信'
'銀行'
'▁htan'
'▁అవకాశ'
'▁pic'
'ことを示'
'▁만난'
'▁ਕੌਣ'
'▁ሌ'
'▁olej'
'eksper'
'▁avua'
'▁প্রভাব'
'▁экен'
'▁güçlü'
'▁Troy'
'▁fug'
'ियो'
'▁tsamaisa'
'▁அடை'
'▁vulavur'
'▁ਹੋਣ'
'pidi'
'▁Verbre'
'əti'
'ମୋ'
'▁tanto'
'məyəcək'
'▁gyóg'
'▁повідоми'
'▁qulqullu'
'▁ebirala'
'▁ужасно'
'▁кажи'
'▁[+]'
'見て'
'▁นั้น'
'▁BS'
'ਵੱ'
'▁טרע'
'̳'
'▁laisi'
'▁دەتوانم'
'加速'
'▁பேச'
'佑'
'▁traktat'
'▁құзыре'
'▁လုံး'
'nzila'
'улна'
'▁Bikpela'
'▁vedi'
'▁Pilato'
'▁15,000'
'▁huruma'
'▁mũsumbĩ'
'TF'
'şdır'
'▁ప్రశ్ని'
'▁વધ'
'▁player'
'▁Andes'
'▁ኣን'
'ammwe'
'സ്റ്റ്'
'▁tlhagisa'
'aggiisa'
'杂'
'▁tikkelt'
'▁سەۋەب'
'ອກາດ'
'▁시간을'
'ሸት'
'گرد'
'ské'
'▁kiy'
'itaj'
'▁പറ്റ'
'amuane'
'▁întâi'
'idog'
'▁angaj'
'オーナー'
'▁delav'
'▁jamg'
'▁sint'
'மதி'
'INO'
'▁гли'
'itsh'
'▁pasobra'
'▁오르'
'▁دو'
'▁mũlũmu'
'वाई'
'▁eteen'
'▁jistax'
'ALA'
'▁Falcon'
'ธุ'
'hoz'
'▁diverses'
'▁యుద్ధ'
'▁উদ'
'opez'
'acció'
'子供が'
'▁negó'
'षां'
'▁کیس'
'▁cae'
'▁عمارت'
'طان'
'▁mŕt'
'caţi'
'ਪਤ'
'Teuma'
'▁aktiem'
'atolika'
'diem'
'▁رمانی'
'▁ethu'
'▁nete'
'▁کمان'
'▁সেবা'
'▁TF'
'uttava'
'白人'
'項目'
'juda'
'▁součást'
'jisa'
'宁'
'ဆန်'
'▁Vuy'
'jerena'
'alumalumu'
'▁அவர்களின்'
'▁palju'
'Mur'
'▁আফ'
'▁annwali'
'▁asen'
'ciúil'
'જે'
'རཝ་'
'▁tugura'
'▁الکترونی'
'κε'
'▁brità'
'▁yaptığı'
'▁roditelji'
'amisest'
'▁Il'
'▁thrà'
'▁지나'
'ນໍາໃຊ້'
'▁dokonal'
'▁keres'
'▁आपकी'
'▁વ્યાખ્યા'
'▁Bya'
'▁פול'
'▁시스템에'
'▁volas'
'▁llum'
'▁Lin'
'▁അറ'
'▁keresztény'
'▁estado'
'▁журна'
'▁nødvendigvis'
'▁Hugo'
'▁banal'
'sins'
'▁urubanza'
'▁이유입니다'
'▁Haman'
'▁pillanat'
'▁ਪਿਆ'
'かは'
'▁Beschluss'
'benci'
'lekela'
'▁Airbus'
'▁Kuba'
'▁블'
'▁ضمن'
'▁kahi'
'▁Yelusaleme'
'▁zamanı'
'▁붉은'
'▁إلهي'
'▁kalangan'
'▁Vý'
'buuzo'
'▁દર્શા'
'▁malade'
'rop'
'▁chiamata'
'▁എന്നും'
'сва'
'▁"3'
'▁Mana'
'igner'
'▁සම්බ'
'▁1880'
'幾多'
'▁Justi'
'▁ఊహ'
'ohane'
'▁odras'
'ɩnɩ'
'项目'
'zación'
'▁sumber'
'▁Pentagon'
'▁vreun'
'▁ये'
'шоо'
'▁LCD'
'▁повинна'
'▁Band'
'▁adegu'
'egwu'
'▁સ્ત્રીઓ'
'▁obodo'
'▁ແກ'
'▁шанс'
'▁otur'
'ικός'
'▁yaptık'
'▁elkeen'
'yiam'
'urua'
'▁Nijeriya'
'་་'
'▁pinag'
'ൊ'
'▁chimodzi'
'▁Swydd'
'▁Şa'
'▁pitanju'
'ზოგ'
'▁المهم'
'uili'
'ዎታል'
'▁sethu'
'▁login'
'▁systém'
'▁እነዚያ'
'чні'
'▁yas'
'▁Aver'
'▁пропонує'
'ፋን'
'装'
'▁manque'
'sya'
'▁emisi'
'ナルド'
'▁علائ'
'დაც'
'antaa'
'▁نا'
'かれている'
'rådet'
'▁bip'
'▁fyt'
'▁nyegah'
'▁Country'
'▁ორ'
'▁niile'
'▁okufuna'
'리포'
'Daniyeli'
'▁کرکے'
'ustaa'
'嘅嘢'
'늙'
'▁rè'
'▁Ruka'
'▁پتہ'
'▁Da'
'▁মায়'
'▁өҫтә'
'▁विशिष्ट'
'赏'
'▁cael'
'▁ಎಲ್ಲಿ'
'cindika'
'▁consp'
'ໄມ້'
'▁apd'
'▁በፊት'
'▁سائي'
'ლია'
'લાય'
'▁gome'
'сіх'
'zess'
'咳'
'biti'
'▁הייתה'
'бият'
'ובירן'
'▁ከእኛ'
'ၸိုင်'
'▁ගණ'
'▁disc'
'ரு'
'▁पशु'
'eilge'
'▁sio'
'▁dolgok'
'▁VIH'
'नामा'
'▁மூல'
'▁fortsætter'
'▁bíbélì'
'mag'
'སྨྲས་'
'▁televizyon'
'▁takpe'
'ging'
'ლით'
'▁маши'
'▁iiadi'
'▁York'
'▁ფიქრობ'
'▁Nyame'
'▁1:15)'
'▁વિષ'
'▁mpata'
'遺産'
'ungka'
'▁Rico'
'▁እነዚህ'
'▁නොද'
'▁स्क'
'ɔbɔ'
'ρο'
'▁cening'
'▁гэтага'
'▁سانه'
'▁Upe'
'▁Joten'
'▁hlakileng'
'▁comerç'
'ãy'
'▁läks'
'itiva'
'▁mish'
'▁నేడు'
'▁дале'
'▁şah'
'▁palig'
'▁уларҙың'
'▁ermög'
'▁iritsi'
'tien'
'▁tlotla'
'▁Tomorrow'
'▁अक्ट'
'▁palata'
'ikilelo'
'▁Hyd'
'uneen'
'atanong'
'▁hundzuka'
'▁Дык'
'我就'
'▁Κοινοβουλίου'
'안에'
'▁ενη'
'を探'
'▁görmək'
'▁resi'
'▁fonde'
'esed'
'መጽእ'
'ཕུ་'
'▁lɔlɔ'
'ushim'
'ଖ୍ୟା'
'▁발언'
'лыштагы'
'▁जाला'
'▁leg'
'▁ਕਾਰਨ'
'▁vukei'
'▁Eorpa'
'▁كبيرة'
'▁lise'
'▁deput'
'ዕሊ'
'chase'
'ঃপর'
'ەکاندا'
'▁langt'
'uteronomio'
'-6'
'ājas'
'▁empat'
'lhanka'
'▁Trường'
'▁आश्वस्त'
'ants'
'▁Εκ'
'▁ameti'
'▁ذاه'
'ліза'
'χες'
'ভাবেই'
'得ない'
'ト'
'▁날짜'
'▁innen'
'▁njeno'
'udhuria'
'▁Secret'
'▁Viusoma'
'ອີກ'
'▁kimuntu'
'τρε'
'▁ndwi'
'▁yaygın'
'▁tomba'
'edes'
'▁כולנו'
'▁إسم'
'▁ketika'
'▁faide'
'▁부분'
'yembre'
'▁گۆ'
'拖'
'lans'
'▁گون'
'iris'
'тного'
'riban'
'▁munches'
'▁boqor'
'▁ಇರು'
'hə'
'ськими'
'ɗe'
'▁одра'
'▁prekių'
'▁multim'
'藥'
'▁भाग्य'
'▁industria'
'▁گزارش'
'▁অনুর'
'ireko'
'yonan'
'ттарын'
'қты'
'▁noj'
'を用'
'▁Wënde'
'▁geulis'
'ॉल'
'世界の'
'▁pruc'
'▁жерт'
'bez'
'▁foly'
'ɛla'
'ād'
'ąd'
'ཀུན་'
'▁hwile'
'cieron'
'▁irakas'
'гнал'
'の大半'
'গ্'
'▁მიმართ'
'▁baduzu'
'▁edilir'
'▁שיל'
'ידי'
'▁inclu'
'noog'
'▁이름이'
'▁ਸਹਾਇਤਾ'
'komi'
'öffent'
'▁325'
'nie'
'▁aq'
'рем'
'▁almal'
'...]'
'▁kalagayan'
'ρό'
'▁ראה'
'նես'
'▁ahaayeen'
'▁다시는'
'▁bafundzi'
'▁Gobern'
'nymi'
'▁benu'
'ัจ'
'▁verwij'
'لارنى'
'▁ಏನ'
'စိတ်'
'▁καθε'
'▁handels'
'▁लोग'
'ेंगे'
'作成'
'מות'
'▁հաջորդ'
'▁доћи'
'▁талкуу'
'▁Ewropeaidd'
'▁מוז'
'▁weithio'
'▁შევ'
'▁alaĩka'
'▁nach'
'▁skuto'
'▁Mo'
'▁유익'
'▁holl'
'▁Страте'
'▁jakt'
'ensjoni'
'▁rýchlo'
'▁contract'
'idie'
'bọchị'
'ವಳ'
'▁Herald'
'対処'
'ชัด'
'▁আই'
'ស្រុក'
'akisisa'
'▁ស្ន'
'▁చేస్తుంది'
'▁გერ'
'impriżi'
'elana'
'▁galima'
'▁Puoi'
'ណី'
'ร้อน'
'fanekiso'
'སུ་'
'ላፊነት'
'▁уви'
'isuud'
'▁πραγματοποι'
'▁دۆزه'
'▁hodno'
'▁dolárov'
'▁vyrob'
'▁એકાઉન્ટ'
'▁Ndiye'
'ଶୀ'
'▁правильно'
'▁gjør'
'▁айтуынша'
'▁partire'
'▁bidhaa'
'▁Samp'
'τήτων'
'▁რას'
'▁àl'
'လော'
'▁Zach'
'▁eres'
'▁ramai'
'ados'
'▁киткән'
'▁સુધી'
'▁koos'
'▁Laten'
'▁ಆಕರ್ಷ'
'▁Miten'
'amaze'
'▁ಸಂಪರ್ಕ'
'▁жаг'
'zaak'
'▁időszak'
'▁със'
'jela'
'▁penyele'
'cəm'
'▁deuxième'
'▁ମନ୍ଦିର'
'cym_Latn'
'▁కాలం'
'齐'
'byɔ'
'作为'
'▁porovnaní'
'▁питању'
'▁nolē'
'▁վերադ'
'radd'
'تەۋ'
'▁unok'
'▁tịch'
'▁unah'
'▁باشچي'
'▁žien'
'ացեք'
'▁Yay'
'▁থাকিব'
'пот'
'▁оташ'
'▁diġ'
'ଭେ'
'soj'
'▁ενισ'
'▁ہنٛد'
'▁Универзите'
'▁айта'
'qingatha'
'▁jossa'
'▁edusta'
'▁ነበሩ'
'▁shkël'
'হী'
'▁말하'
'▁ladang'
'▁પત્ની'
'ణ్'
'akiwa'
'ptes'
'▁सब्'
'▁varēja'
'ಾಹರಣ'
'inyengo'
'▁राजनीतिक'
'▁far'
'aoga'
'▁tsosa'
'▁بدا'
'▁pioner'
'▁mabbéré'
'▁ዝግጁ'
'시오'
'▁ክሳዕ'
'▁ucz'
'▁Лі'
'ininkai'
'▁perkhidmatan'
'ọng'
'▁ເອງ'
'ydende'
'侦'
'يدئر'
'▁bafwile'
'▁zurück'
'▁hundre'
'putar'
'▁40.'
'▁ndũ'
'▁symud'
'▁talag'
'celer'
'widangan'
'tonya'
'ẵ'
'を持って'
'pilitu'
'▁przeca'
'ustiť'
'olom'
'▁αναγ'
'▁región'
'▁zied'
'מלי'
'мии'
'ագրել'
'▁おそらく'
'ੜਾ'
'▁tādi'
'▁1893'
'ელი'
'短い'
'▁палата'
'gaba'
'лген'
'vori'
'▁ખરા'
'▁टुक'
'▁هایش'
'▁jazy'
'▁ɲam'
'ヴォ'
'▁مذه'
'▁ịnọgide'
'خصص'
'ettaq'
'рају'
'▁것입니다'
'ক্তি'
'ρες'
'▁engan'
'ەوان'
'American'
'ārst'
'資'
'薩'
'ishda'
'pianatra'
'არ'
'▁milih'
'▁svjets'
'ючи'
'eral'
'adaan'
'▁مەز'
'▁從'
'▁wing'
'ervi'
'▁něko'
'▁nebyla'
'ilbh'
'ཡཱས་'
'▁있기'
'▁گۇۋاھلىق'
'▁개인적인'
'▁Мислех'
'ingus'
'IC'
'▁kisim'
'▁iesp'
'▁ishin'
'▁Къде'
'▁Áno'
'▁kokybės'
'▁Nǔgbó'
'▁задоволення'
'bynnol'
'▁finalmente'
'▁Мес'
'▁lumabas'
'▁internasjonal'
'rai'
'▁šťast'
'▁tèr'
'éierung'
'uprāt'
'▁Daisy'
'▁mih'
'▁terza'
'▁dubb'
'ahlian'
'▁ad'
'▁Volvo'
'▁kasadonyo'
'ادة'
'ខ្ញុំ'
'བླ་མ་'
'▁ଡାକ୍ତର'
'▁აშშ'
'▁Nadia'
'▁estudantes'
'▁dalykų'
'▁Qadın'
'▁Denis'
'▁лица'
'▁ipak'
'asewera'
'Ent'
'tual'
'ວ່າມັນ'
'▁ਅਸਲ'
'かた'
'ヒーロー'
'受害'
'讀'
'▁시리즈'
'▁ಆಕೆಯ'
'▁ವಿನ್ಯಾಸ'
'useumah'
'urinn'
'མ་གཏོགས་'
'▁muun'
'▁peru'
'behu'
'upedzisira'
'ístic'
'▁dzin'
'න්ට'
'▁فەر'
'▁τμή'
'▁Faar'
'δικ'
'▁һыу'
'গণ'
'▁갔다'
'▁virzien'
'йыҡ'
'옹'
'▁regres'
'ғат'
'ddé'
'ເຣ'
'▁dem'
'ಡು'
'▁Ndër'
'▁filmo'
'▁Τη'
'ឈប់'
'▁svojoj'
'anar'
'▁найд'
'indah'
'▁Tab'
'たと'
'jék'
'▁ăla'
'ੱਜ'
'▁ачык'
'▁miihini'
'▁उसके'
'▁વ્ય'
'▁pata'
'▁bind'
'▁cesty'
'▁أخر'
'▁ingi'
'▁krop'
'▁noqon'
'▁zahval'
'▁मोटर'
'▁kié'
'多くは'
'▁ಪರಿಹಾರ'
'▁kemonaka'
'▁pakaryan'
'▁ਪ੍ਰੋਗ'
'avan'
'▁خراپ'
'▁බැල'
'▁билим'
'▁kyse'
'सास'
'▁বাণিজ্য'
'▁kotona'
'▁;'
'▁ຕ'
'▁सबन'
'▁ନିଅ'
'▁ད་རུང་'
'の手'
'▁neze'
'бка'
'▁maklumat'
'раи'
'▁пале'
'▁ሦስት'
'▁니'
'▁ũsu'
'▁toa'
'▁robota'
'achọ'
'▁PhD'
'лили'
'▁cours'
'πλη'
'▁cahaya'
'▁patisipe'
'ravu'
'unam'
'▁experiència'
'▁munk'
'▁zoipa'
'່ອນ'
'նամ'
'hluko'
'▁Қуръ'
'▁ਵੱਧ'
'▁անհատ'
'▁様々な'
'▁paret'
'▁기술'
'▁ngoonĩ'
'hongele'
'▁सगळे'
'ájában'
'▁jaki'
'▁dahilan'
'▁zehar'
'▁હા'
'▁හි'
'▁ఆహ'
'▁건설'
'olada'
'vid'
'▁troppu'
'▁tsuts'
'▁tärke'
'embourg'
'▁UYesu'
'▁̃'
'ારી'
'▁afite'
'▁wyth'
'▁nagba'
'▁můžete'
'▁pais'
'வர்'
'isne'
'▁መጸ'
'▁εξασφαλ'
'▁पहिले'
'▁익숙'
'▁quase'
'ರ್ಸ್'
'ፒ'
'▁vozila'
'▁टिप्पणी'
'▁aktiver'
'pangizo'
'▁gemeente'
'րաստ'
'อ'
'▁тик'
'▁anatre'
'▁өмүр'
'▁kaminuza'
'संघ'
'leist'
'▁eleccions'
'▁इससे'
'▁Kín'
'φέρει'
'▁berriro'
'টোৰ'
'ambar'
'▁পাবেন'
'▁випадках'
'▁estig'
'▁ulutaga'
'▁bónú'
'▁இன'
'▁yetfu'
'▁bland'
'▁mencet'
'▁naaf'
'data'
'заи'
'adaulo'
'▁enllargar'
'niy'
'▁thamani'
'တစ်ခုပါ။'
'▁sitũ'
'ொட'
'imiro'
'▁ପୁ'
'▁ඉන්'
'ነርሱ'
'▁fað'
'жете'
'▁Lazarus'
'▁uli'
'▁Ua'
'▁форма'
'▁ਖਾਸ'
'▁មុន'
'▁aprova'
'▁Թուրքի'
'ياس'
'▁अन्यथा'
'▁alivulu'
'▁bateri'
'దర్శ'
'作業'
'▁respeito'
'svis'
'▁যেমন'
'▁gagn'
'▁articol'
'最善の'
'teen'
'пкавая'
'▁frukt'
'indisa'
'σως'
'▁нек'
'ovas'
'information'
'▁δυνατό'
'йтесь'
'ষ্টি'
'▁অব্যা'
'ديث'
'▁upang'
'▁nafta'
'▁20:28;'
'ɣɑ'
'▁জার্'
'Ł'
'bhar'
'▁velge'
'▁garga'
'▁ésta'
'ຸ້ມ'
'▁băng'
'▁ысын'
'gara'
'▁Hea'
'▁Рад'
'▁बैठक'
'സർ'
'upha'
'▁ਇੰ'
'▁ulandu'
'▁ਵਿਅਕਤੀ'
'▁ಸ್ವಲ್ಪ'
'▁tsham'
'▁skł'
'следова'
'▁lɔŋ'
'▁εμπ'
'▁politiki'
'طن'
'▁Ішкі'
'▁ramah'
'▁আমেৰ'
'▁mustaq'
'▁మొదట'
'▁whakarite'
'▁ມ'
'▁šim'
'▁materiales'
'atoran'
'圣'
'ʋa'
'▁اڻ'
'▁پو'
'ړي'
'▁walo'
'▁باوکم'
'▁emm'
'▁independiente'
'▁nghenela'
'camango'
'▁situa'
'▁stanov'
'ጠባ'
'psis'
'ərbay'
'གཙང་'
'做到'
'▁صالحلئک'
'ంటుంది'
'▁kontroliu'
'▁एखर'
'▁غل'
'ਵਿੱ'
'▁gürrüň'
'▁atent'
'▁ahonhom'
'▁آره'
'denie'
'ੜ੍ਹਾ'
'▁haré'
'▁వ్య'
'▁įmanoma'
'▁avant'
'Hab'
'▁looi'
'▁تونۇ'
'患者の'
'▁finanszíroz'
'▁okati'
'▁पुरान'
'▁mika'
'数年'
'▁mhob'
'▁ƙasar'
'▁gado'
'▁пошу'
'▁pokiaľ'
'を持っていた'
'ussia'
'▁პ'
'▁今回の'
'▁finančné'
'▁squ'
'▁ශි'
'མདོ་'
'ataua'
'स्टिक'
'▁თმა'
'времено'
'▁Dogan'
'akathi'
'ести'
'баа'
'▁सर्वो'
'▁Miami'
'▁nĩma'
'▁bám'
'эрийг'
'▁alternaty'
'▁middel'
'▁Keine'
'▁ayin'
'▁indodana'
'▁نوا'
'▁desi'
'▁ɖésúnɔ'
'▁Akukho'
'ros'
'▁Panginoon'
'測定'
'ğına'
'дүр'
'▁sobo'
'▁दोबारा'
'Zo'
'рея'
'ໆ'
'hlon'
'▁ರೀ'
'▁dæ'
'өй'
'▁vad'
'▁intel'
'ួស'
'▁alis'
'▁میکن'
'▁되기'
'hrlich'
'▁wut'
'▁mayip'
'광'
'ार्थ'
'▁ٻڌ'
'▁susp'
'љи'
'tụ'
'▁වැර'
'▁sudden'
'▁ఆహారం'
'▁Baisiraele'
'▁20:35.'
'ಿದ್ದರೆ'
'▁ngenda'
'▁talosaga'
'▁prakt'
'▁ithuĩ'
'▁нәти'
'▁ukusambilila'
'thóir'
'▁rakast'
'▁କରାଯାଇ'
'ナーの'
'▁IMF'
'▁प्रो'
'▁Ако'
'知っています'
'▁برخه'
'▁invita'
'▁Медицина'
'ashna'
'کەوتن'
'▁nsha'
'ļūt'
'చె'
'ningar'
'▁ئۇق'
'དབང་དུ་'
'▁ସମ୍ପର୍କ'
'æg'
'▁Details'
'Jeremia'
'▁Hambiloko'
'▁እራ'
'周波'
'žas'
'▁самим'
'稀'
'qani'
'▁Simeon'
'▁Га'
'▁Sham'
'▁vz'
'матра'
'▁kombela'
'▁biti'
'ipproċessar'
'▁ករ'
'▁Kĩevelania'
'▁Yet'
'▁정부의'
'需求'
'▁equilib'
'▁nyui'
'▁واکسن'
'▁मास'
'▁bilish'
'▁Sama'
'▁కదా'
'▁hape'
'ħajr'
'▁രണ്ടു'
'▁turaga'
'▁můj'
'▁орто'
'દારો'
'▁English'
'୍ୟା'
'▁antaux'
'▁Judio'
'▁Alebo'
'ದುಕ'
'▁نحن'
'呢啲'
'▁Tots'
'▁şatlyk'
'▁nag'
'▁විරු'
'ザー'
'▁Patri'
'▁engumba'
'▁aircraft'
'ǝ'
'▁домой'
'każ'
'▁নাম'
'▁setiap'
'esit'
'▁vegna'
'▁phagam'
'▁மொழி'
'ώσεις'
'▁usłys'
'żmu'
'▁tomēr'
'▁hag'
'▁Toma'
'▁نادر'
'▁ethĩ'
'▁କର'
'▁dövr'
'ပါပဲ'
'▁比'
'▁tēmu'
'ენს'
'心は'
'▁ddigon'
'▁ప్రక'
'itabu'
'▁Вики'
'tn'
'ልኩም'
'▁చెల్లి'
'isalema'
'▁құрылы'
'だった'
'▁Pesa'
'▁télé'
'▁280'
'▁μόνος'
'▁shó'
'mista'
'ካየ'
'▁fleiri'
'▁principa'
'▁ਜਗ'
'шлы'
'ությունից'
'▁осмон'
'▁kupar'
'▁isel'
'▁Kere'
'▁లేకపోతే'
'прав'
'▁feta'
'▁Pors'
'لرده'
'▁féad'
'▁Michael'
'稚'
'▁almeno'
'▁Ier'
'▁Purairo'
'zřejmě'
'čilo'
'▁wilg'
'いくつかの'
'estras'
'▁ЭКСПО'
'与えられる'
'atisi'
'▁jikkostit'
'▁వస్తు'
'▁započ'
'▁komers'
'▁waith'
'▁serviteur'
'▁apartament'
'▁тану'
'▁nakw'
'ukir'
'iego'
'legen'
'мент'
'▁99'
'ətin'
'▁tenido'
'▁карма'
'utie'
'▁গ্রুপ'
'▁մարդ'
'▁hiciste'
'▁ସରକାର'
'▁hönd'
'捧'
'▁കയ'
'▁Значи'
'EG'
'ortu'
'▁vətən'
'▁macari'
'▁bikar'
'▁izobraže'
'munyi'
'▁здравље'
'▁თ'
'▁bagean'
'▁나타내'
'▁Ruk'
'▁отвор'
'டுத்து'
'▁canvis'
'▁toer'
'ምላኽ'
'اؤ'
'▁persiapan'
'rara'
'▁시스템'
'ရိက'
'▁Förderung'
'▁६'
'ționale'
'▁بئزئم'
'▁fakke'
'ÅŸ'
'amele'
'▁kikun'
'▁ລົງ'
'▁γυ'
'డంలో'
'▁legge'
'▁ninnu'
'▁খ্বাই'
'lagen'
'▁Natuurlijk'
'▁преми'
'ドライブ'
'▁ανε'
'▁gar'
'▁kuwonjezera'
'irho'
'ènnere'
'▁Rin'
'handeleko'
'лор'
'▁katram'
'▁معنا'
'ँकि'
'[12]'
'▁República'
'▁sön'
'önyörű'
'と主張'
'▁ваҡытында'
'דער'
'.[15]'
'▁ළමයි'
'▁सर्वाधिक'
'▁пато'
'▁Est'
'▁ഫ്ര'
'▁اختلاف'
'▁ірі'
'▁erop'
'▁ເມ'
'▁kemarin'
'වන්'
'▁Kukho'
'▁láts'
'дник'
'गोलिक'
'▁ਆਗਿਆ'
'▁Wap'
'▁(11'
'ೆಲ್ಲ'
'▁posebne'
'çado'
'ρω'
'▁tāua'
'▁عکس'
'▁separa'
'ighter'
'lics'
'펀'
'▁dufite'
'▁fi'
'▁nomeadamente'
'ýandygyny'
'▁ئۇچۇر'
'▁قدرتی'
'वाइ'
'▁aband'
'▁געבן'
'▁kubvira'
'▁janë'
'▁köş'
'▁dovoljno'
'ાઈ'
'uniga'
'▁عملکرد'
'▁sauran'
'▁ፊልም'
'▁Τους'
'▁ahinya'
'▁A'
'▁çevr'
'续'
'foot'
'рење'
'▁daghan'
'▁واقع'
'ektif'
'▁yaro'
'υπάμαι'
'▁okuli'
'▁സാ'
'▁bukannya'
'untis'
'▁harra'
'▁쓰는'
'▁regeling'
'teu'
'▁pound'
'▁actor'
'▁Manusa'
'ກົດ'
'!!:'
'▁Vlad'
'▁भु'
'▁എനിക്കു'
'▁ntọ'
'तिहासिक'
'▁Dhar'
'▁Salit'
'ຽວ'
'ల్ని'
'ۋەر'
'カテゴ'
'▁Кре'
'▁otembo'
'亿'
'▁соответ'
'ulliad'
'▁blonde'
'▁sker'
'బర్'
'▁imata'
'▁ลอง'
'otshiwe'
'▁panglakayen'
'škia'
'▁instant'
'▁Бит'
'まで'
'▁otru'
'▁imaze'
'▁rag'
'▁된'
'년이'
'dheala'
'aliye'
'ڊي'
'▁Managing'
'▁көрсөткөн'
'lien'
'વાસ'
'▁inicial'
'Linux'
'▁음'
'▁پرسیار'
'▁naują'
'الية'
'▁بوندان'
'▁EUR'
'เสีย'
'▁manipu'
'▁tundu'
'▁kpɔ'
'▁രോഗ'
'▁אָנה'
'▁никад'
'▁cou'
'▁Much'
'▁brob'
'ፈልጡ'
'▁cette'
'▁cita'
'har'
'pend'
'▁نگاه'
'▁réalis'
'▁Başka'
'▁galar'
'▁Thần'
'▁Бүгінгі'
'▁aiko'
'秘书长'
'▁озна'
'なくな'
'▁viure'
'▁יוצא'
'▁Manny'
'▁opar'
'ulani'
'▁regulator'
'▁okulaga'
'▁نقاشی'
'peche'
'▁סוכ'
'▁siza'
'▁పనిచేయ'
'িকা'
'▁riipp'
'▁analý'
'▁nuom'
'▁ئېلىش'
'入面'
'▁bildirib'
'▁neto'
'▁gaf'
'▁Poi'
'danie'
'ües'
'պան'
'▁Reich'
'▁بگم'
'▁halda'
'でき'
'▁Meillä'
'ற்றம்'
'▁بەڕێوە'
'▁بونون'
'素晴らしい'
'ò'
'▁Näiteks'
'▁lolol'
'өгөө'
'▁хор'
'צער'
'▁Kukhala'
'▁Une'
'▁Ja'
'▁kuteerera'
'▁جۆر'
'ౌ'
'უს'
'véva'
'▁pocz'
'бре'
'▁siin'
'▁Kite'
'▁neum'
'▁Α'
'mindre'
'▁ieteicams'
'atis'
'▁مۆجىز'
'▁касе'
'ರುವ'
'▁редо'
'派'
'▁सीधे'
'▁ян'
'▁ዝኣመሰ'
'▁Majest'
'▁присвя'
'finan'
'ehua'
'ិត្ត'
'▁Fore'
'▁volwassen'
'трэл'
'실을'
'▁الأرض'
'éhány'
'▁яҙ'
'▁pateikia'
'▁luoda'
'னவே'
'ungaka'
'▁sólo'
'▁тим'
'▁všichni'
'μπά'
'▁Ugu'
'fumo'
'▁mì'
'▁환경'
'cn'
'▁срце'
'▁nenhuma'
'∞'
'▁dh'
'стана'
'▁ερώ'
'fsu'
'▁janïr'
'▁ɛbɛma'
'▁ಏಕೆ'
'قوي'
'▁koskeva'
'▁করি'
'▁odnosi'
'ଞ୍'
'▁tosi'
'▁unutra'
'真主而'
'▁attend'
'▁олон'
'▁bilet'
'ումը'
'ättö'
'▁vairākus'
'▁Ник'
'▁Engel'
'ၿပီး'
'▁реагу'
'ziz'
'ungulira'
'欲'
'سن'
'yatä'
'▁ಕಾಯ'
'ቫይ'
'тарма'
'▁पूछ'
'▁luyantiku'
'▁Sata'
'▁potenz'
'▁toraidhean'
'ற'
'бызды'
'▁qora'
'▁ricordo'
'ڕا'
'▁мемо'
'रिक'
'▁galimybę'
'ರ್ಧ'
'▁متنوع'
'enses'
'▁saad'
'▁Бөгөн'
'▁nneɛma'
'għadd'
'զբ'
'ρούμε'
'nanga'
'▁mambi'
'ื่อง'
'▁kotor'
'▁permanente'
'lerine'
'üg'
'▁ಪ್ರೀ'
'▁tibuuk'
'因為'
'ırlar'
'▁testemun'
'▁कैल'
'▁asing'
'herwydd'
'ภาษา'
'stelling'
'▁રોજ'
'▁جاتی'
'lidwe'
'▁হিসেবে'
'▁इनकार'
'▁अध'
'▁dund'
'▁forskel'
'▁प्रेरित'
'▁प्राचीन'
'▁uusi'
'▁ಟಿ'
'▁kgopo'
'▁החלק'
'▁entend'
'ઓની'
'が届'
'▁kendine'
'▁Vandag'
'▁دا'
'stə'
'yisɛm'
'atto'
'uma'
'▁चक्र'
'िए'
'▁magulang'
'▁kretyen'
'▁solament'
'▁Pala'
'ানৰ'
'▁timpal'
'▁1940,'
'▁yanayin'
'▁ਮੁਸ਼ਕਲ'
'البۇكى'
'giadau'
'▁Stella'
'▁ໂທ'
'▁tức'
'지요'
'変動'
'▁زانایه'
'▁veçantë'
'▁nagt'
'▁उल्लेखनीय'
'▁settim'
'▁lugha'
'▁nʋm'
'▁khá'
'▁thì'
'▁વધારે'
'▁4:11.'
'▁نفسي'
'▁تارىخ'
'▁inali'
'▁נאָך'
'▁이용해'
'▁हुन्छ'
'unnit'
'▁görnüş'
'paten'
'▁እዚኣ'
'ਪਾ'
'▁እንደዚህ'
'kiel'
'▁jūnijā'
'kipun'
'▁verhoog'
'▁Jara'
'▁мекунем'
'▁kapitel'
'▁cloud'
'▁nĩyo'
'▁keman'
'▁apre'
'▁һо'
'▁jori'
'نہیں'
'▁território'
'▁कृष्ण'
'▁ହୋଇଥିବା'
'▁आवत'
'▁ወሰ'
'▁lahla'
'ุม'
'▁ਸਾਰੇ'
'▁mahigit'
'▁inne'
'▁Ира'
'▁kam'
'▁blir'
'▁dont'
'putso'
'▁Mola'
'liana'
'ង្ស'
'▁olardan'
'▁utføre'
'obb'
'▁きっと'
'▁तपास'
'▁kũvoya'
'ཐང་'
'▁sredstva'
'▁सेना'
'▁حمله'
'▁Мор'
'▁Благодаря'
'ट्टा'
'ଦେବ'
'བྱིན་རླབས་'
'ರು'
'▁ಹಾಗಾಗಿ'
'▁मुखिया'
'▁mere'
'ziwa'
'▁proċed'
'allisten'
'▁saper'
'chent'
'️'
'▁omfatter'
'▁wska'
'▁sumusunod'
'ymą'
'▁әкім'
'▁Martha'
'▁LES'
'▁kemur'
'্যৰ'
'▁आत्महत्या'
'ವಾಗಿಲ್ಲ'
'▁கட'
'▁samfurin'
'▁ọba'
'▁Испа'
'▁упра'
'▁चतु'
'ریف'
'▁대화'
'▁druhy'
'▁Ee'
'▁Bluetooth'
'rentahan'
'▁ప్రజ'
'▁դեռ'
'▁paliek'
'λη'
'isesta'
'▁Play'
'Eks'
'tii'
'▁стара'
'▁renda'
'▁이후로'
'▁Vayuda'
'を見つける'
'▁nop'
'utala'
'▁waray'
'▁읽는'
'▁obten'
'▁kekayaan'
'ᅢ'
'▁menye'
'kett'
'▁mikano'
'▁ମ୍ୟାଚ୍'
'▁Anderson'
'inta'
'ຸກ'
'▁zhromaž'
'▁rêng'
'▁করো'
'▁ruac'
'▁oeste'
'▁rasmiy'
'▁લાવ'
'▁joie'
'ዳእ'
'anzi'
'▁तः'
'ราช'
'▁предви'
'報酬'
'umutekano'
'▁Eýsem'
'центри'
'▁Dă'
'▁you'
'▁जाना'
'▁medios'
'▁chờ'
'▁आदि'
'▁kelivulu'
'ထိ'
'▁ذاتی'
'▁Xunta'
'preżenta'
'ེ་བ་'
'ҷо'
'ىكەت'
'▁ilego'
'▁noci'
'ømmer'
'▁Оби'
'▁ajɔ'
'angg'
'▁pastāv'
'▁янына'
'▁तस्य'
'▁اقتصاد'
'▁жак'
'▁표현'
'▁lahat'
'▁krishter'
'▁तिमीले'
'▁daļa'
'▁mencegah'
'▁شێوە'
'▁enèji'
'bebe'
'▁Мето'
'▁mba'
'▁주님의'
'▁ekki'
'▁پرداز'
'▁κορίτσι'
'▁títulos'
'ದ್ಧ'
'▁termékek'
'つけた'
'▁ਨ'
'▁periods'
'▁طور'
'▁nila'
'▁vielä'
'▁ξέ'
'▁لەگە'
'▁ял'
'ಒ'
'▁haeye'
'iksel'
'udest'
'▁watching'
'▁ilme'
'バラン'
'▁Evha'
'▁duniani'
'らの'
'▁razloga'
'▁access'
'かれらを'
'においては'
'▁ohjel'
'▁необ'
'▁kosala'
'▁आठ'
'▁Rol'
'▁Dduw'
'लाह'
'斋'
'▁Einfuh'
'▁Prezidenti'
'▁fjer'
'▁varför'
'▁pasienter'
'▁ਸਵੀ'
'▁nikoli'
'ttu'
'▁Yudas'
'▁খেয়ে'
'▁Бидний'
'▁ځ'
'▁byen'
'ники'
'▁உயி'
'ròyìn'
'▁achi'
'▁luya'
'섯'
'▁muti'
'▁Netherlands'
'▁teismas'
'ନ୍ତା'
'pm'
'▁있겠'
'▁gwasanaethau'
'だね'
'▁лауазым'
'itsadi'
'uston'
'▁leşker'
'hiry'
'▁변화는'
'▁makga'
'handizo'
'క్షన్'
'amanatu'
'skrid'
'▁mím'
'ནང་གི་'
'▁Tags'
'ത്ത്'
'▁nóiméad'
'oshe'
'isonehua'
'今回は'
'▁Kya'
'ཐ་'
'▁Opravdu'
'yala'
'▁kukola'
'▁Premi'
'▁operatori'
'ేవ'
'▁omulala'
'žete'
'▁kumup'
'▁넌'
'ही'
'▁radi'
'5),'
'▁veivakal'
'ਮੁੱਖ'
'時代に'
'▁juicio'
'▁Ак'
'two'
'外に'
'▁gram'
'ండె'
'ס'
'▁Sales'
'▁exp'
'▁نزدیکی'
'▁ejja'
'▁Ulandu'
'▁csapat'
'նելու'
'▁មុខ'
'紹'
'वेदन'
'▁לחלוטין'
'▁ميت'
'ського'
'ሻ'
'▁तपाईं'
'▁الرئيس'
'イングランド'
'utes'
'anie'
'▁amaanyi'
'▁öv'
'▁जम्मो'
'angun'
'▁ո՛չ'
'▁znanje'
'▁covered'
'▁ღირ'
'▁आफै'
'Hib'
'▁бындай'
'▁tracta'
'▁Mura'
'▁Tih'
'▁zapla'
'▁gutahura'
'▁중요'
'になるだろう'
'qeda'
'段階で'
'layalati'
'▁ጌ'
'▁kemahiran'
'waliśmy'
'▁vedeti'
'▁maten'
'ais'
'▁တႄႇ'
'▁Néhány'
'R'
'▁నిర్వహ'
'▁përhap'
'ヴ'
'▁цар'
'▁hōla'
'▁kasu'
'ให้ฉัน'
'šonu'
'ਤਿਆਂ'
'▁empr'
'▁Daha'
'▁милион'
'ਪੁਰ'
'▁lembaga'
'▁pagpan'
'▁Ngon'
'▁خبر'
'▁estim'
'▁rezol'
'ⵔⴰⵏ'
'xusa'
'▁демократи'
'▁ᱠ'
'▁Ihr'
'▁پاڻ'
'▁kubh'
'▁idol'
'▁सगळं'
'eleja'
'▁hiểm'
'▁Mosè'
'▁الاب'
'ifa'
'▁icala'
'▁spesial'
'▁muchos'
'▁kinabuhi'
'রূপ'
'shasa'
'ய'
'▁нају'
'agari'
'▁συνδέ'
'平方'
'▁research'
'▁autoriza'
'ੱਡੀ'
'▁ffur'
'▁رستوران'
'▁这个'
'▁ruwa'
'ció'
'നിൽ'
'ълно'
'▁fiaɖuƒe'
'▁menerima'
'▁fewer'
'ceg'
'▁losapi'
'ふた'
'▁جال'
'▁Мисли'
'▁muoyo'
'▁প্ৰশ্ন'
'▁mado'
'▁facal'
'▁עצ'
'▁چنین'
'はなかった'
'▁Jakarta'
'▁இந்த'
'▁говорити'
'▁Sofía'
'▁авио'
'ისხ'
'▁baleti'
'▁묘'
'▁kutanina'
'▁kwathu'
'▁Kioso'
'▁університету'
'▁negatiiv'
'▁Freedom'
'▁chiede'
'▁Kengash'
'larimizni'
'▁namoonni'
'▁surgery'
'▁muu'
'▁faktisk'
'▁ڪرڻ'
'▁Путин'
'▁Də'
'빈'
'▁தமிழ'
'kin_Latn'
'jub'
'▁ተብሎ'
'▁እወ'
'འོངས་ཏེ་'
'ૂત'
'▁पेठ'
'▁חוד'
'xee'
'▁نەی'
'▁tswang'
'攻击'
'▁Qever'
'▁нәтижесінде'
'ulilo'
'▁erwart'
'▁metas'
'▁अक्सर'
'apachatix'
'এন'
'ۈ'
'耳'
'æld'
'▁वालों'
'▁Turki'
'▁проста'
'ಮುಖ'
'▁carretera'
'ngwa'
'▁susiję'
'▁Sọ'
'▁ዩኒቨርሲቲ'
'kono'
'▁σου'
'ligen'
'▁қолданы'
'ଭୂ'
'▁shach'
'שׁ'
'jeme'
'▁למקום'
'atsu'
'▁iik'
'చ్చు'
'manoma'
'▁citizens'
'血液'
'▁폐쇄'
'▁ផ្ល'
'弟'
'▁اولدوغو'
'riques'
'▁адамдарға'
'idra'
'▁लागेन'
'▁율법'
'▁pond'
'вета'
'▁toti'
'▁మర'
'▁知'
'▁існу'
'▁ሰይጣን'
'▁Reynolds'
'▁harap'
'▁cadangan'
'▁만들고'
'beera'
'▁sany'
'▁ке'
'ต่'
'▁raz'
'endas'
'▁നമുക്ക്'
'▁فيصلو'
'▁dikgopolo'
'ಿಸಲು'
'rii'
'▁mwamuna'
'▁aebele'
'arina'
'othe'
'halira'
'▁осно'
'▁ಚಲ'
'▁कन्'
'▁Rua'
'lygyna'
'▁രാഷ്ട്രീയ'
'▁அப்படி'
'शियन'
'ujú'
'▁yac'
'▁ئالدىنقى'
'▁acept'
'sky'
'TL'
'▁seur'
'ĩtwo'
'▁savons'
'▁आए'
'▁వరకు'
'▁ярих'
'▁тобой'
'▁ਦੇ'
'ىم'
'स्ते'
'▁단백질'
'来て'
'liteit'
'wrnod'
'▁સામ'
'▁সাধাৰণ'
'▁nenguva'
'▁виклика'
'▁itsh'
'▁zaká'
'▁কৌশল'
'anyĩasya'
'त्तर'
'▁орналасқан'
'▁Vakarisito'
'vairāk'
'ừa'
'▁parent'
'▁நிர்வாக'
'▁итәчәк'
'게요'
'រស'
'▁କେବେ'
'ቋም'
'дә'
'ပညာ'
'ದೇ'
'지'
'燔'
'▁Ինչպես'
'▁өст'
'uldu'
'ваецца'
'İ'
'panga'
'ⴰⴷ'
'ців'
'ready'
'ക്ക്'
'▁inila'
'ティブな'
'▁एला'
'▁ഒരുപക്ഷ'
'▁trasform'
'▁primary'
'▁hud'
'▁morda'
'чета'
'▁国連'
'▁keyin'
'▁تزه'
'▁través'
'алга'
'▁расска'
'▁soon'
'bat'
'▁dostupné'
'▁makko'
'цю'
'▁وط'
'▁더불어'
'▁håb'
'ຄາ'
'isalakan'
'impin'
'▁tirhela'
'▁gern'
'▁ভুলে'
'▁duduk'
'ષ્ટિ'
'ים'
'▁pārba'
'▁payares'
'కంటే'
'దల'
'▁inweta'
'ందని'
'▁پناہ'
'ið'
'▁kent'
'▁liatiamẽla'
'eel'
'▁कारण'
'выш'
'▁beroep'
'▁کتنے'
'▁merit'
'lumat'
',30'
'▁평화'
'isema'
'▁自己'
'▁siūlo'
'徑'
'▁izim'
'▁균형을'
'▁1963,'
'ďalej'
'ിലേക്ക്'
'▁помисли'
'▁संघर्ष'
'▁terus'
'▁paskel'
'▁ña'
'▁kumpi'
'디어를'
'ると思う'
'tifye'
'NS'
'▁1937'
'▁truly'
'▁완료'
'▁berbahaya'
'▁ողջ'
'벌'
'ربان'
'連れて'
'▁Bien'
'▁Bers'
'▁kaw'
'▁Guz'
'หร'
'▁хайртай'
'▁선택할'
'▁якім'
'ロン'
'▁religio'
'▁խորհ'
'▁ਉਨ੍ਹਾਂ'
'▁toimivalta'
'▁tudat'
'edim'
'ⵓⵔⵜ'
'دەر'
'▁चंद्र'
'फे'
'▁રેકો'
'໌'
'▁ఉన్నప్పుడు'
'tery'
'ของคุณ'
'▁31:1'
'ibi'
'▁cecere'
'ႅၵ်ႇ'
'▁moabut'
'司令'
'▁Athu'
'ंडार'
'▁taisyklės'
'▁bar'
'timise'
'▁Twas'
'▁त्य'
'▁Yakub'
'▁акт'
'stria'
'▁ଥିଲା'
'രിക്കുന്ന'
'▁gblẽ'
'嘉'
'အာ'
'▁يار'
'▁pomô'
'orao'
'▁тауы'
'▁ཡར་'
'▁miwah'
'▁დაც'
'▁imbabazi'
'▁vai'
'lee'
'▁tẽlisa'
'ultat'
'▁dòcha'
'▁որդ'
'▁പ്ല'
'▁pravdepodobne'
'▁nächsten'
'हीं'
'▁protegir'
'ովանդակ'
'▁oznám'
'▁مهربان'
'▁onome'
'긴'
'▁myanda'
'▁dingen'
'▁idi'
'▁പുറ'
'▁kɔmɔgɔw'
'▁tùn'
'▁přijde'
'ጇ'
'▁સંબંધિત'
'гаа'
'▁đầu'
'стики'
'▁kulin'
'▁жоспары'
'▁وٽ'
'▁apur'
'▁hä'
'نهن'
'▁istitu'
'ামত'
'▁avek'
'▁Suomi'
'▁ator'
'োৰে'
'▁rakent'
'▁ଭଗବାନ'
'申し上げ'
'▁xidyoho'
'タリア'
'▁nishpa'
'ဆွဲ'
'▁medit'
'▁виж'
'ŵi'
'▁muf'
'▁हमें'
'考え'
'ెట్'
'▁tapar'
'のなら'
'▁suwa'
'▁Slovens'
'▁معنی'
'▁dhil'
'▁jenħtieġ'
'ਹਿਤ'
'▁uite'
'▁терми'
'ктап'
'يته'
'▁ngủ'
'gota'
'▁ایده'
'དགོངས་'
'Program'
'▁árang'
'▁私'
'▁점심'
'▁شەڕ'
'kap'
'▁कुरु'
'tula'
'ดย'
'্লবা'
'▁Transfer'
'▁iny'
'▁məs'
'▁Ipa'
'▁iyaga'
'▁chavo'
'▁Sucine'
'其實'
'▁kitla'
'▁ڵکو'
'▁tudsz'
'ângin'
'▁үҙен'
'ytyvä'
'▁оно'
'▁hồi'
'egli'
'▁Europäischen'
'ákà'
'▁న్యూ'
'ïo'
'▁എടുത്തു'
'▁presence'
'▁Мал'
'キャ'
'▁prijs'
'▁Yeruzalemi'
'▁еврей'
'انیا'
'fupi'
'fron'
'▁Olo'
'▁тоза'
'▁Atr'
'▁منداڵان'
'תית'
'ཏེ་འབད་རུང་'
'▁[3'
'▁댓글'
'▁ਦਿੱਤੀ'
'ægg'
'▁ўба'
'▁Nuhun'
'த்திய'
'▁wäär'
'▁Gebi'
'ເພດ'
'▁זעל'
'▁ocasión'
'▁kivuga'
'▁n'
'▁ው'
'▁మా'
'▁kubonisa'
'▁هوندا'
'viť'
'▁solgt'
'сыңбы'
'▁kiel'
'nnnn'
'▁कैसी'
'▁квалифика'
'delem'
'тэйг'
'▁күн'
'▁JAV'
'▁Kuwonjezera'
'▁பேசு'
'.'
'Mala'
'▁zanga'
'▁సము'
'гіне'
'너희는'
'▁butun'
'▁już'
'▁들었다'
'ettevõt'
'angama'
'▁Оти'
'▁ይመለ'
'▁kusuka'
'▁Timoci'
'▁පේ'
'▁kumwenako'
'alise'
'mdi'
'▁поро'
'ကြီးကို'
'▁atw'
'毯'
'▁دە'
'協定'
'▁tije'
'▁குடி'
'кры'
'cra'
'▁ਤਾਂ'
'peo'
'▁ජනතාව'
'يدۇ'
'akoj'
'শিংনা'
'▁konpayi'
'▁wakan'
'▁Себеби'
'録'
'▁全体'
'▁आएगा'
'▁заңнамалық'
'▁ಮಾಧ್ಯಮ'
'ilp'
'▁ɗin'
'भावना'
'▁जइसने'
'▁στην'
'ian'
'వ్యాప్తంగా'
'▁sąlyg'
'▁nelyo'
'▁inšt'
'▁akongelo'
'クル'
'▁चल'
'▁kuonde'
'▁brû'
'▁прой'
'▁kgopolo'
'▁میاد'
'ିନି'
'וחות'
'▁कौ'
'gger'
'▁କରି'
'▁fyddai'
'▁13%'
'▁Kòrsou'
'laringiz'
'蝶'
'▁obla'
'ilise'
'▁Piemēram'
'čiti'
'▁ડૉ'
'▁võib'
'లిక'
'▁naab'
'▁fusk'
'ਕਿਰਿਆ'
'▁алыр'
'▁Ezali'
'▁વર્ષથી'
'▁शॉ'
'জ্'
'කර'
'▁そもそも'
'阿富汗'
'мес'
'▁মীয়'
'▁zagotav'
'ida'
'▁still'
'සෙ'
'교'
'ply'
'物'
'Kom'
'のことを'
'▁Chifukwa'
'▁Bea'
'▁takte'
'▁தொழ'
'▁servis'
'▁bercakap'
'▁kgahliš'
'▁katerim'
'ဉ'
'▁році'
'▁Israɛll'
'φτά'
'▁որքան'
'esunga'
'▁Hakan'
'▁hvers'
'▁박사'
'▁ukulung'
'▁Alzheimer'
'▁Castle'
'म्स'
'▁issoro'
'lygy'
'▁pisikal'
'ылган'
'ོནམ་'
'ėtumėte'
'▁وګ'
'gł'
'Yawe'
'充'
'тельно'
'▁같은'
'▁kulandira'
'▁1/4'
'▁మేము'
'▁མཚོ་'
'▁expon'
'▁yeŋö'
'▁яшчэ'
'ħid'
'▁залишається'
'éd'
'▁इंसान'
'▁stór'
'▁ruin'
'▁tunai'
'▁почетокот'
'▁stæ'
'▁frit'
'▁преживе'
'▁xarxes'
'ོམ་'
'াৰ'
'agblɔ'
'▁nhiễ'
'▁obsahuje'
'▁קאַ'
'പര'
'▁Link'
'▁اشتراک'
'▁denar'
'▁hpung'
'▁vuleke'
'▁заг'
'чо'
'jary'
'cat_Latn'
'號'
'▁iche'
'ौं'
'▁rich'
'▁nhlengeletano'
'▁Φ'
'▁enza'
'▁Mitglied'
'ಮೆಯ'
'▁owad'
'ኼባ'
'▁घट'
'▁POP'
'▁Midd'
'▁Zeugen'
'क्'
'▁drīz'
'ృ'
'▁ભોજન'
'▁לש'
'▁ýylda'
'工業'
'▁Elə'
'▁గత'
'▁მეტი'
'▁धारा'
'▁Walter'
'বেগ'
'▁mwĩĩ'
'ovaním'
'▁colpa'
'▁utusan'
'emandleni'
'地注意到'
'▁véhi'
'▁ege'
'▁கொள்க'
'▁přít'
'▁mangis'
'▁memperhatikan'
'uair'
'▁mono'
'制定'
'ɛɛsɩ'
'▁ବଞ୍ଚ'
'▁Tvoj'
'▁외에'
'❑'
'rings'
'▁tarko'
'ფიცი'
'tech'
'nu'
'waniritsa'
'▁virðist'
'▁Miy'
'보자'
'wac'
'▁jio'
'▁oca'
'ခါး'
'▁జాతీయ'
'▁....'
'▁kući'
'▁ஏற்று'
'▁etmez'
'seba'
'▁malayo'
'▁seguridad'
'lal'
'▁덧'
'зои'
'▁Gay'
'ridge'
'▁ਦ'
'cılar'
'▁निय'
'▁CEE'
'▁responsibility'
'▁ナ'
'េស៊ូ'
'▁gevesti'
'مىنى'
'▁Stein'
'▁Fela'
'▁прия'
'وار'
'atre'
'ۋاتىدۇ'
'▁podí'
'fiko'
'▁balikas'
'▁gazte'
'ཀྱི'
'▁pajjiż'
'塞'
'▁knowing'
'▁神'
'whan'
'San'
'▁miy'
'▁render'
'▁ճ'
'▁जिआ'
'woh'
'ונג'
'▁nuair'
'▁bagaimanapun'
'▁flight'
'▁nýtt'
'кула'
'पादन'
'▁roke'
'▁ernst'
'▁દાવો'
'▁deñ'
'▁regolator'
'▁tarjo'
'jesh'
'כלי'
'соф'
'▁পৃষ্ঠা'
'jilako'
'aaoga'
'▁von'
'▁στιγ'
'▁ਤੇਰੀ'
'endeke'
'▁νέα'
'▁схвати'
'▁nĩw'
'▁Yeremiya'
'▁puhu'
'▁Riga'
'▁munas'
'▁EEA'
'yʋ'
'▁AR'
'kuchu'
'▁прагну'
'гічных'
'▁बताए'
'▁takes'
'ил'
'▁qiymat'
'▁kĩthito'
'▁kɔ'
'貢献'
'▁गर्यो'
'nutý'
'▁ਬਹੁ'
'▁motivasi'
'eson'
'▁Ndị'
'▁bena'
'▁неко'
'āku'
'ੰਡ'
'ຈາກ'
'ସ୍କାର'
'▁theory'
'▁pół'
'▁Abrahaam'
'▁жатам'
'ացած'
'▁cits'
'enat'
'ওং'
'ඩක්'
'▁ဝါ'
'▁dife'
'▁खजाना'
'っぱり'
'▁पैलेस'
'Uni'
'ულ'
'▁yavuze'
'▁infur'
'▁মসিনা'
'막'
'ਿਸ'
'▁방향을'
'▁ert'
'▁сүйүү'
'λυ'
'▁regj'
'▁precip'
'▁ansøg'
'▁ecce'
'辆'
'▁ចុះ'
'▁সকলে'
'▁succes'
'▁igazi'
'り返'
'▁666'
'▁kũneng'
'らっしゃ'
'▁최악'
'돈'
'庭'
'▁esate'
'allada'
'▁मांस'
'▁سەی'
'asa'
'ysku'
'ಗಳೊಂದಿಗೆ'
'usiais'
'▁láithre'
'anee'
'▁موضوع'
'مىدىم'
'ទេស'
'▁mpanjaka'
'ਹਾਨੂੰ'
'▁wollten'
'▁fayd'
'ître'
'▁Gran'
'世話'
'▁گوناهو'
'▁maailmas'
'▁하실'
'ھى'
'▁подоб'
'▁туп'
'▁mindste'
'тивност'
'таи'
'▁tanım'
'็บ'
'бни'
'etin'
'idors'
'▁cryptocurrency'
'ייַ'
'▁visuomen'
'▁علت'
'国民の'
'▁väldigt'
'żieda'
'neñ'
'▁měsí'
'▁юм'
'▁khit'
'▁ສັດ'
'▁خریداری'
'▁fót'
'▁mamlɛ'
'▁acontecer'
'▁potrei'
'於'
'ïc'
'ατε'
'▁рішень'
'サ'
'▁çocuk'
'idlertid'
'▁jiss'
'▁마법'
'▁litsi'
'▁vorbit'
'த்'
'raient'
'tang'
'utako'
'रज'
'▁отида'
'▁kol'
'▁حیاتی'
'▁همزمان'
'ທ່ຽວ'
'▁Noé'
'ନ୍ତି'
'▁1950'
'▁edu'
'▁zamanlarda'
'▁aftë'
'▁Tomo'
'fuɛ'
'▁nyandiko'
'ىلگەن'
'બીબી'
'▁rice'
'▁marautaka'
'▁adsk'
'plé'
'▁Fundació'
'▁pengen'
'▁ପୁଅ'
'▁сыртқы'
'▁یان'
'▁provided'
'▁ইং'
'▁thug'
'▁ər'
'▁დღეს'
'lamenta'
'▁khale'
'▁aplik'
'▁만족'
'어진'
'▁አስተያየት'
'▁دې'
'▁motlhofo'
'▁aflat'
'muu'
'▁serviteurs'
'രുക'
'▁цій'
'▁identitet'
'▁Түүн'
'him'
'старға'
'▁دکتر'
'icasso'
'▁خوراک'
'ビタミン'
'▁ਬਦਲ'
'▁gondolkod'
'▁дегенде'
'▁pazuva'
'▁AMA'
'▁قریب'
'▁최'
'widz'
'तिमा'
'Ɓ'
'guzi'
'allisia'
'wiek'
'▁hā'
'лығымен'
'▁האָבן'
'ètò'
'▁нақ'
'ێت'
'haba'
'▁বর্তমান'
'龙'
'▁དབའེ་'
'▁Product'
'▁الحقيقة'
'▁izpostav'
'▁lähet'
'▁yɛte'
'لیس'
'ቀጥ'
'▁wɔte'
'▁57.'
'shirt'
'▁ümid'
'认'
'▁බං'
'▁بڵێم'
'karatteristiċi'
'ཐེངས་'
'▁exemples'
'慘'
'▁شېرىك'
'ymai'
'▁vicino'
'▁Carol'
'ていく'
'▁disponi'
'▁caman'
'▁osiguran'
'ストライ'
'▁વિદ્યાર્થી'
'▁manodidina'
'▁associated'
'lazim'
'cak'
'amuch'
'▁מאכט'
'ஸ்திர'
'向'
'▁Lý'
'御'
'▁Roc'
'zinga'
'▁artt'
'宙'
'նից'
'හාස'
'▁கள'
'שין'
'ịlụ'
'тимо'
'▁banmandum'
'▁たく'
'▁yhti'
'▁गर्भवती'
'ۇرۇپ'
'▁nibi'
'heil'
'▁tokka'
'▁Kwam'
'ཕྲུ་'
'▁ಓದು'
'▁istif'
'estros'
'▁istedim'
'▁geht'
'▁آبادی'
'▁マイ'
'ganfod'
'▁tali'
'▁32)'
'▁nego'
'pepe'
'▁іннова'
'inky'
'ণ্'
'▁përcak'
'▁קצר'
'▁alai'
'▁Brid'
'▁протягом'
'▁signal'
'▁jelema'
'▁tervet'
'manya'
'▁bimpe'
'▁Diamond'
'ftigen'
'▁förstå'
'▁برگشت'
'▁reikalav'
'一位'
'▁kabul'
'மொ'
'▁rados'
'стка'
'▁mengendalikan'
'ainm'
'▁yapt'
'▁thuận'
'siti'
'খন'
'▁ଇ'
'▁biyan'
'㗎'
'kt'
'▁25:1'
'▁اؤلکه'
'▁Nima'
'based'
'▁سفید'
'chengeta'
'▁무엇이'
'▁lä'
'▁нисек'
'▁pagrindinių'
'▁intresse'
'ëÿ'
'そんなに'
'ລັດຖະບານ'
'▁ennast'
'▁संपत्ति'
'mahụ'
'▁hipó'
'▁предо'
'▁предме'
'▁inspek'
'▁비타민'
'▁друге'
'ània'
'gamat'
'▁POS'
'និង'
'▁પૈકી'
'habwa'
'▁মোৰ'
'бина'
'▁gbɔ'
'▁בפ'
'ཐོག་ལས་'
'▁Voglio'
'tirĩ'
'امع'
'▁purchase'
'støtte'
'▁ಐದು'
'сно'
'▁світової'
'匿'
'ihil'
'▁hakɩkã'
'▁еке'
'▁sviluppo'
'▁foto'
'▁পৃথ'
'인지를'
'▁ayudo'
'▁Fam'
'▁periodo'
'▁diez'
'▁החלט'
'▁seviy'
'keiden'
'▁qoldi'
'ança'
'▁прийма'
'႒'
'年まで'
'▁Mission'
'▁عضل'
'Ŝ'
'šanās'
'▁ਬੱਚਿਆਂ'
'▁effici'
'▁cổ'
'▁zele'
'enzaniso'
'▁dår'
'すと'
'ስዕብ'
'idele'
'▁Кен'
'▁زامان'
'▁ንምር'
'ingai'
'▁Izi'
'▁liste'
'རྒལ་'
'▁Bewertung'
'▁அனைத்து'
'edore'
'じゃ'
'▁ലി'
'▁귀를'
'ା'
'▁ээ'
'umoza'
'EI'
'णु'
'▁없다'
'▁Fue'
'ধ'
'క్స్'
'▁प्रसार'
'▁marik'
'▁umugambi'
'▁טיי'
'▁особа'
'Google'
'τήσ'
'▁የይ'
'ಲಾದ'
'▁komplic'
'lares'
'ρν'
'▁απα'
'▁nĩtũ'
'▁öyrən'
'ھا'
'ongole'
'etag'
'ಈ'
'ტკიც'
'oboozi'
'膨'
'يلة'
'のない'
'▁loja'
'▁phẩm'
'▁тұр'
'ೋಣ'
'▁ଏହି'
'▁পু'
'▁ᱨ'
'▁mmoa'
'ඛ'
'▁aɖewo'
'coa'
'▁villa'
'nyɔ'
'Мә'
'▁slachto'
'▁但'
'▁minnet'
'▁yanapt'
'жыл'
'▁IR'
'▁близу'
'▁राजकीय'
'▁filer'
'Þ'
'の開発'
'▁éch'
'kuma'
'вља'
'mill'
'▁rozh'
'मक'
'▁malaikat'
'▁དགའ་'
'▁کش'
'▁ಜೋ'
'ekonomija'
'▁grid'
'▁bond'
'▁sader'
'▁خوش'
'▁जाण'
'vival'
'▁Bull'
'raich'
'▁õpp'
'ọsilẹ'
'▁kaikki'
'▁duydu'
'ညာ'
'▁ಸಲಹೆ'
'▁треба'
'▁վճար'
'▁ranei'
'▁jkunx'
'▁tshwanelwa'
'ⵢⵏ'
'iranso'
'▁Kugeza'
'imbirhi'
'斜'
'पालिका'
'▁پەیوەندیی'
'alım'
'▁நீதி'
'▁canus'
'▁екстре'
'iranju'
'▁Isirayɛli'
'▁Napole'
'▁보자'
'えます'
'▁фото'
'▁presupu'
'▁ئارىسىدا'
'▁kominote'
'喇'
'нено'
'lín'
'去る'
'▁дошта'
'▁ရေ'
'▁nunya'
'ነበሩ'
'▁қан'
'▁recordar'
'▁zavar'
'▁Буга'
'しみ'
'esya'
'▁vii'
'▁সৰু'
'үүлөр'
'odii'
'▁곳곳'
'▁Б'
'▁இப்படி'
'▁risks'
'្វី'
'ете'
'edem'
'ль'
'▁içine'
'▁དཔེར་ན།'
'ເຂົາເຈົ້າ'
'Hé'
'▁zven'
'▁국립'
'▁vurd'
'▁maladi'
'▁wykona'
'ungula'
'▁pārdošanas'
'▁nta'
'konsum'
'▁gosiri'
'ներում'
'死了'
'ķ'
'Ά'
'本当'
'▁kamata'
'ዎን'
'▁menikmati'
'▁Dij'
'▁пацієн'
'▁valstis'
'▁Noor'
'▁nêz'
'▁आके'
'▁སྡིག་'
'▁Motatoli'
'▁zaczyna'
'▁مين'
'▁나올'
'▁ձեզ'
'잎'
'阪'
'▁botoka'
'▁tomon'
'Į'
'션은'
'тня'
'དགོས་'
'▁жет'
'▁પ્રય'
'▁карто'
'▁singo'
'▁اشخاص'
'fay'
'ontin'
'▁շ'
'لای'
'ზოგადო'
'▁Thĩ'
'▁жители'
'tohet'
'▁деси'
'▁Вашинг'
'▁biribi'
'▁አልነበረም።'
'pén'
'isekelwe'
'▁othile'
'▁ଦାୟିତ୍ୱ'
'شكە'
'▁vert'
'▁Әлеу'
'▁bontsi'
'λος'
'▁نشد'
'ລົມ'
'ohiko'
'▁hoekom'
'▁kudila'
'▁ajutorul'
'▁decyz'
'onyeza'
'्या'
'▁ряд'
'▁노동'
'题'
'▁sakula'
'▁Europaparlament'
'ശ്യ'
'▁фермер'
'▁viktige'
'antwort'
'▁tarokii'
'▁kutululuka'
'weleri'
'▁ɛmɔ'
'hanji'
'▁जरुरत'
'▁ପରାମର୍ଶ'
'▁מאכן'
'몬'
'レベ'
'▁uporabo'
'ĩiwe'
'▁Hé'
'▁përgjeg'
'mri_Latn'
'atie'
'▁हमर'
'▁Comis'
'▁Chia'
'མཆོད་འབུལ་'
'▁aftaler'
'▁Просто'
'위로'
'ဟန်'
'apostora'
'▁тру'
'ண்டி'
'▁idén'
'▁Yaxşı'
'ၢမ်ႇ'
'ਮੈਂ'
'អនុវត្ត'
'▁dixwa'
'▁muto'
'▁tudományos'
'ەنن'
'▁prebival'
'▁ап'
'qonda'
'▁Metropolitan'
'▁sitou'
'▁何'
'▁vakas'
'▁تەن'
'▁nuo'
'iais'
'▁diay'
'上げる'
'ໂມງ'
'▁Tic'
'▁receber'
'ാത്ത'
'мята'
'▁Yeka'
'йських'
'acho'
'▁یاد'
'▁լինի'
'▁resim'
'ⵈ'
'มิ'
'▁दावा'
'▁geup'
'తాయి'
'▁발행'
'yddus'
'သေ'
'▁jibha'
'ట్లు'
'▁Imao'
'▁heldur'
'▁बाः'
'▁механіз'
'EO'
'▁kompati'
'▁훔'
'ึก'
'▁yahay'
'alenga'
'▁ajll'
'▁talaka'
'ughadh'
'▁omãla'
'まり'
'君の'
'▁이젠'
'ukafwa'
'adimi'
'▁jada'
'▁ọchị'
'htar'
'puo'
'ॉलर'
'▁Νό'
'liday'
'itui'
'▁աստ'
'▁आत्मविश्वास'
'▁ŋudzedze'
'▁لأن'
'rä'
'▁ଖୁସି'
'ímp'
'▁gbeƒã'
'▁schat'
'ئنئن'
'▁هي'
'ведения'
'▁Comme'
'▁razo'
'णं'
'▁Health'
'▁அறி'
'ることができない'
'cê'
'▁eesmärgil'
'▁ઘણી'
'hlangan'
'ዋ።'
'▁Poti'
'▁saru'
'▁generasi'
'▁wawanak'
'▁police'
'▁ész'
'▁ngosuku'
'▁santa'
'▁determinada'
'íla'
'▁trenut'
'▁akoranga'
'▁երիտասարդ'
'Sy'
'▁חושבים'
'▁tanish'
'▁कहे'
'raichean'
'લોજી'
'▁välillä'
'科医'
'υπά'
'▁이익'
'▁జీ'
'▁Solomoni'
'検出'
'▁ecela'
'cych'
'▁nytta'
'▁stiller'
'▁méuh'
'مىزنىڭ'
'▁jira'
'cers'
'▁Prize'
'▁bumo'
'▁áirithe'
'ukund'
'دئيئم'
'ၵေႃႈ'
'เลย'
'▁пәйгамбәрлек'
'▁nenu'
'▁troba'
'ukah'
'▁گمان'
'iduki'
'▁biliyorsun'
'नस'
'▁παιχν'
'ግበር'
'▁국경'
'beste'
'▁stru'
'▁تز'
'▁ಉತ್ತರ'
'ಿಕೆಯನ್ನು'
'▁diya'
'▁gorau'
'kora'
'▁γονείς'
'フィリ'
'▁yonse'
'▁рак'
'קען'
'▁Tomon'
'એફ'
'▁خۇش'
'klad'
'ിലെ'
'സ്ഥാന'
'.2'
'▁DNS'
'ହା'
'ᱩᱨ'
'▁یابند'
'zők'
'화는'
'porta'
'▁reun'
'▁Малай'
'ντ'
'▁അതാണ്'
'胆'
'▁Sjá'
'▁دووبارە'
'лмейді'
'nicas'
'▁stof'
'▁rindu'
'▁abay'
'るのか'
'፦'
'▁gebeurt'
'▁75.'
'wantsho'
'esaba'
'▁патри'
'▁כה'
'▁dukkan'
'著'
'▁ଆଗ'
'сені'
'ísluš'
'▁ਬਾਰ'
'anyusa'
'▁Manda'
'▁ክፍሊ'
'▁회사'
'旅客'
'▁స్థాన'
'▁Ձեր'
'ща'
'дени'
'▁kall'
'▁ଏମିତି'
'ele'
'▁bor'
'ையும்'
'직'
'քով'
'翻'
'▁κανόν'
'▁آیه'
'▁توصیه'
'▁exten'
'▁meninggalkan'
'▁parlamentu'
'▁نشانیاں'
'▁нашли'
'ዋቂ'
'ттарға'
'ന്നെ'
'▁പാ'
'adir'
'▁نیروهای'
'▁shape'
'hangyo'
'▁toneladas'
'▁그러므로'
'▁ယုံကြည်'
'▁majigi'
'гар'
'▁yng'
'▁qhanañ'
'▁ചെയ്തത്'
'▁آتش'
'▁ಸ್ವ'
'▁eba'
'▁tiom'
'00'
'скі'
'▁ninguém'
'▁Litu'
'Gén'
'ureuëng'
'▁Vorschlag'
'▁nibyo'
'▁প্রত্যা'
'Gra'
'▁Won'
'▁économiques'
'▁نور'
'▁कुशल'
'baan'
'പ്പോഴും'
'▁waMwari'
'▁dɔla'
'akati'
'신이'
'▁डिजि'
'▁molimau'
'▁ምላሽ'
'▁desen'
'▁ган'
'▁uning'
'胰'
'hilayo'
'▁breve'
'▁ಅಧ್ಯಯನ'
'ରାଜ'
'▁გჲ'
'▁ddweud'
'▁autour'
'▁رێ'
'▁zany'
'▁сияқты'
'▁سپس'
'▁деңге'
'▁wasn'
'▁ezingu'
'▁spil'
'istatud'
'▁initiative'
'कि'
'▁comerci'
'▁Iutaia'
'▁아버지를'
'▁názov'
'▁ҙә'
'▁jött'
'wafwa'
'obozesa'
'▁sóng'
'▁Амь'
'ብረ'
'▁ሳምንት'
'▁ಬಹುಶಃ'
'ίσ'
'intu'
'டை'
'▁mowinjore'
'îts'
'▁latviešu'
'▁만들어진'
'▁Jenis'
'挑戦'
'▁Gac'
'ishi'
'ناہ'
'▁fín'
'.).'
'▁іх'
'fashije'
'▁kwinjira'
'▁끄'
'▁прашува'
'遲'
'▁ང་ནི་'
'вили'
'መላለ'
'སུམ་'
'给你们'
'▁געלע'
'▁zwee'
'stwo'
'▁ایسا'
'込んで'
'▁pasă'
'▁Оде'
'▁услугода'
'▁jintużaw'
'▁середови'
'▁uvedené'
'กุ'
'▁yakin'
'▁baim'
'റയ'
'༸'
'ké'
'▁brukes'
'▁ಸರಿಯಾದ'
'▁טאַ'
'▁(10'
'▁შესაძლებლ'
'▁dhuine'
'▁മണിക്ക'
'▁아이들은'
'▁ነበረ'
'itaka'
'▁серйо'
'▁keliatan'
'▁kingĩ'
'▁ovisi'
'▁naĩ'
'णारी'
'▁Männer'
'▁туугандары'
'▁නුඹ'
'▁zvakaipa'
'适'
'▁lawt'
'▁kpengba'
'▁அமைச்ச'
'▁Zuckerberg'
'▁dewmien'
'▁thừa'
'ceva'
'▁aice'
'বৃ'
'▁catete'
'▁siúd'
'▁빅'
'adhon'
'▁අපිත්'
'迁'
'▁vín'
'▁ହାସଲ'
'▁kine'
'▁বক্তব্য'
'▁teme'
'▁Puedo'
'jante'
'▁UThixo'
'өөдөр'
'ekeng'
'▁जकाँ'
'མི་འབད།'
'شتن'
'▁পরামর্শ'
'▁אַרבעט'
'흥'
'જો'
'▁manaia'
'▁baj'
'需要'
'▁labanyenti'
'▁халыҡ'
'▁toi'
'▁yʋ'
'▁progetto'
'▁tech'
'ilýär'
'▁Nork'
'▁ምልክት'
'▁#'
'▁Xô'
'▁blynedd'
'པོར་'
'▁зуд'
'όσο'
'зори'
'lanğan'
'▁Nika'
'wasya'
'▁табылатын'
'▁אפילו'
'▁만나는'
'▁Θεέ'
'機能を'
'▁dety'
'▁Dau'
'onom'
'▁ትንሽ'
'▁ಅವಲಂಬ'
'▁ynskja'
'کوز'
'▁सक्षम'
'ሶች'
'▁funeral'
'ડ'
'ूंगा'
'alta'
'▁spod'
'▁dolar'
'蛋'
'banaka'
'フォー'
'amụ'
'▁మిలియన్'
'▁gericht'
'▁тары'
'mɑ'
'▁devrais'
'▁आर्'
'▁เขาก'
'▁항상'
'▁બોલા'
'lyn'
'ぐらい'
'ိုင်ႈ'
'▁josta'
'▁それに'
'water'
'▁Comer'
'▁melindungi'
'▁ಹೋಲ'
'▁szerencs'
'tred'
'll'
'▁порно'
'บรรดา'
'▁stov'
'amata'
'▁ýyg'
'agdag'
'▁ག་ར་'
'▁Ngoại'
'▁maleme'
'▁വിജ'
'ဝန်း'
'▁lietošanas'
'▁6%'
'وتن'
'▁Player'
'▁prevo'
'▁уйлыйм'
'▁تقص'
'▁બનાવી'
'▁expression'
'▁हरा'
'▁worried'
'ឯ'
'▁abɔ'
'▁흔'
'heh'
'adal'
'▁فريق'
'jegyz'
'iloba'
'төн'
'▁Afghanistan'
'▁hoffi'
'▁бад'
'▁know'
'covia'
'тынан'
'în'
'▁рах'
'▁kanskje'
'▁সত'
'იმ'
'fatti'
'lelo'
'▁Columbia'
'▁ଉଦ୍'
'专员'
'▁gawas'
'▁عر'
'▁sirri'
'hao'
'▁اللع'
'ገኘ'
'▁هاوکاری'
'▁Juk'
'▁قاتل'
'▁nayiphi'
'▁liph'
'akampi'
'engin'
'▁bőr'
'tsha'
'▁gq'
'▁вси'
'▁Şi'
'dé'
'▁کړي'
'ائب'
'வாதி'
'▁хими'
'▁invad'
'cade'
'▁औसत'
'roba'
'▁niso'
'▁RFID'
'▁저주'
'▁ಹೌದು'
'asabot'
'▁offentliga'
'hý'
'▁hkrang'
'porkan'
'▁espíritu'
'▁강의'
'▁heshi'
'ོམས་'
'tɔdɩyɛ'
'▁osig'
'ዕለ'
'▁kaan'
'▁atkl'
'▁алтын'
'▁Direktyvos'
'▁ஏற்பட்ட'
'portun'
'akanyo'
'蕾'
'јн'
'▁perthynas'
'▁দাব'
'ርኢ'
'▁അതുകൊണ്ട്'
'▁پالی'
'▁Rada'
'ūst'
'▁փող'
'фы'
'▁pelik'
'▁iroyin'
'འདྲེ་'
'पा'
'▁ameri'
'▁शो'
'koch'
'▁toute'
'cem'
'▁faatau'
'▁Oktoba'
'ikezwa'
'▁kraju'
'▁bariko'
'▁tlameha'
'Tidak'
'▁अनुसार'
'▁ਗਿ'
'ච්ච'
'▁29,'
'▁रात्र'
'▁jų'
'誇りに'
'▁websites'
'འང་'
'▁dew'
'▁koolit'
'čnih'
'▁만들기'
'▁chọpụtara'
'▁અનિ'
'ార్'
'kari'
'▁Young'
'▁duyg'
'▁GSM'
'তেই'
'▁utile'
'coli'
'ⴰⵔ'
'▁Höhe'
'búg'
'▁ठंड'
'opot'
'ikire'
'ၵူ'
'jatele'
'▁lonke'
'▁Сте'
'▁Nielsen'
'▁Στο'
'▁филиал'
'▁disap'
'▁vana'
'▁ⵓⴼ'
'▁aġġorn'
'详'
'цыяна'
'▁جست'
'▁yimid'
'▁landzela'
'▁ပိ'
'▁देर'
'▁Tui'
'ogon'
'▁identifika'
'▁isaaf'
'▁mappunnai'
'ুলি'
'▁ಪ್ರಕಾರ'
'▁Makedonia'
'▁nahin'
'▁توزیع'
'▁अस्माकं'
'▁mait'
'▁ਧ'
'▁dumelang'
'▁rauni'
'▁dauvei'
'ించాలని'
'휩'
'lù'
'▁마르'
'▁tashrif'
'▁ወድ'
'▁ນາຍ'
'▁issu'
'αίνεται'
'ച്'
'weno'
'▁dozv'
'த்தில்'
'▁שוא'
'ogues'
'kapital'
'▁طرفان'
'▁emër'
'▁esforços'
'絶望'
'▁ఏర్'
'пркос'
'▁esime'
'ทํางาน'
'chtenstein'
'হৰ'
'ileg'
'▁тър'
'▁dzakasiyana'
'▁kar'
'▁लक्ष'
'▁yankin'
'Saj'
'▁Ej'
'▁ဆ'
'atap'
'ኴ'
'▁၁၅'
'▁ওই'
'zzük'
'▁pomysł'
'▁поддр'
'▁internacional'
'▁আচলতে'
'▁yóò'
'▁tlhand'
'▁marknads'
'ௌ'
'ಗೊಳಿಸುವ'
'لاردىن'
'▁Gebiet'
'▁Forschung'
'期間は'
'筋肉'
'altzen'
'▁2010'
'▁시작한'
'▁elf'
'▁छत'
'王'
'▁Қызы'
'iddi'
'alten'
'ĩrĩire'
'▁ንሰ'
'▁İkinci'
'▁Film'
'▁nĩna'
'Jakobe'
'▁Ավելի'
'▁ordenador'
'生物学'
'▁dilanti'
'▁pɩɣa'
'できますか'
'dov'
'▁Limit'
'▁Lod'
'▁oorspronk'
'▁ຢ'
'▁ствер'
'पर्यंत'
'ibulo'
'ନ୍ତ୍ରଣ'
'▁1959.'
'▁දෙකක්'
'▁marahil'
'▁dokar'
'▁ھە'
'▁काठमाड'
'elang'
':15'
'▁pygamber'
'▁दुःखी'
'▁saya'
'ηθ'
'št'
'ەتنى'
'▁най'
'ภาย'
'Matesu'
'▁kohe'
'▁höweslendir'
'▁ክርስትያን'
'▁woord'
'▁በለ'
'enc'
'▁оор'
'▁ⵜⵖ'
'▁πού'
'▁जेका'
'だけでも'
'▁canke'
'དེ་ལས་'
'▁esimene'
'▁মাল'
'▁alda'
'чини'
'လိုက်'
'▁internazzjonali'
'▁nsen'
'álny'
'▁гадоў'
'▁tʋʋmdã'
'▁skuld'
'▁eb'
'ladel'
'▁học'
'▁tikina'
'äinen'
'▁प्रतिक्रिया'
'ቃስ'
'▁тарты'
'Benz'
'▁kirken'
'▁ngầm'
'lishini'
'▁kaupungin'
'▁pinaka'
'▁tsoma'
'▁политики'
'▁afia'
'▁BMW'
'▁fattig'
'imuose'
'jska'
'▁noted'
'obaneng'
'▁gantsi'
'▁evita'
'▁rangkaian'
'ាភិបាល'
'▁separat'
'▁Ĉu'
'erɛ'
'raudz'
'prend'
'цот'
'▁សាស'
'▁क्षेत्रमा'
'▁reaction'
'▁करावे'
'ཨིནམ་མ་ཚད་'
'▁তারি'
'▁signora'
'▁näha'
'▁жинхэнэ'
'▁inkl'
'ekama'
'▁1⁄2'
'ရှိသော'
'logi'
'▁kiônge'
'▁Ame'
'俺は'
'▁Oco'
'▁अवसर'
'▁Pura'
'▁mismun'
'▁evĩho'
'ུག་'
'wienia'
'োন'
'▁visiškai'
'▁냄새'
'▁bulanda'
'▁कर्म'
'▁داغ'
'▁adakah'
'pressjoni'
'վար'
'▁средств'
'ھەق'
'▁mica'
'▁nangona'
'▁Zdá'
'▁абза'
'▁wowo'
'▁cone'
'▁escape'
'ىتاي'
'▁nulle'
'▁avatud'
'▁pare'
'äller'
'מעות'
'▁Keti'
'chung'
'▁mese'
'▁používajú'
'▁ንሓ'
'▁прі'
'льний'
'རྒྱལ'
'▁kaugaling'
'▁kapolofweto'
'▁уме'
'▁cheta'
'▁hik'
'▁Adop'
'▁шийдвэр'
'▁fingið'
'uton'
'▁ESA'
'ാകും'
'売上'
'▁testet'
'fatšwa'
'слав'
'▁omug'
'▁vlag'
'▁berkuasa'
'လုၵ်ႈ'
'ــــــــــــــ'
'ട്ടിയ'
'▁जग'
'▁hE'
'▁dirait'
'▁madaling'
'▁দিল্ল'
'▁કલ્પ'
'ụzọ'
'ėdamas'
'▁نکرد'
'FK'
'leistung'
'▁Bado'
'ттері'
'inoda'
'թի'
'fies'
'狙'
'▁ጉድ'
'ርነት'
'▁žmon'
'▁ನಾವೆ'
'engið'
'▁giây'
'pion'
'▁ଖାଇ'
'лемін'
'جال'
'▁gebru'
'ترم'
'▁All'
'▁mankas'
'ཡུན་'
'▁joilla'
'ਸਪਤਾਲ'
'▁this'
'▁тро'
'pez'
'ません'
'事の'
'▁құжатта'
'▁Sint'
'▁уба'
'什麼'
'▁earn'
'▁مید'
'▁कब'
'▁dokai'
'你们所'
'▁거기서'
'▁konuştu'
'▁መሣ'
'هههههه'
'▁salawas'
'rgani'
'▁яһа'
'本身'
'▁segí'
'enee'
'▁tlu'
'▁kinyi'
'▁siqu'
'▁ƒu'
'▁míawo'
'▁당신과'
'▁maél'
'▁különösen'
'▁ヒ'
'eskri'
'▁Antoni'
'▁пости'
'-6;'
'▁ligar'
'▁nhwehwɛmu'
'тил'
'igit'
'てきた'
'大いなる'
'▁talla'
'▁ఉంటారు'
'tale'
'▁amohele'
'xapx'
'ksta'
'▁ìfẹ'
'▁موسی'
'▁הם'
'▁wɔanya'
'▁komhlaba'
'ခြင်းငှါ'
'ស្គាល់'
'illin'
'▁ಉದ್ದ'
'▁kasị'
'jedná'
'ț'
'inver'
'のかもしれ'
'▁67'
'▁össze'
'amid'
'voorbeeld'
'ттарды'
'▁بندی'
'▁rauta'
'▁jit'
'▁posição'
'▁ఒకరి'
'▁ڪي'
'▁nibura'
'▁Ինչո՞ւ'
'文件'
'▁باغيش'
'ոբ'
'▁Тау'
'bilisi'
'▁혼란'
'▁мектебі'
'ែនាំ'
'▁daarna'
'の方が'
'鹿'
'▁tevi'
'▁चिन'
'▁ଅନେକ'
'asim'
'▁Siete'
'▁kutha'
'Kay'
'▁검색'
'ிக'
'altro'
'▁বাস'
'xu'
'▁also'
'▁හෙ'
'▁futi'
'▁tuɔɔk'
'-1):'
'▁जउने'
'èy'
'▁Mun'
'▁Babil'
'▁المدينة'
'Sal'
'ོལ་'
'▁сексуал'
'▁filannoo'
'▁hikay'
'ragen'
'▁югары'
'▁mudd'
'irano'
'གཅིག'
'▁כשא'
'起きる'
'ИС'
'▁अगु'
'▁його'
'▁минист'
'▁dichi'
'▁قويون'
'▁сөздөрдү'
'cza'
'▁خەری'
'▁mc'
'▁Beisp'
'▁Keresem'
'۰۰۰'
'鋪'
'と呼ばれる'
'পন'
'▁бүгүнкү'
'কাৰে'
'▁ඔවුන්'
'テキ'
'▁samping'
'▁pā'
'▁Bolana'
'kein'
'▁loketseng'
'▁whakawhan'
'▁gubern'
'▁የዘ'
'ato'
'ၼ်ႇ'
'▁تحمل'
'▁તરફ'
'▁सांसद'
'▁flykt'
'ခဲ့ပြီး'
'▁fetu'
'▁itubutubu'
'▁мер'
'▁deich'
'▁orm'
'urun'
'▁nữ'
'▁күренә'
'乔'
'▁chwe'
'.-'
'▁kecem'
'▁izs'
'édé'
'ப்பாக'
'▁себеби'
'EKA'
'▁zakhe'
'▁중심'
'መለስ'
'を達成'
'▁coas'
'▁pagos'
'▁Đảng'
'▁recommend'
'miya'
'itumãlo'
'▁serment'
'umany'
'વાનગી'
'ksčiau'
'▁गेला'
'ויבן'
'▁Ngokuba'
'▁istina'
'▁حالت'
'▁ਅਦਾ'
'ffa'
'▁osu'
'Imana'
'▁veivakat'
'▁ऍका'
'▁FM'
'మయ్య'
'▁마땅'
'▁রহ'
'▁ghjor'
'▁motani'
'生態'
'▁ndit'
'esar'
'▁нарт'
'ζό'
'မ္း'
'tro'
'माड'
'▁정책을'
'विशेष'
'▁kuva'
'ファミ'
'▁кандай'
'▁Mazkur'
'▁niss'
'▁banzo'
'▁estadounidense'
'なのか'
'▁tard'
'▁පමණක්'
'▁Masu'
'amente'
'▁کاتێکدا'
'▁sakancan'
'▁Eles'
'▁twice'
'▁audiov'
'▁പുസ്തക'
'kl'
'▁ngok'
'▁Qırımda'
'▁lai'
'▁ұйымда'
'નને'
'▁καταστ'
'▁faaaogaina'
'▁కోరుకు'
'rijf'
'▁ئەوەش'
'▁voci'
'▁yetẽ'
'▁vaega'
'▁maging'
'▁artık'
'▁αμέσως'
'社区'
'llä'
'▁05'
'▁hartu'
'▁25:2'
'▁nurod'
'▁ahora'
'ityti'
'हत्या'
'▁gynt'
'enyaa'
'ρεί'
'▁झाल्या'
'ạm'
'▁կանոն'
'▁Mahas'
'▁originale'
'ția'
'ತ್ರ'
'ଭି'
'▁ganzen'
'apil'
'ampla'
'ресур'
'▁যাত্ৰ'
'inkų'
'▁Nemů'
'汝'
'▁enví'
'▁ऽ'
'▁1879'
'▁ntụ'
'syaĩĩsya'
'▁تەک'
'▁jooksul'
'▁لێی'
'elan'
'گۈز'
'▁모델'
'imba'
'▁задржа'
'▁sý'
'▁Ilaa'
'▁yubak'
'▁amason'
'▁mũminũkĩlyo'
'▁wù'
'▁Stori'
'▁pô'
'▁tabia'
'▁તરીકે'
'▁үҙәге'
'▁songa'
'▁savjet'
'▁maĩle'
'▁arasındaki'
'▁современ'
'კვდი'
'▁বৰ'
'▁ሺ'
'▁motuka'
'▁envoy'
'ブラック'
'くなった'
'fere'
'////////'
'▁jejeje'
'▁درستی'
'-191'
'▁tiket'
'▁proy'
'▁efficace'
'▁ንመን'
'ēti'
'▁angenommen'
'▁ይኖራ'
'▁ஏனெனில்'
'▁Ubw'
'៥'
'▁inde'
'▁nanan'
'▁ද'
'▁werke'
'▁chier'
'ersch'
'▁mies'
'▁mfa'
'▁Almanya'
'▁ଦିଗ'
'▁toimia'
'▁წლიდან'
'▁እንደተ'
'ኻኽ'
'▁recogn'
'▁lớp'
'ontal'
'▁Հիմա'
'klar'
'▁кылыр'
'相手に'
'ရော'
'▁druge'
'▁";'
'その後'
'▁तनाव'
'ikymo'
'15/'
'▁bżonn'
'ਤੀ'
'▁More'
'odo'
'ένα'
'▁ntokoto'
'ዙይ'
'ଖା'
'nikelo'
'▁TARGET'
'▁Герма'
'ཡབ་ཀྱི་'
'▁üzrə'
'▁લોન'
'▁ବଜ'
'▁nky'
'bhairt'
'▁kelish'
'▁ଆମ୍ଭ'
'▁आकर्षण'
'▁ఎదురు'
'▁khách'
'antukan'
'▁Ήταν'
'▁Siapakah'
'iarr'
'▁yaza'
'▁얘기를'
'▁tuhituhi'
'▁කිහි'
'▁దేశంలో'
'▁җиде'
'▁මොහො'
'▁Әділет'
'Ց'
'▁maxaa'
'apati'
'▁എന്ന'
'▁Peidiwch'
'▁Thab'
'▁شەكىل'
'▁कम'
'▁μεγάλη'
'adhom'
'▁profes'
'▁тус'
'▁Maňa'
'ປອດໄພ'
'bulan'
'гөл'
'ೆಗಳ'
'एह'
'▁Shtetet'
'golo'
'บาง'
'▁एक्ट'
'▁kadagita'
'▁56,'
'pt'
'▁少し'
'▁прими'
'▁kvöld'
'▁toerana'
'▁ئىسپ'
'જાર'
'▁Gwam'
'ଯ୍ୟ'
'iről'
'▁ממנו'
'▁රට'
'▁leor'
'ância'
'äma'
'▁sprawie'
'▁followed'
'intir'
'▁بەریت'
'▁Longola'
'▁chara'
'▁francus'
'▁palun'
'དོ་'
'▁ઘટના'
'▁कड़ी'
'▁reste'
'wirwa'
'轉'
'▁ကျုပ်တို့'
'ledes'
'▁SG'
'▁එකතු'
'Ủ'
'▁mette'
'▁الصح'
'▁ukham'
'▁tlaa'
'vvəl'
'▁ଦିଆ'
'èid'
'timo'
'▁য়া'
'▁표준'
'▁peserta'
'vallan'
'웅'
'▁metal'
'ló'
'▁vakayagataki'
'▁servizz'
'▁деп'
'▁պահպան'
'cep'
'▁zapr'
'▁жаны'
'▁നിങ്ങള്'
'▁어렵'
'▁Bur'
'▁yinyake'
'▁Zna'
'▁পশ্চ'
'▁Bite'
'ྡ'
'솜'
'▁Wux'
'▁권장'
'က္ခ'
'▁základě'
'▁maja'
'▁requer'
'▁Did'
'araja'
'▁yón'
'▁To'
'▁नै'
'▁qaytar'
'▁Dauga'
'▁Çünki'
'endszer'
'▁monɔkɔ'
'されてきた'
'▁pokušava'
'ambia'
'国的'
'▁پادشاهی'
'son'
'▁боре'
'▁muligheter'
'▁makini'
'▁icha'
'▁ciutats'
'▁ƙungi'
'eky'
'▁chan'
'▁CFD'
'къв'
'્યુ'
'▁निका'
'▁ഇത്തരം'
'▁ယနေ့'
'16.'
'atawan'
'▁olemassa'
'▁naša'
'▁Акаде'
'アフリカの'
'▁séuwa'
'tente'
'▁멀'
'▁ولې'
'▁Filem'
'▁gắn'
'▁Mɔgɔw'
'ಮಾರು'
'wezuu'
'▁ម្នាក់'
'ămâ'
'▁поу'
'▁shule'
'cea'
'▁орж'
'▁zakresie'
'▁pensado'
'íva'
'▁ئىسىم'
'īgums'
'imbe'
'bikolwa'
'ongom'
'▁केहि'
'勁'
'▁Ado'
'apakah'
'▁خۆم'
'టి'
'▁دارن'
'▁حقیقی'
'▁هوء'
'མེད་པ་'
'бы'
'▁ಅಥವಾ'
'ingsing'
'▁Kõ'
'quite'
'લાક'
'▁naenin'
'▁tothom'
'▁የሞ'
'μος'
'▁престъп'
'▁ਯੂਨ'
'ew'
'▁nemam'
'▁श्व'
'▁afirmar'
'▁øvri'
'▁খুবই'
'▁(8'
'▁عالی'
'ስና'
'▁करेल'
'▁tự'
'vement'
'ရင်'
'▁ഉയ'
'ٱلس'
'▁حصے'
'▁hmun'
'▁yxatdan'
'▁iyaé'
'▁apamwamba'
'ρεύ'
'▁muncă'
'▁ટ્ર'
'▁bëgg'
'▁zaup'
'ེགས་ཤོམ་'
'▁南'
'▁જે'
'▁twat'
'▁Mete'
'▁tényleg'
'▁Sma'
'vėje'
'strategi'
'्रीय'
'▁любов'
'ctr'
'▁વિકસ'
'▁ezinda'
'ボジア'
'▁പോലും'
'▁Alam'
'ekete'
'▁Perëndinë'
'ฮ'
'جي'
'▁jaga'
'▁වැද'
'▁רבה'
'eriu'
'▁Maciu'
'▁ओनसे'
'▁sakoma'
'vusiwana'
'Ker'
'▁극단'
'▁Bamo'
'▁Лондон'
'▁अंतरिक्ष'
'සර'
'▁huntu'
'ontrol'
'ється'
'▁пише'
'▁vazifa'
'▁बेस'
'▁націона'
'▁riri'
'▁забі'
'weteka'
'▁capul'
'iebhi'
'▁פעמים'
'▁Tall'
'▁tlhelela'
'▁brut'
'രുന്ന'
'▁gjithmonë'
'▁diýýär'
'▁32,'
'école'
'▁שהיה'
'βαι'
'▁લગ્ન'
'어나'
'▁तत्त्व'
'▁즐'
'いてい'
'ếng'
'▁Hapana'
'▁ситуация'
'を提供する'
'▁tagal'
'▁ياپ'
'वणे'
'▁hariap'
'ിക്കു'
'ものも'
'sperioden'
'▁סיפור'
'▁mathĩ'
'▁સંગ'
'▁skyr'
'万人もの'
'▁sayısı'
'▁klaim'
'▁ಬೆಲೆ'
'လျှောက်'
'▁kushiriki'
'kär'
'▁nyikiwa'
'kuara'
'▁အခု'
'▁тут'
'▁Bato'
'▁ଉଦ୍ଦେଶ'
'▁Nathan'
'▁(2008)'
'ల్'
'һының'
'▁Lewi'
'▁Sebenarnya'
'▁gidag'
'▁nzembo'
'▁ಪೆ'
'▁Sovi'
'▁meres'
'▁തെ'
'mayiko'
'uluh'
'likde'
'▁kāpēc'
'▁kitadi'
'▁havo'
'▁rahat'
'▁رکھے'
'迹'
'珀'
'擾'
'▁Ming'
'▁shax'
'▁ndihmon'
'र्डर'
'▁είπες'
'▁basa'
'▁bakunda'
'▁بهداشتی'
'tala'
'▁phihlelo'
'▁சொல்வது'
'xäna'
'adà'
'▁ɔpepem'
'のために'
'רג'
'▁potrebno'
'▁Kenn'
'▁kuriem'
'isiñ'
'▁متأكد'
'▁enemmän'
'▁thuair'
'ோஷ'
'èng'
'▁نداشته'
'▁alábbi'
'ၿပီ'
'▁Kapernaum'
'тайды'
'▁każdy'
'▁kalbos'
'కొను'
'▁جر'
'▁tagsd'
'ំពេញ'
'▁güý'
'ཙི་'
'уыр'
'▁Ekai'
'▁tabaka'
'▁αν'
'ancin'
'▁ngasi'
'▁sakabéh'
'▁Billboard'
'▁tolv'
'▁ofisi'
'ursday'
'ستند'
'▁ਰਹਿੰਦੇ'
'litât'
'▁godiya'
'▁после'
'ambjent'
'▁छेड़'
'▁aler'
'▁گه'
'ଟାଲ'
'▁تمه'
'▁dầu'
'▁फाइदा'
'креп'
'▁интересно'
'▁katso'
'▁죽'
'▁Goli'
'也'
'▁미리'
'ۋەردى'
'ڭلار'
'▁өзім'
'힐'
'▁dz'
'▁aand'
'tioun'
'▁гэты'
'▁tré'
'ೋಜನ'
'liman'
'▁tiyiseka'
'▁стању'
'havs'
'▁cust'
'χη'
'▁২০১'
'▁uskoro'
'isye'
'▁uopće'
'手が'
'کنالوجی'
'▁wilde'
'▁Pru'
'▁naprave'
'▁ئەلۋەتتە'
'ikita'
'སྤྲོད་'
'▁डिजिटल'
'▁вір'
'▁ڪه'
'▁agawa'
'▁kɩsa'
'▁گتم'
'▁હોસ્પ'
'▁sta'
'▁bɛto'
'▁dựng'
'▁għadhom'
'tetheeasya'
'▁engine'
'ರಿಕ'
'སེ་'
'▁гири'
'▁ôd'
'▁хаце'
'▁zmag'
'▁മാത്ര'
'▁nobene'
'▁zimat'
'防ぐ'
'▁nhau'
'▁honum'
'▁نیشت'
'ակերպ'
'ಸ್ತವ'
'BS'
'選挙'
'▁mure'
'▁Кори'
'JV'
'▁jakie'
'▁jaye'
'▁timur'
'▁tangela'
'▁vykonáva'
'▁אמ'
'хны'
'şul'
'стата'
'▁അക്ക'
'▁læse'
'တွေ'
'▁emrin'
'向こう'
'▁fotogra'
'捞'
'ဲ့'
'▁nkrofuo'
'리카락'
'▁naturais'
'▁wɔne'
'▁ወከፍ'
'▁juz'
'▁Int'
'▁Сай'
'វិទ្យ'
'▁kalibutan'
'▁sasaga'
'▁dirq'
'emek'
'▁შესაძლ'
'еся'
'▁ui'
'uthanda'
'кість'
'▁eksport'
'▁ਸਿਖ'
'▁Pilipinas'
'lao'
'▁mikrof'
'▁trū'
'muun'
'▁чого'
'▁skupaj'
'▁Zakari'
'▁നല്'
'▁subur'
'にあ'
'▁aliwan'
'▁سح'
'▁Myaka'
'▁punapa'
'▁paar'
'を調べ'
'▁siman'
'vuse'
'▁Gra'
'バージ'
'▁Американ'
'▁kje'
'▁minda'
'▁raoodo'
'ंट'
'▁analy'
'▁закону'
'自分が'
'▁така'
'▁konf'
'▁eŋu'
'ཅི་'
'기는'
'リスク'
'▁kuleke'
'uraha'
'ША'
'▁někdo'
'▁ສ້າງ'
'ೀಗ'
'▁플랫'
'▁Museu'
'watako'
'ambuijilu'
'▁ċentrali'
'▁ŵake'
'วล'
'▁medicin'
'▁таләп'
'꼈'
'▁ihren'
'▁tsik'
'▁250'
'تىش'
'▁Ivy'
'ဖြစ်ပါတယ်။'
'▁સંસ્કૃતિ'
'▁380'
'khan'
'▁उनीहरूले'
'▁ਸਾਂਝ'
'ludi'
'▁kiero'
'цця'
'▁nsombelu'
'▁zodat'
'रह'
'▁voľ'
'▁estáu'
'କ୍ସ୍ଟ'
'iméirí'
'▁ilmu'
'▁késő'
'bata'
'gblɔ'
'kab'
'སྡེ་'
'▁llaw'
'▁yoy'
'▁miliki'
'vimas'
'မည်။'
'▁kahle'
'▁தங்கள்'
'standen'
'▁activo'
'шырға'
'fumine'
'▁ordres'
'ākiem'
'▁చర్చి'
'▁۸'
'ὐ'
'ែត'
'▁жеткі'
'▁Belgia'
'▁dang'
'▁països'
'trabaho'
'▁အတွ'
'▁ajaka'
'▁akatanga'
'▁Estamos'
'mıyor'
'/92'
'қтыру'
'▁vā'
'idő'
'▁ערשטע'
'▁मैं'
'▁andare'
'▁pinakama'
'▁सर्वा'
'idzisa'
'zire'
'ທີ່ດີທີ່ສຸດ'
'▁(23)'
'▁вакци'
'daar'
'▁Lass'
'▁kuv'
'▁دول'
'▁לך'
'▁klausimais'
'▁особли'
'▁દર્'
'▁pagsulay'
'▁thảo'
'▁nezab'
'▁市'
'▁jednostav'
'ござ'
'▁बिल्'
'mlu'
'▁цена'
'▁andam'
'▁kgaufsi'
'▁அவ்வ'
'只是'
'▁परमेस्सर'
'suang'
'ไป'
'▁voeren'
'nier'
'▁ສຽງ'
'ases'
'ėkite'
'▁विरुद्ध'
'▁minutit'
'ۋات'
'eron'
'ですか'
'比較的'
'▁것이었다'
'さんも'
'▁دیا۔'
'▁લેવામાં'
'▁قمت'
'ladá'
'jenja'
'▁ನಡುವ'
'▁novos'
'▁kampo'
'Wu'
'▁uph'
'lock'
'言葉は'
'▁уполномочен'
'▁ඕ'
'ėje'
'janje'
'Ubu'
'▁vaziyat'
'▁riski'
'▁succ'
'▁промен'
'▁उत्त'
'ାପା'
'ێن'
'▁वित'
'▁Këto'
'ashiwi'
'uryango'
'bær'
'ह्म'
'nk'
'unia'
'▁kısa'
'гызга'
'▁iriri'
'פך'
'▁Dünyanın'
'▁häl'
'▁nabal'
'▁айтпа'
'▁uczest'
'▁مۇشرىكلار'
'▁tehdy'
'▁удир'
'▁өөрийгөө'
'▁ndza'
'▁studi'
'▁मजबूत'
'▁sevg'
'արտ'
'▁geunas'
'hary'
'નની'
'▁സൂക്ഷ'
'▁litimapim'
'▁faz'
'ålet'
'दातर'
'zaman'
'▁article'
'▁ከምቲ'
'▁хүнд'
'▁uñja'
'▁betere'
'▁catiamẽla'
'▁σχεδόν'
'멤'
'▁menjad'
'ମର'
'▁lối'
'ītāji'
'ɬ'
'ـــــــــــ'
'ເຊຍ'
'poru'
'eraho'
'ಳಿತ'
'▁意味'
'Acad'
'▁helyet'
'▁míanɔ'
'▁hiệu'
'▁নামে'
'論争'
'됐'
'ből'
'▁prinsipyo'
'ндардың'
'▁ынтымақтасты'
'▁બાળ'
'▁Bắc'
'ミー'
'▁2:21-2'
'釣'
'▁Mole'
'▁megtud'
'▁males'
'▁Ellen'
'hawunti'
'rijd'
'▁tho'
'▁कार्ड'
'▁воқе'
':23'
'utwe'
'▁Боль'
'ಶ್ಚರ್ಯ'
'▁tshiamelo'
'▁ayɛ'
'▁ଶିକ୍ଷକ'
'▁गा'
'kelig'
'goi'
'▁ìre'
'▁Yab'
'▁termi'
'ensia'
'▁háló'
'▁kasutamist'
'▁persekitaran'
'C'
'▁стойност'
'ຕໍ່ໄປ'
'▁Mawuxów'
'emwe'
'▁inv'
'▁pārsniedz'
'รึ'
'▁ఇం'
'▁tqis'
'ólo'
'區'
'▁පුරු'
'▁frɛɛ'
'ities'
'▁Somu'
'▁전에는'
'▁mtu'
'irement'
'▁alt'
'▁kelet'
'▁grūti'
'▁egal'
'▁attiva'
'▁sɔbɛ'
'▁ũna'
'يسىلەر'
'штуу'
'▁तुझ्या'
'тоо'
'▁သူ၏'
'ိုင်၊'
'▁یوان'
'▁Shunday'
'▁Wettunna'
'▁doj'
'▁ਪੈਦਾ'
'防止'
'ིག་'
'▁поста'
'▁svob'
'▁جوړ'
'▁aile'
'▁Γα'
'▁sois'
'väg'
'といえば'
'ェ'
'▁બ્રિટ'
'▁Rat'
'▁izikhathi'
'▁gore'
'chasi'
'▁ಮಹಿಳೆಯರು'
'▁Gang'
'▁áreas'
'▁اولدولار'
'▁برگرد'
'зации'
'гийг'
'▁ancaman'
'semmi'
'▁инде'
'ոնի'
'▁कमरे'
'▁uzņēmums'
'▁കാര്യ'
'▁oyie'
'bantay'
'▁ವೃತ್ತ'
'▁Eebahaa'
'әһен'
'▁putra'
'acc'
'或者'
'▁مفید'
'▁navr'
'▁куә'
'ftig'
'ိူၼ်ႈ'
'▁eistedd'
'ljate'
'桥'
'▁ge'
'▁kript'
'▁བླ་'
'▁mũnyanya'
'▁Baltimore'
'▁connais'
'▁प्रभु'
'abusua'
'▁agentligi'
'▁raon'
'▁mizo'
'▁Захід'
'▁biop'
'burayo'
'▁ဇာတ်'
'▁ଅତ୍ୟନ୍ତ'
'▁ligt'
'▁ditan'
'▁рӯй'
'▁dɔrɔn'
'▁ئى'
'▁அடி'
'▁vùng'
'▁itulah'
'▁ekuatiso'
'▁niektoré'
'▁runtu'
'lahlekelwa'
'тельств'
'矮'
'▁dangan'
'▁leur'
'▁pɩlabɩ'
'weit'
'▁gouvern'
'yesi'
'▁бодол'
'▁Bwongereza'
'▁kayna'
'▁elektronis'
'运动'
'дож'
'lapa'
'▁gereki'
'▁produtt'
'ଲି'
'▁pini'
'▁Kĩklĩsto'
'moa'
'▁aanges'
'ড়ে'
'▁irmã'
'▁tenker'
'agira'
'akwata'
'▁abik'
'反應'
'▁Туреч'
'▁đặc'
'▁РФ'
'▁juma'
'ምራ'
'▁سڃ'
'▁розши'
'▁pàgina'
'▁근본'
'▁ps'
'▁ସଦସ୍ୟ'
'اعدة'
'āci'
'dy'
'▁مواد'
'▁құқығы'
'▁ರಾಷ್ಟ್ರೀಯ'
'▁ખા'
'▁syarat'
'▁Ciuta'
'▁markkino'
'▁stoppen'
'iskajām'
'▁sieviete'
'pol'
'▁alapján'
'haus'
'▁skill'
'▁పేర్కొ'
'▁mandato'
'▁vient'
'▁penumpang'
'▁cutiu'
'밖'
'ikivu'
'▁गै'
'plis'
'▁ney'
'madan'
'▁marrin'
'Jy'
'vuaye'
'手段'
'▁masar'
'▁لہذا'
'▁Cimuamue'
'▁семейството'
'▁وێنەی'
'ardım'
'▁ezinga'
'▁chcia'
'▁setia'
'▁prohibi'
'▁थिइन्'
'▁Tid'
'▁1.'
'さん'
'方針'
'ਡ'
'penyu'
'▁dilaporkan'
'જિન'
'▁ଦେଲେ'
'▁خواستم'
'வும்'
'▁lenk'
'ões'
'▁правди'
'▁보냈다'
'▁கலந்து'
'נייה'
'▁logam'
'ekiseera'
'தியை'
'▁thousand'
'▁gelir'
'ついて'
'▁super'
'▁29:1'
'▁makal'
'ひとりの'
'거운'
'▁час'
'▁تەكلىپ'
'▁3000'
'▁nawang'
'့ကို'
'▁sambil'
'▁poukisa'
'▁ඉදිරි'
'▁ら'
'▁עור'
'▁fuerte'
'atl'
'▁tirhisana'
'చ్'
'▁շուրջ'
'ӯҳ'
'ပွင်ၸိုင်ႈ'
'abbo'
'umaliro'
'中国は'
'ნ'
'해지고'
'сэн'
'▁koffie'
'usammen'
'▁skaitmen'
'ice'
'▁선호'
'▁اوغلو'
'▁einu'
'umeza'
'▁തിരഞ്ഞെടുക്ക'
'▁Moth'
'deri'
'myn'
'▁runakuna'
'▁утыр'
'▁Sèt'
'▁ስለዝ'
'▁ସମ୍'
'▁Jot'
'▁እፈልጋ'
'▁wo'
'|'
'▁эли'
'▁Arona'
'སློབ་སྟོན་'
'jskem'
'▁Bíblia'
'▁boon'
'▁مطال'
'gender'
'▁тэнгэр'
'▁42,'
'▁Herbert'
'▁ਗੈਰ'
'ɗum'
'▁безпосеред'
'另'
'▁huwa'
'wij'
'▁podp'
'▁ყველაფ'
'▁होवो'
'▁अमीर'
'这样'
'▁느껴'
'▁Şeýdip'
'▁رب'
'▁Պող'
'ንጎ'
'▁جان'
'apons'
'▁voin'
'geo'
'▁ardhur'
'▁edýän'
'▁jern'
'を授'
'▁اصول'
'▁呢啲'
'▁96'
'▁limen'
'▁ескере'
'▁lomana'
'▁kaip'
'tifs'
'maksud'
'▁Финан'
'ၱ'
'▁dịghị'
'▁ཁོང་'
'▁स्थल'
'වර'
'▁съвет'
'▁žmonėms'
'하였다'
'▁사례'
'▁세상에서'
'▁તી'
'არა'
'ଳୀ'
'ләреннән'
'▁tès'
'Best'
'enak'
'▁બિઝને'
'oshye'
'▁መረ'
'ལྟ་བུ་'
'▁rhydd'
'fikiri'
'▁نەسى'
'្នះ'
'zr'
'▁вере'
'works'
'▁pengawal'
'imiet'
'كرێت'
'▁kërko'
'▁saserdote'
'▁مقایسه'
'▁хә'
'Mana'
'licy'
'▁connu'
'ρική'
'▁gha'
'ەندە'
'vĩ'
'▁těch'
'▁བྱ'
'▁Etsa'
'ឋ'
'▁gohlom'
'ችን'
'дом'
'ايت'
'▁ober'
'▁وتن'
'▁Dengan'
'empha'
'ぇ'
'ymore'
'▁kutafuta'
'▁taali'
'▁سىلەردىن'
'▁ସମାନଙ୍କ'
'以来'
'800'
'álnych'
'▁тобы'
'▁grupo'
'Imarayku'
'自宅'
'▁Kjo'
'▁گذاری'
'ໃຊ້'
'▁পর'
'▁प्रसिद्ध'
'▁উদ্দেশ্য'
'▁են'
'▁ฉันรู้ว่า'
'gence'
'arudza'
'▁өзара'
'▁સવારે'
'য়েছেন'
'ରୋଧ'
'Tat'
'具体的な'
'▁مخکې'
'▁ganddo'
'▁Алі'
'▁متوجه'
'▁Jenna'
'▁کنٹرول'
'▁höl'
'▁menangkap'
'▁مبنی'
'okpari'
'▁تجزیه'
'▁lėk'
'▁અસ્ત'
'4-3'
'▁tiujn'
'ႁိုဝ်'
'▁snak'
'▁løpet'
'▁UE'
'者に'
'▁alëukë'
'▁gahom'
'▁ಶೀ'
'සුන්'
'抵'
'▁ƙare'
'▁alama'
'▁caru'
'▁skali'
'▁орнала'
'▁menghadiri'
'▁қаланың'
'bug'
'ungdan'
'រីករាយ'
'▁mvura'
'-9'
'▁boletse'
'▁alipokuwa'
'▁고객을'
'▁makuabu'
'▁ngrauhin'
'▁نزیکەی'
'anaka'
'▁Şeýtan'
'▁aigua'
'يط'
'illee'
'ထဲက'
'▁humanit'
'▁reading'
'olest'
'▁duidelik'
'▁hilang'
'▁nuova'
'▁журнал'
'▁насар'
'▁clair'
'▁hong'
'ですが'
'▁বিবাহ'
'▁ehdot'
'▁disper'
'▁thiệp'
'▁qis'
'ongoni'
'▁ansvar'
'▁часа'
'▁ارو'
'▁Gibr'
'▁pprovduta'
'zvadzi'
'lamaga'
'amuni'
'માન'
'▁ukulele'
'▁ngawi'
'▁Filipino'
'▁vëm'
'▁meetod'
'▁Walang'
'syo'
'lwano'
'▁вәгъдә'
'▁ସଦାପ୍ରଭୁ'
'▁biolo'
'製造業'
'lhabelo'
'失業'
'▁جیهان'
'ჟ'
'▁گذاشته'
'ankopɔn'
'▁boýunça'
'▁mayo'
'▁konsolid'
'▁patuh'
'度'
'賢'
'asɩ'
'▁cộng'
'▁lajan'
'▁پیک'
'རྐྱེན་གྱིས་'
'演奏'
'▁choinneáil'
'▁atak'
'bildung'
'buteng'
'▁Alien'
'▁ризик'
'▁oikuaa'
'ଚ୍'
'rifol'
'ankan'
'▁Iyan'
'▁Αν'
'▁sifuna'
'▁fhaighinn'
'▁클릭'
'▁masalalar'
'▁kuvandaka'
'▁Paš'
'itelji'
'Shi'
'▁mukug'
'elē'
'トム'
'▁ಗೌ'
'▁Hi'
'▁kolmand'
'▁Lars'
'ሐ'
'▁кедергі'
'▁kele'
'▁၎င်း'
'▁mwanga'
'NT'
'цама'
'basoke'
'xa'
'лары'
'▁היו'
'▁kugu'
'▁olika'
'▁கேட்ட'
'▁Mahal'
'▁즐거'
'▁ohechauka'
'▁nnuru'
'▁Pewnie'
'▁Mwamb'
'ïda'
'▁ત્યારે'
'▁wiil'
'▁ඩ'
'▁éra'
'軸'
'ψη'
'hunu'
'akte'
'აკუთრ'
'▁Sizning'
'▁atifi'
'▁უ'
'▁flak'
'▁komt'
'▁ಅನುಕ'
'▁metsotso'
'ہ'
'▁lonse'
'▁toeg'
'ីឡាករ'
'▁কোৱা'
'निहार'
'▁Hə'
'བར'
'▁darbības'
'xaki'
'рэ'
'god'
'શાળી'
'▁lg'
'▁richi'
'údo'
'▁تیر'
'ո՛'
'ýada'
'খান'
'roll'
'▁ianao'
'▁पद'
'得到'
'བདེན་དཔང་'
'wirirana'
'баво'
'▁jawaabay'
'ιών'
'▁क्षमता'
'▁soro'
'▁ҡасан'
'ופו'
'切な'
'▁bohle'
'▁kúnnu'
'nassa'
'▁Парвардигори'
'▁वन'
'▁tvirt'
'▁방금'
'▁طفل'
'သောသူသည်'
'▁rien'
'▁hypp'
'giai'
'bies'
'▁हो'
'ētājiem'
'ትዮ'
'හැන'
'▁структура'
'Next'
'vumenti'
'旦'
'▁anlam'
'▁злоупотре'
'visión'
'ຊັ້ນ'
'aroit'
'▁exemplo'
'▁známe'
'▁кадом'
'konna'
'জন্য'
'hixo'
'▁largo'
'▁времен'
'▁안전'
'▁aplikasi'
'▁nasa'
'▁três'
'▁étr'
'▁쓰지'
'▁2010.'
'yoj'
'▁шля'
'etle'
'▁белару'
'▁ఇష్టపడ'
'▁ezin'
'်'
'▁mase'
'▁Antrag'
'andira'
'▁prostitu'
'िंग'
'▁suda'
'▁ئامېرىكا'
'▁Mela'
'▁കുട്ടി'
'▁후원'
'▁mendapati'
'▁nira'
'▁acet'
'▁pangikuik'
'ਲਾਈ'
'pɩzɩɣ'
'▁bijaksana'
'umau'
'ည့်'
'▁آلمانی'
'▁kwalità'
'हें'
'ེད།'
'▁senye'
'▁atž'
'sioner'
'▁έμα'
'fied'
'▁ikanyegang'
'▁하게'
'▁sigilen'
'▁Anglo'
'▁šireletša'
'▁күргә'
'▁peureulée'
'wathi'
'▁못한다'
'▁thusang'
'")'
'ائے'
'чэння'
'▁wates'
'▁sampel'
'मैले'
'ಿಸುತ್ತಾರೆ'
'▁tys'
'▁몸에'
'କରେ'
'▁beutôi'
'▁ಕೆಲವರು'
'zult'
'▁sha'
'▁აბა'
'jisi'
'▁waad'
'▁kavua'
'▁Sure'
'▁पू'
'▁Eteke'
'▁zvýšiť'
'▁29.'
'▁הדרך'
'emmé'
'▁lewens'
'▁ути'
'τυ'
'▁пога'
'▁chuireann'
'ambiwa'
'emez'
'教'
'▁天'
'▁වෛ'
'konomi'
'▁Instrument'
'简'
'▁эр'
'▁аши'
'▁бәхет'
'▁delako'
'▁обезбе'
'stead'
'▁transi'
'▁bheka'
'▁omre'
'▁ပၢႆး'
'ciendo'
'2.1.'
'▁məc'
'▁ئەھ'
'명의'
'▁Faith'
'▁اتفاقی'
'▁Wales'
'▁향하여'
'gur'
'▁xinti'
'▁votre'
'▁መንጎ'
'▁utilisé'
'▁रह'
'▁기회'
'▁bëni'
'lossing'
'ច្បាស់'
'▁듣는'
'▁oppure'
'▁monta'
'лец'
'▁амьд'
'▁intellig'
'▁다음에'
'▁aspektas'
'ಶಾ'
'▁Sender'
'▁முடியுமா'
'ĩkĩra'
'bte'
'▁كەلگۈ'
'議'
'Gala'
'▁পর্যা'
'▁손실'
'▁source'
'རྟ'
'陛'
'ລະອຽດ'
'하나님이'
'▁lomalagi'
'臨床'
'ɩm'
'▁pona'
'▁ኣመሪካ'
'্ৰে'
'▁pengikut'
'▁convert'
'▁liovina'
'▁חברי'
'eminyaka'
'▁doble'
'Այս'
'▁ሞተ'
'▁Sax'
'واس'
'▁injury'
'▁sanin'
'▁Station'
'erdem'
'ukogu'
'uje'
'▁meetse'
'▁istru'
'▁beskæftig'
'▁hầu'
'▁बर्बाद'
'▁адамдар'
'▁stipri'
'▁erdi'
'▁উনি'
'hola'
'▁supervis'
'ከና'
'一言'
'кування'
'▁diwy'
'▁Lus'
'ិញ'
'▁group'
'子が'
'▁avatu'
'▁kelemahan'
'▁kanji'
'▁tribu'
'toar'
'▁mộ'
'▁জড়িত'
'valla'
'▁troben'
'▁ћу'
'穌'
'▁néz'
'▁nepi'
'▁ɛkɛ'
'ände'
'▁ඒවා'
'▁системи'
'ାସନ'
'▁ઠ'
'iaurės'
'upid'
'▁Péicha'
'▁attenzione'
'▁pueblo'
'ớn'
'▁ìgb'
'▁106'
'▁kwindlela'
'ረጃ'
'inika'
'▁الی'
'emp'
'▁болуы'
'ཉམས་'
'▁qabel'
'▁keje'
'▁Nunku'
'ウェー'
'диқ'
'και'
'romach'
'▁bastante'
'那'
'멜'
'▁lesw'
'▁Else'
'▁kugar'
'▁Centr'
'▁vonë'
'▁sentro'
'▁sâng'
'▁هو'
'▁Apolo'
'▁sarimihetsika'
'▁mudik'
'▁စေ'
'▁слишком'
'ラボ'
'▁lī'
'▁timiliyoni'
'▁lwabo'
'▁ሊ'
'ንቀ'
'säkr'
'haal'
'▁હમ'
'の死'
'▁기'
'▁Wah'
'itten'
'ແຂ່ງ'
'2...'
'▁Father'
'▁ڈ'
'કન'
'▁ומי'
'▁Hobane'
'▁baay'
'▁ਕੇ'
'dʋʋ'
'▁क्र'
'MS'
'▁આઈ'
'▁երաժ'
'ნიშ'
'▁nyua'
'ۋىتى'
'nld_Latn'
'▁principer'
'▁सुन'
'▁connaît'
'▁ബിസിനസ്സ്'
'▁yolg'
'ліп'
'▁الرح'
'▁ھالى'
'▁마련'
'▁Україн'
'▁pɛwɛ'
'ใจ'
'▁ကျွန်မရဲ့'
'▁Officer'
'▁ketubaka'
'▁ફક્ત'
'▁õigust'
'▁Macron'
'پەڕ'
'يى'
'botan'
'コメント'
'ଫା'
'▁ציל'
'꺼'
'▁glab'
'拯'
'ৃষ্টি'
'▁библиоте'
'▁Egli'
'▁kennis'
'▁aaw'
'▁направ'
'དེ་ཚོ་'
'▁Levit'
'երս'
'ಫಿ'
'▁척'
'▁uraditi'
'▁પરિણામો'
'დან'
'ydami'
'ກິດ'
'cahan'
'▁latigɛ'
'▁पाछे'
'ukiridde'
'▁अचरज'
'▁iranlọwọ'
'▁یمان'
'▁Sna'
'աստանի'
'▁babagan'
'мийн'
'▁rozpoč'
'anyi'
'နောက်'
'▁nden'
'▁järgmis'
'ጊዜ'
'▁بمب'
'дей'
'ન્ને'
'ulių'
'▁Republik'
'▁שבה'
'▁euroa'
'kom'
'▁Imp'
'▁viro'
'ሏ'
'▁담당'
'▁magtat'
'ítě'
'bwo'
'▁ያደርጋ'
'▁мәдениет'
'▁కని'
'▁كبير'
'ණයට'
'ятно'
'▁Price'
'▁utar'
'目前'
'▁grupā'
'▁खुश'
'役割'
'でに'
'▁apparat'
'আমি'
'▁प्राप्'
'▁racon'
'▁furlan'
'▁কাৰণ'
'▁кому'
'omeze'
'▁hơn'
'▁hjar'
'ངེ་གི་'
'▁kokanisa'
'ччя'
'▁gyda'
'▁ಚಿಕಿತ್ಸೆ'
'celi'
'▁terce'
'첸'
'ड़ा'
'ཉིནམ་'
'ybei'
'▁Düny'
'▁август'
'覺'
'▁sʋkã'
'བཞིན་'
'ཨིསི་རཱཨེལ་པ་'
'▁Mange'
'▁balaan'
'utna'
'▁Manusia'
'▁dedim'
'løb'
'▁жүрген'
'▁ଖେଳାଳି'
'▁ntiy'
'vesti'
'వాస'
'▁될까요'
'▁gospodars'
'▁ध्यान'
'Esin'
'▁воло'
'▁nispa'
'ternel'
'▁buv'
'▁sprendimą'
'▁కొన్ని'
'зе'
'▁Naxari'
'▁Ηνω'
'▁djevoj'
'atad'
'balihan'
'▁многих'
'ragende'
'оли'
'alala'
'▁దో'
'▁tlhaloganya'
'▁سیم'
'▁5:8)'
'▁viņas'
'▁құрылыс'
'ંદુ'
'▁Mumwe'
'▁친구와'
'ག་'
'لەند'
'▁įgūdžių'
'▁रेडियो'
'▁artis'
'▁yɛgɛ'
'コミュニ'
'luvit'
'▁Сон'
'▁nuspr'
'ဖို့အတွက်'
'▁katunda'
'▁көрсетілген'
'▁زمانی'
'是在'
'bind'
'▁घरी'
'▁grafik'
'▁dengar'
'▁ogaan'
'རྟ་'
'ávanie'
'▁тей'
'वत्'
'manız'
'buję'
'بۇ'
'▁креди'
'▁мәрте'
'▁olih'
'▁péri'
'▁nurodyta'
'ମାନେ'
'▁duomenys'
'▁உற'
'▁поку'
'▁uMbuso'
'▁दुनु'
'đen'
'▁Այդ'
'గొ'
'▁Таби'
'hulap'
'žiaus'
'▁4.4'
'▁Regi'
'utumuku'
'fwil'
'▁chẳng'
'▁jedh'
'▁күтәр'
'▁calo'
'जत'
'▁వాస్తవానికి'
'sions'
'▁zorg'
'▁tişt'
'▁жүрөгү'
'▁trajno'
'▁hoë'
'▁pse'
'éé'
'▁संप'
'▁Мәсих'
'▁varmistaa'
'ames'
'vango'
'ਕਰਨ'
'νηση'
'▁Viagra'
'▁hlan'
'▁තරම්'
'▁კაც'
'ាស្រ'
'obni'
'▁kể'
'Eg'
'▁என்னால்'
'bidi'
'▁현재'
'▁бетер'
'▁Trou'
'▁طبی'
'▁یوازې'
'ພະ'
'▁darüber'
'szab'
'▁ខ្លាច'
'▁συν'
'▁isicelo'
'ປະຈໍາ'
'▁организација'
'ତ୍ତ'
'▁mezin'
'▁ସାରା'
'adilika'
'▁свързани'
'▁студије'
'▁mailyĩ'
'▁սակայն'
'▁кући'
'▁आपस'
'▁веро'
'▁sagokɛlaw'
'▁2'
'▁Ly'
'уди'
'▁आफ्नो'
'▁үзебез'
'▁baleka'
'んですね'
'▁metru'
'▁येशू'
'ársaság'
'▁rovnaké'
'trat'
'ICT'
'▁سىلەرگە'
'iren'
'▁much'
'▁хууль'
'▁प्रणाली'
'予言'
'▁genere'
'▁Damit'
'umwuka'
'usual'
'▁ലഭ്യ'
'▁jup'
'▁мәртәбә'
'▁yɛ'
'▁bhféad'
'▁diphoofolo'
'ग्न'
'▁voluali'
'▁seç'
'ኖረው'
'▁razmer'
'▁መልስ'
'لارنىڭ'
'▁Ureuëng'
'▁комиссиясының'
'▁paese'
'▁קול'
'▁هەن'
'絕'
'▁менән'
'▁അർ'
'▁trưng'
'▁вашого'
'▁चुनौ'
'رەك'
'示唆'
'▁lợi'
'▁mameme'
'▁sumũlũisa'
'▁tilstrække'
'▁উত্তৰ'
'▁Lekin'
'▁સ્પ'
'▁tangan'
'▁عليكم'
'▁jour'
'슨은'
'1,'
'▁llevar'
'▁dibe'
'▁wnaeth'
'▁Peteĩ'
'▁ruky'
'áicha'
'agatik'
'િત'
'াস'
'▁airgid'
'合わせて'
'▁zomi'
'▁Kristoni'
'▁ହଁ'
'~"'
'undin'
'▁Эгерде'
'▁lorato'
'▁アル'
'▁smerte'
'▁konomuisi'
'▁superficie'
'▁okusaba'
'▁Фонда'
'័ព្ទ'
'▁rời'
'typ'
'veilig'
'ാശ'
'ከታ'
'ૂલ'
'▁हल'
'ikhundla'
'▁medier'
'▁හොඳ'
'ຊຸດ'
'▁ка'
'▁fèmen'
'▁stic'
'yä'
'羅'
'níomha'
'▁akĩ'
'ເຈັບ'
'তিনি'
'▁siphila'
'▁Goliat'
'▁ennå'
'▁литера'
'pustakaan'
'▁നിർ'
'▁գեղեց'
'▁сүйгөн'
'esom'
'ဒ်'
'▁Yahu'
'▁Ká'
'uala'
'▁କିମ୍ବା'
'▁Қостанай'
'▁аспе'
'▁Bufumu'
'▁mengem'
'▁куп'
'َّ'
'erin'
'້າງ'
'▁weiß'
'▁Celui'
'▁Bunday'
'▁чему'
'sian'
'▁bbażati'
'▁නු'
'diena'
'izina'
'жење'
'▁hellig'
'▁amus'
'▁ngimane'
'hoof'
'לינג'
'▁নোৱাৰে'
'ებულია'
'▁subven'
'▁ɲuman'
'▁elämää'
'화하는'
'▁ប្រទេស'
'ilyo'
'പ്പറ്റി'
'▁әре'
'▁ठहर'
'▁440'
'▁ihes'
'▁pulak'
'지에'
'віду'
'▁법적'
'▁Thông'
'ári'
'▁wila'
'лыҡты'
'▁باران'
'لام'
'▁kín'
'karta'
'▁ደም'
'▁לחיות'
'unang'
'חיל'
'提示'
'íst'
'▁ваҡыт'
'i'
'▁fazlas'
'▁მთ'
'▁Ahubwo'
'▁fiantra'
'▁187'
'잣'
'▁چاغ'
'겉'
'▁ಅವಕಾಶ'
'mağa'
'▁agradable'
'▁gwĩka'
'▁ወያ'
'▁جداگانه'
'ugna'
'▁skladi'
'▁kanmu'
'▁balekane'
'▁બેઠ'
'teno'
'▁رنگ'
'▁감사합니다'
'▁ଟେଷ୍ଟ'
'▁รัก'
'▁төлен'
'▁hát'
'ள்ளனர்'
'밧'
'ੱਤ'
'ဋ'
'▁սպաս'
'▁दिसते'
'▁ལོ་ང'
'▁butik'
'少'
'kanta'
'▁цих'
'yʊ'
'▁ترسی'
'▁پابندی'
'合'
'▁ເສຍ'
'▁keek'
'▁mabbirittangngi'
'▁dat'
'▁жолугушуу'
'▁biko'
'▁kryesisht'
'▁počítač'
'▁ၸ'
'▁movies'
'oresc'
'ફર'
'▁Yosef'
'▁яах'
'liai'
'▁gevolgen'
'▁мэднэ'
'engt'
'▁Net'
'isas'
'みは'
'▁Intel'
'▁elm'
'anakasti'
'▁армия'
'▁trăi'
'▁унапре'
'yereke'
'▁పది'
'特別な'
'▁uskon'
'డా'
'▁hinungdanon'
'ेर'
'▁tamang'
'eteleke'
'▁ເທື່ອ'
'▁چيائين'
'▁Feld'
'▁dlh'
'▁riɛl'
'ବାଦୀ'
'▁լր'
'▁налого'
'▁رکھیں'
'▁ndino'
'▁Ebang'
'ekatu'
'▁Бес'
'▁Oslo'
'▁hamyaka'
'olov'
'▁kūr'
'▁būtis'
'▁axudar'
'▁knji'
'jdź'
'▁evu'
'▁çalışan'
'▁vedo'
'▁oikea'
'IN'
'▁Gas'
'▁Luz'
'ပါဘူး'
'▁asengeli'
'unyisa'
'▁белгилүү'
'hegofatšo'
'▁pagalba'
'cist'
'▁စက်'
'▁riƙa'
'apiwa'
'▁tāpēc'
'▁mararo'
'▁Psalmo'
'▁mediro'
'oloo'
'त्सा'
'tali'
'larım'
'▁tína'
'▁ٱلش'
'▁furs'
'恥ず'
'tigkeit'
'党'
'▁16)'
'▁πιο'
'wagwa'
'▁ಆಟ'
'▁паль'
'ძულ'
'▁chiq'
'▁Nega'
'▁loloka'
'▁பத்தி'
'bek'
'▁$'
'utho'
'▁אתכם'
'▁외국'
'endry'
'▁tarifa'
'asida'
'ikoli'
'▁이것을'
'onyana'
'སྒུག་'
'anyufu'
'▁övers'
'cj'
'wemi'
'展開'
'Etu'
'▁míele'
'▁еркін'
'▁έν'
'▁kadua'
'zjali'
'Mɔgɔ'
'▁ઝડ'
'▁أد'
'▁과정'
'▁टेल'
'▁bateau'
'一切'
'▁Lefoko'
'▁dôs'
'▁stratē'
'ා'
'▁žmones'
'центра'
'úsa'
'erique'
'▁aho'
'権限'
'▁jadmane'
'▁ebikwata'
'jas'
'ጽሕ'
'▁छोड़कर'
'▁bahe'
'▁εγκα'
'▁Mell'
'▁ambass'
'製品は'
'▁inh'
'▁समस्या'
'hyd'
'▁szent'
'▁ביסט'
'Omu'
'անդակ'
'အရွယ်'
'であるが'
'▁applic'
'▁ⵡ'
'▁ابت'
'ուրջ'
'▁egip'
'alladh'
'ಕ್ಷ'
'ጥር'
'▁qil'
'▁비행'
'▁గుర్తుంచు'
'▁rántí'
'લના'
'▁surprise'
'▁kwĩkĩa'
'ནའང་།'
'▁mone'
'▁naisangsangayan'
'▁вихід'
'師'
'▁θ'
'▁sido'
'fallen'
'ສິ່ງ'
'▁fampandrosoana'
'▁последните'
'▁Industry'
'usiga'
'▁domuni'
'ðinn'
'▁작은'
'▁келет'
'▁foiz'
'▁المش'
'▁atâa'
'grau'
'Զ'
'ಶು'
'нечно'
'agiza'
'▁mici'
'▁было'
'▁līgas'
'금'
'▁Tanrım'
'ônge'
'μβ'
'▁snieg'
'▁रण'
'▁누구든지'
'bocsát'
'▁zvinga'
'ཆ་ཁྱབ་'
'▁дове'
'ettigheder'
'▁それらは'
'rang'
'▁rayon'
'ációs'
'▁devient'
'▁tege'
'ուցիչ'
'▁لقد'
'하였으며'
'▁beyin'
'▁žinių'
'▁өлкән'
'▁konsekvens'
'гии'
'键'
'▁inva'
'▁opozor'
'▁najvä'
'▁тот'
'▁मैत्री'
'ម្លាំង'
'による'
'▁योग'
'▁llocs'
'▁yanzu'
'▁престо'
'Pre'
'▁nkume'
'▁فری'
'▁ምድ'
'▁änd'
'fiaw'
'▁ପୁରୁ'
'▁drugu'
'▁ང་ཡི་'
'ལྗ'
'ugang'
'▁бажа'
'▁gangen'
'саи'
'▁sprend'
'▁njengom'
'eer'
'-10.'
'▁juurdepää'
'▁kurš'
'2.2'
'▁akékoľvek'
'▁جمعی'
'吓'
'̰'
'▁irten'
'seleyo'
'▁Simi'
'▁གདོན་'
'▁கிற'
'▁fhor'
'▁ялган'
'▁tó'
'▁himlen'
'▁עשוי'
'Yer'
'▁хэрэг'
'▁증'
'▁Library'
'▁bashi'
'▁peý'
'즈'
'▁ankouraje'
'▁сынып'
'ላችሁ።'
'նորհ'
'▁ଈ'
'鳩'
'àg'
'towa'
'▁skær'
'क़'
'▁edirlər'
'▁vols'
'བཀའ་དྲིན་'
'▁ũk'
'▁Sarah'
'▁ኢኻ።'
'ôh'
'▁Tt'
'வித'
'▁われ'
'ಿಸಿದ್ದಾರೆ'
'▁apal'
'كۆ'
'▁minska'
'▁불신'
'appro'
'лору'
'▁Туре'
'▁ብናይ'
'లె'
'▁ప్రణాళిక'
'▁rendelkezés'
'▁पड़ा'
'▁itum'
'▁ਪੀ'
'▁kellene'
'זאת'
'▁стално'
'▁पढ़ने'
'▁मंत्रालय'
'lerne'
'ქმე'
'▁αγόρι'
'▁Clara'
'▁ngezinto'
'▁мәселелер'
'▁ֆիլմ'
'▁محصول'
'▁wʋsgo'
'彼が'
'▁전략'
'▁fei'
'▁zith'
'▁lahayd'
'▁ay'
'اد'
'མ་གྱི་'
'▁betegség'
'্রে'
'ticle'
'བདག་'
'▁atha'
'▁Otembo'
'terminu'
'▁otimore'
'▁विश्वसनीय'
'▁fondo'
'▁ngjar'
'ieħor'
'▁atan'
'▁driving'
'▁esanju'
'▁medd'
'▁যোগা'
'▁ibi'
'▁환경을'
'▁lista'
'▁prévu'
'ໂຕ'
'▁mara'
'▁ⵉⴳ'
'▁كۆرۈش'
'▁மாத'
'▁ଫୁ'
'▁Cristian'
'▁מעל'
'▁започне'
'▁لایەن'
'▁விஜ'
'▁coraz'
'ispeċifika'
'▁2)'
'▁oft'
'kummer'
'▁દેખ'
'▁алыш'
'▁صرف'
'▁پڻ'
'▁fyo'
'▁Æ'
'▁τρόπο'
'▁πρωί'
'▁mainta'
'em'
'▁infonya'
'▁perjudi'
'▁word'
'▁aýdyl'
'▁কোন'
'▁suteikti'
'akristão'
'▁لید'
'▁wabiro'
'ère'
'▁priamo'
'▁kopi'
'復活'
'alga'
'ཁྱོད་རང་'
'▁scoil'
'▁rekonèt'
'▁ચોક્કસ'
'▁મૂળ'
'▁என்ன'
'▁incuro'
'yifo'
'▁Nekem'
'▁kdybych'
'▁Icyo'
'▁injur'
'▁diperoleh'
'▁ŋudz'
'▁kız'
'▁는'
'hono'
'▁भरि'
'▁můžeme'
'▁akka'
'एगा'
'hatian'
'nati'
'▁kipindi'
'▁ёй'
'▁Vag'
'wag'
'裁军'
'▁sabi'
'▁podrien'
'몫'
'人たちの'
'▁རྨགཔ་གིས་ཡང་'
'は何を'
'▁ਤਿੰਨ'
'▁හමු'
'▁tikomba'
'▁과학적'
'▁पाप'
'gués'
'▁Yakobi'
'▁Ati'
'▁iriki'
'▁Ок'
'▁ترو'
'▁Петро'
'▁svaret'
'▁ئىبراھىم'
'▁ryggen'
'ሌት'
'▁कुर'
'▁Ž'
'կա'
'▁DNA'
'▁ఇంత'
'갔다'
'▁ᱛᱟᱦ'
'ಾಗಿಯೇ'
'▁lisään'
'TN'
'▁уақытта'
'▁Fællesska'
'▁ஒப்ப'
'▁சென்று'
'▁Seba'
'ཁྱོད་ཀྱི་'
'▁問題'
'▁잊어버'
'▁theannta'
'▁свет'
'▁producer'
'ネイ'
'ていい'
'诵'
'▁ales'
'▁asianoma'
'▁dólares'
'▁Hasil'
'奮'
'シル'
'▁පියා'
'སྐུ་མདུན་ལུ་'
'▁रिक'
'▁كۈند'
'ჭირდება'
'akile'
'が最も'
'▁पारंपरिक'
'▁öld'
'之後'
'▁이유는'
'ੂਨ'
'▁പോകുന്ന'
'▁avions'
'▁raua'
'틸'
'▁どんな'
'؟؟؟؟'
'▁diñeiro'
'▁жилийн'
'運'
'뭄'
'▁abayi'
'onte'
'리니'
'▁Sov'
'▁gaminto'
'̀'
'▁tinapay'
'▁alada'
'бетте'
'▁ursprung'
'▁ampar'
'neğin'
'▁xivangelo'
'▁زانن'
'▁isn'
'▁Порту'
'▁mofsa'
'▁верно'
'▁200,'
'転'
'▁вода'
'ǝna'
'▁전도'
'▁असली'
'▁görün'
'▁조치'
'vert'
'▁svarbus'
'▁ၸဝ်ႈ'
'▁bawe'
'ออกจาก'
'▁아'
'▁últimas'
'▁යමක්'
'ግበ'
'כתי'
'▁ਬਣਾਉਣ'
'▁tekaka'
'▁अंगरेजी'
'hagam'
'▁swanelwa'
'▁sabem'
'▁Poukisa'
'▁Wi'
'imali'
'ẹrọ'
'▁kafir'
'▁टाइम'
'กระทํา'
'▁көлемі'
'▁Значит'
'▁निवेदन'
'དྲུང་དུ་'
'دای'
'▁ਸ਼ਾਮ'
'▁mfite'
'ನ್ಸ್'
'suɖuto'
'▁sehr'
'ържа'
'եգ'
'▁katere'
'▁прашање'
'▁mendapat'
'▁ನಿಂತ'
'▁Ayaw'
'▁serão'
'▁گونه'
'▁semangat'
'▁nithe'
'▁arnoch'
'gació'
'ντι'
'▁हुँ'
'ياني'
'▁ஜனாதிபதி'
'▁après'
'▁ҡото'
'щам'
'pam'
'▁kũmantha'
'▁jugador'
'НК'
'▁Mpangi'
'ئلي'
'ੇ'
'手で'
'▁شاء'
'fnod'
'▁luok'
'▁استرال'
'▁bättre'
'▁ilmoit'
'▁قىلغۇچىدۇر'
'нарга'
'ɔngɔ'
'▁dél'
'sham'
'▁jim'
'▁sejati'
'首脑'
'▁рәх'
'▁baucap'
'▁anigu'
'▁jabe'
'▁apabila'
'▁išlaikyti'
'▁त्यस'
'▁WEB'
'।"'
'!:'
'▁univerz'
'రో'
'ስታወ'
'▁फोटो'
'स्थ'
'lında'
'▁tanàna'
'▁artistes'
'ডেল'
'▁arrangement'
'▁Kazakh'
'▁ຈຶ່ງ'
'gane'
'▁လွှ'
'▁transm'
'▁razdob'
'▁Is'
'支持'
'ikirwa'
'סק'
'དད་'
'▁टन'
'▁thak'
'yizi'
'handle'
'▁fòrça'
'▁reikia'
'ország'
'ukulu'
'hatikiz'
'▁መንግስቲ'
'▁Yella'
'▁Sellest'
'cuje'
'▁technische'
'▁tump'
'▁whānau'
'بوونەوەی'
'▁leva'
'▁बोली'
'يرت'
'▁suoj'
'igration'
'▁libero'
'ومي'
'▁לענ'
'▁adulti'
'▁tele'
'▁손님'
'janja'
'▁inz'
'▁바보'
'を選択'
'mieni'
'anyin'
'Fu'
'▁quiero'
'▁blisko'
'ዎ'
'ামর্শ'
'▁시켰'
'▁ahe'
'▁fiaraha'
'▁नस्'
'▁mhac'
'ixo'
'▁Savukārt'
'▁officielle'
'▁sliš'
'▁profiad'
'▁pragtige'
'▁дослідження'
'发生'
'▁Каде'
'▁സന്ത'
'▁وەر'
'▁dintsi'
'itheann'
'▁scha'
'▁hononga'
'gül'
'맥'
'▁sorella'
'rem'
'▁никто'
'hält'
'▁জানা'
'▁hoge'
'▁തങ്ങളുടെ'
',9'
'alum'
'▁29;'
'ompo'
'եմ'
'onger'
'航空機'
'▁เ'
'▁COR'
'miktub'
'▁פלא'
'▁ceŋ'
'정은'
'▁께'
'▁tād'
'٬'
'▁খাবার'
'▁ଗଛ'
'dik'
'éieren'
'▁Sehl'
'눠'
'ຍິນ'
'▁neach'
'▁الغرفة'
'usup'
'▁hkra'
'alata'
'▁writer'
'एक्स'
'πή'
'▁laen'
'▁zvaig'
'▁vosotros'
'▁Ruth'
'▁Istanbul'
'買収'
'ithandiza'
'▁Biz'
'▁бөг'
'▁HARR'
'社群'
'▁söýg'
'▁nagawa'
'▁відно'
'▁உண்மைய'
'▁ಪ್ರತ'
'서를'
'gbọ'
'▁tš'
'гүү'
'▁Pela'
'▁തമ്മിൽ'
'ৃতি'
'aruhan'
'▁язма'
'่ว'
'▁aang'
'▁kenya'
'ازىر'
'▁ump'
'▁ebiri'
'▁Culture'
'▁بووم'
'▁මිනිසුන්'
'erdote'
'▁lebet'
'▁দাস'
'▁przyk'
'▁terjadi'
'19]'
'▁kõig'
'ossen'
'▁Che'
'▁макта'
'▁말은'
'▁ରାଷ୍ଟ୍ରପତି'
'▁štú'
'▁ಮಕ್ಕಳ'
'vetlen'
'ristiyan'
'▁5'
'▁Jésù'
'▁atis'
'▁conocida'
'xan'
'▁జా'
'følgelig'
'▁Možno'
'སྒར་'
'▁vyrov'
'یاست'
'шылары'
'୍ତ୍ତା'
'мыш'
'engie'
'▁زودتر'
'yuma'
'ণ্ট'
'💪'
'▁மாற்ற'
'顧客の'
'方は'
'▁direktiivin'
'▁panagbal'
'▁ಗುಂಪ'
'▁bụghị'
'▁moć'
'цан'
'▁perintah'
'▁иннова'
'тивните'
'▁Mittel'
'ന'
'ston'
'▁чего'
'dü'
'▁Syria'
'uvata'
'▁દરેક'
'하지'
'▁ನಾಲ್'
'▁összeg'
'▁שונה'
'chainn'
'▁installa'
'时'
'▁combien'
'tavat'
'▁1,5'
'▁ထုတ်လုပ်'
'▁frykt'
'▁ŝatus'
'▁gefähr'
'▁dhambi'
'▁купу'
'སློབ་'
'▁selet'
'nutých'
'▁وڃن'
'ئرسئنئز'
'▁cantidá'
'▁говорила'
'▁amta'
'zɩɣ'
'▁penyim'
'▁Хара'
'्ये'
'▁Harry'
'部門'
'wio'
'▁Lean'
'▁litsebi'
'uusa'
'শন'
'▁Ontan'
'▁ғ'
'▁jint'
'▁خۆمان'
'▁turno'
'▁natureza'
'▁დავი'
'▁järeld'
'▁mātou'
'▁spese'
'اید'
'빔'
'tios'
'▁ਉਪਲਬ'
'opp'
'▁মানুহে'
'▁нисә'
'方法で'
'îyan'
'▁ostalih'
'edať'
'ازت'
'▁mëdha'
'likni'
'위'
'▁zní'
'▁adjust'
'▁sigar'
'▁lim'
'▁аеро'
'▁propesyonal'
'▁ynghylch'
'▁আঁচ'
'▁hapa'
'▁zí'
'▁դրանց'
'▁ଅବସ୍ଥା'
'▁탈출'
'▁kuyi'
'▁tarpeen'
'▁fasi'
'▁kulom'
'▁druhé'
'▁બસ'
'▁אוהב'
'lulu'
'▁dexa'
'▁available'
'▁دەتوانن'
'▁noppi'
'▁kö'
'asie'
':\u2060'
'▁дәвамында'
'▁ཨི་ཇིབ་'
'did'
'▁Hili'
'▁antis'
'▁lel'
'▁pój'
'▁Pamo'
'ಗಾರ'
'ۓ'
'▁illər'
'▁ahantu'
'寓'
'אר'
'masligi'
'स'
'ಚಾರ'
'의를'
'▁இதனால்'
'▁jegy'
'▁mempercaya'
'▁ಅದು'
'дия'
'▁Аллаһыны'
'imeny'
'▁обы'
'▁elements'
'盲'
'ាទី'
'▁nwaanyị'
'してます'
'አል'
'Б'
'▁gjashtë'
'▁<<'
'肉体'
'▁चुनौती'
'▁nessuna'
'enar'
'▁순간에'
'idean'
'▁peh'
'▁대한민'
'▁ᱴ'
'▁ਮੁਤਾਬ'
'▁ជិត'
'▁teste'
'▁avulumwine'
'沌'
'μο'
'amazdan'
'▁sonra'
'▁chum'
'ด้วย'
'▁ཁྱོད་ཅག་གིས་'
'dara'
'▁mutuwar'
'▁vrsto'
'ungwe'
'▁Saya'
'▁mjini'
'▁زود'
'▁தங்கள'
'▁계획을'
'ekue'
'інші'
'▁Donald'
'▁contribu'
'▁קשה'
'以色列'
'hathan'
'вери'
'▁हूँ'
'▁በዓ'
'ཅག་'
'▁кызматта'
'ikhundleni'
'▁ɲi'
'ストレス'
'▁nuus'
'▁choisi'
'▁bé'
'piga'
'証'
'恶'
'▁වීම'
'▁азыркы'
'vær'
'▁структури'
'야'
'▁menyokong'
'▁Guarani'
'▁[15'
'by'
'▁gburugburu'
'▁reconhe'
'▁күренеш'
'який'
'▁uñjas'
'annte'
'▁اڪثر'
'▁ზედა'
'▁Direct'
'▁Intaneti'
'▁இழ'
'Home'
'رسی'
'防御'
'▁अनन्त'
'▁siko'
'phá'
'▁время'
'ルール'
'▁internacionales'
'▁mabundu'
'▁কারণ'
'ėg'
'▁достатъчно'
'▁circum'
'▁chceme'
'اوان'
'▁emihle'
'▁жума'
'fund'
'▁jihnyan'
'▁ошо'
'▁única'
'enang'
'▁ਉਦਾਹਰ'
'▁Fri'
'▁qartë'
'▁maysa'
'▁аер'
'▁당신에게'
'▁banu'
'▁ወሳ'
'времени'
'▁personaxe'
'काले'
'mhu'
'▁Máa'
'ומית'
'atikan'
'▁одмор'
'▁Pilot'
'तन'
'▁sĩ'
'▁სიტ'
'▁Scient'
'▁Yhdysvaltain'
'▁Youtube'
'org'
'▁ვი'
'jenje'
'▁چاہی'
'▁emb'
'▁eraill'
'▁하나가'
'ंदन'
'▁سۈپ'
'▁အလို'
'dom'
'▁atten'
'▁চান'
'igde'
'න්ත'
'▁ئاشك'
'▁тіркелген'
'▁Sido'
'▁diýse'
'▁bwonna'
'▁വ്യാപ'
'▁ө'
'이며'
'▁Мени'
'▁ಮೆ'
'▁ah'
'▁ծ'
'▁twi'
'▁răsp'
'▁যাব'
'ziwe'
'▁ಅನುಮತ'
'şem'
'খ্যা'
'▁Libro'
'▁θέλετε'
'ⵢ'
'▁розмі'
'に入った'
'▁अनेकदा'
'▁연설'
'▁derecha'
'▁depends'
'virkninger'
'▁degi'
'▁અધિકાર'
'▁соат'
'سوس'
'lilanga'
'▁malie'
'▁తర'
'確実に'
'▁Abrahamu'
'atila'
'▁editor'
'▁cái'
'▁Ebigambo'
'▁ettim'
'表現'
'▁yah'
'ែក'
'▁reikalavimus'
'▁chlo'
'یرت'
'υχ'
'▁зов'
'▁santi'
'▁Sanırım'
'yumvira'
'used'
'▁געז'
'▁ngachi'
'tob'
'▁fondamenta'
'ري'
'სახ'
'神さま'
'▁ओम'
'▁енергети'
'▁افر'
'▁Timothy'
'▁faster'
'▁game'
'▁cuida'
'▁xan'
'emyaka'
'▁irraa'
'▁kikin'
'ispeċi'
'▁fyddwn'
'▁gushaka'
'▁Flor'
'▁자'
'▁गरिरहेको'
'parịta'
'▁Glenn'
'▁крви'
'мери'
'▁സന്തോഷ'
'▁glè'
'▁무의'
'▁ARGLWYDD'
'▁forplik'
'▁جهت'
'èrcit'
'▁bhe'
'🌸'
'▁finanziario'
'▁Timo'
'▁ybad'
'diversi'
'▁सित'
'▁iarratas'
'wereza'
'▁Prova'
'fä'
'▁કિસ્સા'
'іну'
'Unë'
'▁лучше'
'▁kalibotan'
'благо'
'▁روس'
'pelaki'
'هنگ'
'fanek'
'gör'
'▁אדער'
'ំងឺ'
'▁مرور'
'▁thói'
'▁clár'
'해를'
'ustin'
'▁Tika'
'▁Perhyangan'
'▁conquist'
'▁zargin'
'ဦး'
'ജന'
'▁Kutani'
'エネルギーの'
'と同様に'
'indua'
'omag'
'▁কৰিলে'
'▁37)'
'▁beha'
'▁Luft'
'སྟོནམ་'
'▁panggung'
'▁Держа'
'تىدىن'
'▁ավել'
'ວັນທີ'
'▁stos'
'▁sábà'
'▁방해'
'▁specifi'
'▁essa'
'▁Rusiye'
'▁chù'
'erser'
'▁timbang'
'sium'
'▁afisi'
'▁suidheachadh'
'▁അവന'
'▁আবেদন'
'moya'
'▁سىزنى'
'돌'
'▁необхідні'
'びと'
'kañ'
'▁tesis'
'▁मि'
'▁Vorrei'
'úlacht'
'▁kwesikhatsi'
'▁جاذبه'
'▁одоб'
'▁পারে'
'▁kaming'
'▁अइसेन'
'▁జరిగింది'
'▁jise'
'▁llaqta'
'书'
'▁ئوتتۇ'
'▁keret'
'▁apel'
'▁metse'
'▁ဘာမှ'
'བསྟུན་'
'ಗ್'
'ණන්'
'๊ะ'
'▁bleiben'
'مادي'
'embekile'
'▁хво'
'རྒྱན་'
'▁ਘੱਟ'
'Γ'
'abandon'
'VAT'
'▁laaj'
'▁aerop'
'гий'
'▁yira'
'▁Элек'
'▁jawatan'
'▁Khat'
'▁шаруа'
'▁nena'
'▁зову'
'▁বলেছিলেন'
'olog'
'▁توج'
'▁פינ'
'ⵡⴰⵙ'
'▁дав'
'▁vic'
'umɔ'
'▁mud'
'ayku'
'▁lies'
'zes'
'▁дер'
'▁ِ'
'しまいます'
'▁Guk'
'▁Tenho'
'ปรา'
'▁Sekali'
'▁Artic'
'▁Kosova'
'▁जसको'
'irt'
'▁ladegi'
'མོད།'
'▁ንኽእል'
'▁centre'
'▁የነ'
'▁Arung'
'わたる'
'▁заме'
'kpụrụ'
'▁הצע'
'▁kitchen'
'दर्भ'
'▁leverer'
'usaale'
'inywa'
'wililika'
'に至'
'▁განაცხადა'
'▁Иль'
'▁gabatar'
'▁আছিল'
'▁helpu'
'ၵူၺ်း'
'ETY'
'▁harrap'
'▁ҡуй'
'▁bask'
'▁allà'
'▁Inga'
'▁نېمەت'
'volusi'
'▁కంట'
'협'
'▁såsom'
'ටත්'
'дор'
'▁fandra'
'otar'
'onika'
'chion'
'▁міндетте'
'▁Beh'
'▁dituku'
'▁библи'
'▁ezu'
'▁fikir'
'▁processos'
'▁kgonthišetša'
'▁Tod'
'▁poslal'
'▁સાથી'
'mark'
'újt'
'▁jääb'
'▁trano'
'▁случи'
'▁inclou'
'▁besoala'
'▁အစ'
'▁керек'
'▁Jakoba'
'▁kgole'
'▁айырма'
'▁Μά'
'曲'
'▁müda'
'ལེན་མི་'
'umel'
'▁Aon'
'▁jiné'
'▁గమని'
'▁Pel'
'achd'
'htum'
'▁ད་'
'▁తేదీ'
'▁āhuatanga'
'彈'
'ってくれ'
'▁inas'
'ətli'
'▁Daa'
'jir'
'▁sumaj'
'からです'
'▁ү'
'▁jopuonjrene'
'▁оцени'
'▁வே'
'upart'
'▁फसल'
'▁मुस्लिम'
'▁ਹਾਸ'
'▁ಗುರುತ'
'μός'
'wiska'
'▁အသုံးပြု'
'何かが'
'▁ngula'
'▁Şeh'
'▁libra'
'ژەی'
'клад'
'త్యం'
'öz'
'MC'
'ၵ်ႇတင်း'
'▁İngiliz'
'arious'
'更多'
'ungguh'
'anned'
'баган'
'▁nusrɔ'
'▁محلی'
'▁amino'
'ေၾကာင့္'
'huba'
'▁ڕانه'
'ကျ'
'лев'
'▁gung'
'▁نظم'
'▁anap'
'▁ketemu'
'▁اخ'
'▁느낄'
'▁Yebo'
'лює'
'▁vermind'
'▁darbība'
'だけだ'
'मर्श'
'Psalme'
'弁護'
'▁Не'
'▁generali'
'νοί'
'▁इसे'
'▁മുൻ'
'▁করে'
'▁sye'
'▁ನಡೆಸ'
'▁Thứ'
'▁Pono'
'▁Іра'
'iper'
'▁destin'
'▁առեւ'
'мих'
'▁melalui'
'大型'
'▁रि'
'▁įvairių'
'чүл'
'▁tuhu'
'▁Mozalisi'
'▁অৰ্'
'▁Bugungi'
'▁chii'
'쏴'
'IG'
'rega'
'▁동물을'
'ப்பட்டு'
'ute'
'▁ගො'
'ার'
'ใหญ่'
'▁Sida'
'▁análise'
'បែបនេះ'
'▁하이'
'лят'
'ositolo'
'▁kelen'
'ຂອງການ'
'▁priekšsēdētājs'
'▁medarbejdere'
'ila'
'मुळे'
'▁הן'
'ྣང་'
'▁մէջ'
'▁Donn'
'ជាង'
'▁žinias'
'လော့။'
'ຄູ່'
'▁Komisie'
'▁1954.'
'нието'
'▁новите'
'▁բաժան'
'dessus'
'▁alsmede'
'▁соответству'
'▁mabuhi'
'▁البل'
'ทิ'
'▁kanca'
'执'
'▁dau'
'▁дода'
'▁যেন'
'▁بازار'
'▁ενεργ'
'▁operadores'
'ችልም'
'▁tø'
'ებლის'
'etet'
'▁Keduanya'
'▁pavyzdžiui'
'AB'
'▁आनन्द'
'▁않'
'ナショナル'
'▁ਵ'
'πά'
'▁Sua'
'▁edellä'
'▁아이들이'
'▁भएर'
'▁עוב'
'▁hendenan'
'▁Maris'
'▁zvakaitika'
'▁nĩtwa'
'ilweni'
'▁πόλη'
'mek'
'▁údaje'
'дил'
'ەندرو'
'▁بويورور'
'រសេរ'
'▁دیگری'
'▁راضي'
'▁hunga'
'▁feet'
'wivwengaho'
'後に'
'▁kyawun'
'▁rozhodnutia'
'▁쳐'
'▁વર્ષમાં'
'を負'
'ihu'
'▁phei'
'▁оглед'
'vajte'
'▁Hàng'
'▁пръ'
'▁번역'
'ヒト'
'▁principiu'
'utat'
'▁требо'
'▁wykorzy'
'▁šele'
'▁kwanak'
'▁ಟೈ'
'▁šīs'
'▁življenju'
'כך'
'▁udh'
'▁ingeni'
'▁läm'
'▁2030'
'dok'
'▁Moyo'
'▁určit'
'▁nhyɛ'
'ন্দে'
'hipa'
'▁смерти'
'ப்புற'
'▁Nội'
'▁Hej'
'▁certifik'
'vara'
'▁shine'
'▁nancje'
'▁ness'
'▁ప్ర'
'▁צריכה'
'orme'
'▁AW'
'▁краси'
'▁ਸੰਬੰਧ'
'▁بنایا'
'ceku'
'▁punti'
'▁ਲਗਦਾ'
'▁аяқта'
'▁Tuesday'
'liant'
'သလဲ။'
'レベーター'
'▁aree'
'ẽ'
'▁پوشش'
'▁Royaume'
'weska'
'itše'
'▁muungano'
'▁ആദ്യമായി'
'ياد'
'▁xéneru'
'▁sehlahisoa'
'▁neud'
'▁রাখার'
'▁omombe'
'▁పు'
'zmat'
'ashinzwe'
'ڭلارنى'
'▁транспорт'
'tsett'
'▁боломжгүй'
'enice'
'▁ũndũ'
'▁않는다고'
'▁காய'
'▁celi'
'나요'
'▁җавап'
'ତାର'
'▁tayoy'
'▁நாட்கள்'
'▁söýgi'
'▁1942'
'独立した'
'եցինք'
'팽'
'hob'
'▁спече'
'▁قبلا'
'lishi'
'▁доколку'
'ビジネスを'
'ütfen'
'▁Сырт'
'▁treballar'
'▁ଚୁ'
'▁дәлил'
'▁3:10'
'Nos'
'▁budak'
'funzi'
'uëk'
'▁mogħtija'
'гэр'
'▁revolution'
'▁ievēroj'
'▁breise'
'▁море'
'▁होयत'
'▁الام'
'ເດັກນ້ອຍ'
'larla'
'icɛ'
'の人生を'
'álà'
'▁emandla'
'▁ثروت'
'▁стану'
'čkoj'
'▁beskytt'
'ysta'
'▁ବିଦ'
'▁смер'
'tɔɔ'
'ători'
'▁मेह'
'sile'
'ytépe'
'▁관용'
'▁Zweck'
'ntfwana'
'▁لديهم'
'tuĩka'
'▁ახალ'
'▁ಅಧಿಕಾರಿ'
'▁kemudahan'
'▁Saina'
'▁jâ'
'▁大'
'▁juróom'
'oun'
'▁Ali'
'▁srednje'
'▁Boli'
'பாடு'
'吉'
'▁tsy'
'▁ndzhaka'
'텍'
'!!"'
'▁πρόβλημα'
'▁кыйынчылык'
'一日'
'▁месте'
'ないように'
'lwe'
'▁Ł'
'▁ĝ'
'▁diskrimina'
'▁fiyat'
'ระหว่าง'
'forsik'
'hekayo'
'▁විදියට'
'▁pʋgẽ'
'▁ọkụ'
'opiwa'
'▁scheint'
'▁deitu'
'創作'
'qirha'
'▁muyeres'
'umv'
'jahan'
'éi'
'訟'
'款'
'▁inferiore'
'տր'
'nené'
'▁bërë'
'ייַט'
'▁mifanaraka'
'▁ફિલ્'
'ıklarını'
'▁измени'
'ତ୍ତି'
'▁لائے'
'ónìí'
'▁மாற'
'▁domaines'
'▁کلاسیک'
'চ'
'▁undertak'
'당'
'▁ଜ'
'▁ידעתי'
'▁сани'
'▁lät'
'▁szór'
'čanje'
'▁кедер'
'рала'
'▁pj'
'▁dijel'
'▁قار'
'▁מכו'
'▁Ошондуктан'
'▁ddydd'
'▁agtur'
'ෙහි'
'▁упозна'
'པའ'
'▁özi'
'していますか'
'▁بکەن'
'▁ddim'
'クラス'
'oral'
'▁достатъ'
'anyina'
'틱'
'▁ratusan'
'▁تۇرۇپ'
'▁توانم'
'入れる'
'▁ziak'
'onera'
'▁besteht'
'▁Iba'
'szl_Latn'
'▁సంబంధించిన'
'asajja'
'зыр'
'▁آند'
'▁முய'
'▁maksima'
'▁གང་ལ་'
'▁qat'
'egeven'
'▁नवा'
'▁reserve'
'LAH'
'▁jijak'
'Við'
'▁23:3'
'▁भोज'
'▁nyimpi'
'قە'
'mei'
'▁raya'
'▁fuera'
'▁mame'
'▁wale'
'▁lod'
'▁мәлім'
'▁65.'
'чують'
'▁kewanten'
'▁सिफार'
'▁täht'
'▁ئىدى'
'geha'
'inike'
'▁Sý'
'▁וד'
'▁partido'
'▁пайдалана'
'▁Glob'
'▁Еңбек'
'▁nenni'
'▁সাফল'
'▁želi'
'▁Sard'
'▁보였다'
'коло'
'လိုက္'
'▁ماشومان'
'ፎች'
'▁koma'
'ནུག་'
'▁결과가'
'▁סיי'
'那里'
'脂肪'
'▁লোয়ননা'
'Lk'
'zīst'
'▁Chaywanpis'
'▁ամբ'
'▁ніж'
'▁liek'
'▁ਜੇਕਰ'
'▁ସମ୍ଭବ'
'▁biż'
'漂'
'челек'
'▁ngandika'
'▁semester'
'▁vrienden'
'▁града'
'▁yipada'
'▁അറിയില്ല'
'▁tijdens'
'უბ'
'▁ári'
'▁beter'
'▁maksa'
'бұдан'
'▁tẽla'
'chuß'
'Nǔ'
'▁존재를'
'▁Vsi'
'గ్గా'
'▁Favor'
'▁rang'
'џе'
'cope'
'қыш'
'▁Мухәммәд'
'▁nyuitɔ'
'rechte'
'ؑ'
'▁Bakeresete'
'หยุด'
'oveď'
'▁frei'
'▁cảnh'
'▁جيڪو'
'jącym'
'▁คือ'
'▁diê'
'atlar'
'▁противо'
'▁ກາຍ'
'ኩ'
'cour'
'▁Ūú'
'▁азат'
'▁tie'
'▁coneguda'
'▁ntoma'
'▁Vanhu'
'áan'
'ဝိ'
'ħda'
'生み'
'kehr'
'▁marapo'
'rég'
'▁사실'
'▁εσένα'
'▁classic'
'ⴷⵉⵏ'
'▁ffrind'
'ツアー'
'▁aferoj'
'▁5:12.'
'▁batsh'
'予測'
'▁paní'
'▁drugom'
'ନ୍ଦ'
'▁mintlawa'
'▁मुंह'
'▁കാല'
'▁fransk'
'▁친절'
'ased'
'การ'
'тынды'
'▁handlingar'
'▁standard'
'ལཱ་'
'▁소요'
'▁Rac'
'žiūrėti'
'▁Unol'
'▁ኣደ'
'▁tradisional'
'vano'
'▁output'
'དེབ་'
'▁creare'
'дыктан'
'▁신은'
'ેર'
'▁αγαπά'
'ົງ'
'ğmen'
'▁Diosat'
'ຊອກ'
'▁Seguridad'
'ээр'
'▁فين'
'inted'
'▁హృద'
'மூ'
'▁sinto'
'▁результа'
'▁ก'
'▁Zawsze'
'ৰ্ভত'
'▁shengatsi'
'▁funk'
'yorsunuz'
'▁κλεί'
'▁kapaicayang'
'▁أكن'
'▁پێد'
'▁verl'
'衛生'
'တာကတော့'
'▁ཁྱེད་ཀྱི་'
'を変え'
'စက်'
'▁gold'
'▁kugirango'
'▁iespēj'
'▁militer'
'dést'
'▁zamis'
'φαλ'
'징'
'▁में'
'▁స్థానిక'
'ັບສະຫນູນ'
'手'
'▁Primera'
'▁ניי'
'▁efectu'
'▁glei'
'▁يالغۇز'
'▁coûts'
'繋'
'དེ་ཚོར་'
'arp'
'വിശേഷ'
'hlen'
'tayo'
'deel'
'▁यसो'
'▁២០១'
'릭'
'▁fakkaatu'
'▁ölç'
'olds'
'▁meil'
'▁Դուք'
'▁ಗುರು'
'▁دەلى'
'▁Sora'
'ଙ୍ଗା'
'уште'
'▁loyo'
'Ќ'
'ireach'
'▁cấu'
'▁सक्दैन'
'▁problēmas'
'▁Ekug'
'నుక'
'masiḥ'
'agetsi'
'▁lainlaing'
'❚'
'▁umuti'
'▁pačios'
'ittex'
'▁ভয়'
'▁irad'
'▁ଔ'
'▁हेर्नु'
'ٱل'
'▁cuarto'
'▁навистина'
'psi'
'▁கதை'
'▁يوسئف'
'▁zár'
'▁gishobora'
'▁Jehovas'
'гэ'
'▁procedūru'
'構成'
'▁ahua'
'isco'
'▁сказать'
'▁dòng'
'▁ग्रामीण'
'▁दोहरा'
'▁oco'
'▁איפה'
'▁maždaug'
'▁likaYehova'
'▁wutar'
'ldar'
'▁zǐ'
'▁enfer'
'▁απαιτήσεις'
'▁रहन'
'식은'
'▁སྔར་'
'▁sebab'
'शल'
'▁توق'
'▁ról'
'▁වත්'
'▁φύγω'
'ljivi'
'▁wajar'
'▁уси'
'urio'
'▁ekom'
'▁inmedi'
'▁פלי'
'▁дисципли'
'నప్పుడు'
'ŵ'
'▁wlas'
'འདིའི་'
'▁भारत'
'▁számítóg'
'▁खाय'
'▁гәзите'
'▁ווא'
'▁Own'
'▁년'
'ڵە'
'建筑'
'함과'
'▁pert'
'▁ampak'
'▁yellã'
'▁geupeujeuet'
'ᱢᱤ'
'litse'
'▁spēku'
'▁kubak'
'▁banarnih'
'▁LAS'
'gher'
'事例'
'ተኛታት'
'날'
'▁milyong'
'▁Tasol'
'▁balu'
'▁рост'
'▁૧'
'▁gyfar'
'负责'
'▁एस'
'▁talagsa'
'▁disponib'
'▁ಗುಣ'
'藻'
'▁Dita'
'▁икада'
'▁ubwenzi'
'▁온라인'
'▁ɛyɛ'
'▁категори'
'▁buhlobo'
'▁ເຫັນ'
'▁kapacit'
'zats'
'▁fort'
'▁taz'
'▁intri'
'▁わたしたちは'
'ет'
'▁समुद्र'
'▁আপনাকে'
'▁هەب'
'▁szöv'
'▁жәр'
'▁nakuha'
'▁bizning'
'▁olukord'
'▁deť'
'ቡብ'
'衝'
'▁quiz'
'▁କେତେ'
'ливи'
'▁ዶ'
'▁꾸준'
'▁موفق'
'idá'
'▁ការងារ'
'irire'
'▁gehouden'
'hawm'
'▁Аж'
'▁purt'
'ogile'
'▁explain'
'▁keada'
'▁Շատ'
'υνα'
'લાઈ'
'▁વ્યાવસાય'
'▁ഒഴ'
'▁lalake'
'▁Сонда'
'▁lampu'
'▁роках'
'▁Paras'
'▁iindawo'
'▁cus'
'▁자유를'
'▁pindisa'
'▁Bada'
'▁idzie'
'▁σή'
'▁Lâkin'
'▁gjys'
'▁huhuteriweke'
'ະນັກງານ'
'▁بود'
'▁vết'
'▁sani'
'▁nsimu'
'nyan'
'▁masti'
'店'
'다니'
'▁தன'
'▁благосло'
'▁закла'
'▁paž'
'ວີ'
'▁mondo'
'ต่าง'
'▁ndali'
'וסיה'
'▁पूर'
'▁kkkkkkkkkk'
'▁comune'
'ereho'
'▁árt'
'▁아일랜드'
'▁아니라'
'▁मागे'
'zīt'
'okesha'
'venzjoni'
'▁параграф'
'fo'
'▁besa'
'ಿಕ'
'▁medlemsstaterne'
'▁voaf'
'▁Ape'
'يىن'
'▁Vill'
'有的'
'暂'
'iru'
'▁luas'
'▁color'
'▁ଭ'
'erske'
'wende'
'▁Pierɛ'
'retning'
'ድራ'
'សោះ'
'▁yesi'
'sies'
'▁janira'
'▁neskôr'
'б'
'▁kogem'
'▁hpang'
'mana'
'▁እንዴ'
'Ĝ'
'▁짓'
'▁împotriva'
'▁పాల'
'▁нече'
'▁ይሄ'
'▁그러자'
'▁үзгәр'
'▁rodza'
'erti'
'гӣ'
'ຕ'
'tela'
'시다'
'▁Eisini'
'ង់ចាំ'
'ていて'
'▁Comunità'
'▁ġe'
'olyan'
'▁wɔnam'
'▁rå'
'▁बनाएं'
'▁професи'
'받은'
'▁Сер'
'ңне'
'Ни'
'cional'
'▁touch'
'▁تنق'
'▁ହୁଅ'
'▁Islamic'
'▁দিব'
'▁bhangele'
'pui'
'યર'
'тарды'
'▁iphone'
'zare'
'▁gg'
'어도'
'लू'
'▁esetek'
'w'
'▁коруп'
'▁19:2'
'లవ'
'▁credit'
'▁포기'
'▁Quick'
'▁Uda'
'OLE'
'▁erm'
'jskega'
'htu'
'hukom'
'блі'
'▁lomani'
'▁ସମାନ'
'▁ukul'
'ក្រុមហ៊ុន'
'сығыш'
'ġix'
'▁någon'
'▁Myit'
'▁സമാ'
'kura'
'ālijas'
'▁ফেল'
'isiti'
'▁अहैं'
'▁Hversu'
'築'
'Caa'
'keleng'
'▁koin'
'▁빌'
'▁ಕಂಡ'
'xogħol'
'▁indem'
'▁crec'
'σι'
'kejì'
'ဗျာ'
'lizmus'
'ingkatkan'
'7'
'▁अने'
'▁mbele'
'▁kulemba'
'▁Бында'
'▁probable'
'▁کارو'
'▁teie'
'▁maladie'
'▁Gymraeg'
'▁Республикаһы'
'▁თქვენ'
'▁қойылған'
'▁ուսան'
'িবলৈ'
'ግባእ'
'▁לעצמ'
'umana'
'íocht'
'பு'
'बेल'
'▁Yvy'
'▁vostres'
'これまで'
'тното'
'▁prover'
'▁afgørende'
'Nab'
'▁ликви'
'fesa'
'▁Aunque'
'▁Tukuy'
'▁tarimai'
'സൂ'
'▁を'
'▁iai'
'▁layi'
'درێت'
'▁Okto'
'▁Aklĩsto'
'▁hisset'
'▁valamint'
'▁онзи'
'菜'
'▁tuy'
'▁sòrò'
'▁čemu'
'▁защита'
'▁засто'
'▁จํา'
'کئن'
'▁보세요'
'▁coinníollacha'
'küm'
'▁nkiri'
'▁etme'
'ለም።'
'ホーム'
'▁өм'
'▁tiesību'
'▁кәсіби'
'නෝ'
'ோ'
'▁mashina'
'ລກ'
'▁plast'
'▁Lalu'
'▁ড্র'
'rà'
'EN'
'▁Tey'
'殿'
'ญิง'
'لیف'
'▁næste'
'▁అంది'
'▁iekš'
'▁환자'
'▁wak'
'▁vyhod'
'ृत्व'
'▁matagal'
'ောက်'
'▁lalikulu'
'colta'
'▁آ'
'▁agbára'
'беси'
'▁аркылуу'
',15'
'▁adj'
'ũt'
'▁bliana'
'▁"5'
'okeng'
'薬物'
'लिन'
'▁boshqalar'
'養'
'▁buni'
'▁گشتی'
'▁ũth'
'▁בעולם'
'▁24:3,'
'▁Habari'
'▁પરિવર્'
'▁одмах'
'▁தன்னை'
'▁শিক্ষক'
'▁Pennsyl'
'▁никогаш'
'▁Kuy'
'elserne'
'▁তথ্য'
'▁کھڑے'
'▁باشلاپ'
'ekka'
'のおかげで'
'▁συστήματος'
'ткер'
'སློབ་དཔོན་'
'laust'
'baro'
'量子'
'ктерге'
'▁ubumwe'
'ოს'
'▁vážne'
'hatid'
'يرام'
'▁країна'
'▁Ngar'
'中略'
'▁sesso'
'▁étab'
'▁အရ'
'▁hehehe'
'zeke'
'็ค'
'▁ਮਤਲਬ'
'луі'
'▁àní'
'▁세상에'
'▁먹지'
'▁Yïn'
'▁برخی'
'▁११'
'▁Kü'
'▁")'
'กับคุณ'
'▁কিছুই'
'▁পড়ুন'
'ເອົາ'
'▁vaix'
'▁بالم'
'▁Ral'
'▁kwanan'
'▁yokuqala'
'pahan'
'सान'
'▁ikad'
'ستە'
'▁videnska'
'▁Jerusal'
'▁ezil'
'▁қыс'
'▁Saud'
'污'
'▁sax'
'▁rith'
'ۆڤ'
'naɣ'
'▁igoa'
'agno'
'lait'
'▁šeimos'
'▁реформа'
'▁नैतिक'
'ಿಗಳ'
'▁ataskait'
'▁ташта'
'▁përdit'
'▁samma'
'asg'
'▁እየተ'
'▁οποί'
'▁daghang'
'ljali'
'arayku'
'▁새로'
'婆'
'▁კვი'
'ering'
'▁апостол'
'istere'
'▁हिन्दू'
'▁Ekonom'
'ંતર'
'▁쓰러'
'▁ਵਾਧਾ'
'▁фази'
'▁spó'
'▁어떤'
'▁strate'
'løse'
'▁foreign'
'হার'
'▁такъв'
'▁درد'
'▁nebezpeč'
'vanie'
'▁juego'
'▁30)'
'するに'
'▁Kĩu'
'▁Zieme'
'▁ئاو'
'▁wre'
'♥'
'▁францу'
'不再'
'明る'
'▁دیجئے'
'▁세계의'
'▁Keng'
'▁ìb'
'▁الأقل'
'▁επει'
'▁գնալ'
'▁ब्लैक'
'▁elimina'
'▁abrigo'
'kamaw'
'▁Papa'
'borot'
'▁täytäntöön'
'▁פאָר'
'▁fært'
'goši'
'▁ancjemò'
'▁ան'
'▁säger'
'▁bħal'
'▁κάποιο'
'▁ihres'
'okazi'
'tejn'
'▁контра'
'ammont'
'▁એન્ડ'
'يسر'
'ነዚህ'
'ລັດຖະມົນຕີ'
'広'
'▁607'
'▁mangiare'
'▁evelia'
'▁project'
'▁Kulo'
'೦'
'▁fores'
'▁tarvitse'
'▁ከመይ'
'▁fular'
'▁qoray'
'▁مهندسی'
'▁kawoe'
'▁አስታው'
'အမှု'
'▁halal'
'▁jälkeen'
'ava'
'▁Če'
'opay'
'akor'
'▁шумо'
'▁tirohanga'
'『'
'િન'
'སྐར་'
'▁بۇلار'
'ម្បី'
'▁tanya'
'▁싸우는'
'▁fate'
'▁απει'
'Sir'
'ingis'
'andela'
'▁salaka'
'▁kusolula'
'▁industr'
'치고'
'▁çend'
'▁ukunga'
'▁serliga'
'pubblikazzjoni'
'▁juos'
'残りの'
'▁शोक'
'▁viata'
'▁vorbi'
'▁datas'
'eric'
'▁Savuli'
'▁مسئل'
'ibhalo'
'一些'
'▁نوح'
'▁ẹranko'
'▁slu'
'onyereza'
'▁yenyi'
'▁tsundzu'
'▁सौ'
'▁wose'
'▁የተባ'
'▁връзка'
'▁Ministerio'
'の変化'
'▁mye'
'ນະ'
'▁wathu'
'▁परम्परा'
'198'
'шендә'
'▁16).'
'▁кур'
'དེ་ལུ་'
'▁그분'
'ble'
'▁납'
'▁ನೌ'
'▁ఇంగ్'
'▁Bethel'
'▁kommet'
'▁تعتقد'
'▁jiska'
'▁беруш'
'▁చెప్పింది'
'▁Maggie'
'▁koms'
'▁འ་ནི་འདི་'
'▁보면'
'▁tokios'
'▁akpengba'
'शिष्ट'
'▁signat'
'▁Санкт'
'ustus'
'以内に'
'▁رهيا'
'▁saense'
'▁укључујући'
'erz'
'▁peix'
'inton'
'መጥ'
'▁injek'
'▁hesap'
'▁sedikit'
'▁paradise'
'▁jirta'
'▁kraja'
'▁ställ'
'▁ప్రతి'
'▁entzun'
'blygu'
'▁Писа'
'فاء'
'Գ'
'▁Firma'
'ēta'
'ţiei'
'दर्श'
'▁башы'
'▁не'
'▁preced'
'కుని'
'▁kaluihan'
'წონს'
'▁આગામી'
'▁Atlantic'
'▁54'
'▁ngema'
'▁antchito'
'elder'
'▁他の'
'▁ஹ'
'▁పరిస్థి'
'▁pfuxiwa'
'▁පුළුවන්'
'▁विगत'
'▁يبدو'
'▁frel'
'▁男性'
'ಖ್ಯ'
'▁зі'
'▁bny'
'शील'
'lakaw'
'▁nevi'
'▁acceso'
'▁місяців'
'▁ፕሮ'
'alina'
'▁fawr'
'apa'
'拼'
'▁خوایه'
'opter'
'▁maano'
'▁ख्रि'
'▁sori'
'▁Mere'
'eval'
'жень'
'▁.......'
'▁si'
'▁najj'
'▁गलती'
'▁yase'
'▁director'
'tok'
'▁განსაკუთრ'
'▁américa'
'uranga'
'ή'
'쌌'
'샵'
'▁Opa'
'▁kasvu'
'▁mung'
'▁alkoho'
'▁kovitangi'
'▁тату'
'妻子'
'ልቁ'
'▁gũkorũo'
'互'
'圭'
'▁paleng'
'▁वायु'
'▁ودا'
'▁نەو'
'▁nasies'
'annan'
'▁kadtong'
'▁magna'
'▁kallo'
'▁parë'
'ρυ'
'▁whakauru'
'▁umaga'
'▁johtaa'
'他'
'▁endlini'
'▁توخت'
'▁majoria'
'▁خال'
'pamusoro'
'▁maboko'
'▁cafodd'
'▁Ngetulu'
'▁aprīlī'
'▁ብዛዕባ'
'▁tân'
'▁owete'
'wendig'
'нарның'
'▁nsọ'
'ण्या'
'úla'
'▁disciplin'
'▁nemu'
'▁billig'
'izzazzjoni'
'▁ós'
'▁Web'
'▁vies'
'hanol'
'▁šest'
'වම'
'ets'
'ására'
'▁Februari'
'▁samman'
'混乱'
'▁Ace'
'▁مرحبا'
'ំពោះ'
'▁לעתים'
'▁билбей'
'▁நிகழ்'
'▁Reach'
'▁tongana'
'▁jila'
'wago'
'▁áit'
'গুম'
'ನಿರ್'
'вой'
'▁použitie'
'bihin'
'▁அன்ப'
'▁ହ୍ରାସ'
'Смех'
'구가'
'▁ደስተኛ'
'▁تۇرى'
'▁مناط'
'іс'
'▁тай'
'▁promjene'
'ർന്ന'
'▁اسٽ'
'ガイド'
'▁kose'
'▁میهره'
'を実行'
'▁kuívua'
'વાદી'
'▁intelligente'
'▁Mako'
'▁समू'
'wemu'
'▁કરવાની'
'▁بىل'
'▁imt'
'▁japplika'
'▁tae'
'▁이끌'
'▁떠올'
'▁дө'
'loten'
'ってくる'
'▁προστα'
'▁ଥାଏ'
'▁yīn'
'いなる'
'▁owesifazane'
'▁xem'
'▁ŋkekea'
'▁amũ'
'▁laghdú'
'ләренә'
'▁entènasyonal'
'▁بعد'
'▁Ҳам'
'▁ọwó'
'ใบ'
'▁genel'
'▁მაგ'
'▁некаторы'
'λις'
'▁ನಡೆದ'
'▁Icel'
'Ny'
'▁ንዘለ'
'▁odôvod'
'▁kekek'
'ttes'
'▁ଚିହ୍ନ'
'▁masangá'
'▁tyk'
'▁ከወ'
'▁kantri'
'ribh'
'ilapan'
'fyl'
'शं'
'罢'
'فل'
'▁گیر'
'活発'
'livosti'
'▁पैमाने'
'▁first'
'հն'
'▁arapela'
'▁ਨੇ'
'▁לשחק'
'▁informācija'
'رىتى'
'▁ذل'
'▁aş'
'▁black'
'犠牲'
'▁23:4'
'▁ಇಬ್ಬ'
'ிருக்கும்'
'likasi'
'▁Balik'
'ogy'
'േക്കു'
'▁اؤکوز'
'▁bož'
'inon'
'▁Neng'
'osne'
'dighet'
'jual'
'ataj'
'▁abstra'
'erezida'
'ີໂອ'
'▁apas'
'▁bychom'
'▁involuc'
'▁ball'
'天国'
'▁ùra'
'ément'
'▁ኸ'
'▁Utusan'
'▁įstaigos'
'▁vostede'
'▁Ngano'
'beroende'
'йып'
'▁רעדן'
'▁aunoa'
'繫'
'▁ovom'
'▁atvir'
'供'
'▁گؤندهر'
'▁ҡағы'
'adika'
'▁강력'
'▁ქართ'
'▁ijambo'
'▁ידע'
'th'
'▁динами'
'ɛliw'
'실은'
'▁아이들과'
'十二'
'fuula'
'ɖaa'
'▁Ето'
'▁85'
'▁lignende'
'▁منبع'
'▁پروگرام'
'gayan'
'pti'
'▁tảng'
'ikiriza'
'ћ'
'klijenti'
'▁virksomh'
'▁книги'
'छे'
'▁Кали'
'▁평범'
'▁cazul'
'▁මුහුණ'
'umb_Latn'
'වාස'
'▁permintaan'
'▁kampa'
'▁penting'
'▁gerçek'
'▁otrok'
'fuld'
'▁permes'
'কারীদের'
'▁ere'
'▁swana'
'▁estudis'
'olokele'
'▁Влади'
'チャンピ'
'▁ፕሮጀ'
'ētajām'
'almo'
'sab'
'anud'
'маг'
'▁Babilɔni'
'▁utuk'
'ulutsa'
'▁televisión'
'ulut'
'▁sonu'
'▁sume'
'▁kpu'
'れていた'
'ێك'
'▁autoritet'
'▁ٽيم'
'▁Silo'
'৭'
'గించ'
'voji'
'人权'
'/11'
'▁valam'
'▁워'
'▁لط'
'▁viegl'
'▁समुझ'
'bagare'
'▁PM'
'▁menny'
'žja'
'▁huihu'
'▁वाली'
'▁شهروندان'
'▁východ'
'คุก'
'▁Okanye'
'▁preto'
'▁көрсөтө'
'▁orði'
'▁লেখা'
'▁niej'
'ILO'
'▁의하여'
'▁daily'
'▁앞에'
'dú'
'agka'
'안을'
'▁tshi'
'▁چوڭ'
'▁سىلەرنىڭ'
'ဵင်ႇ'
'▁rige'
'isst'
'ılğan'
'費用'
'ಗಳಿಗ'
'▁Нә'
'Programm'
'▁пак'
'ted'
'ñap'
'▁esperas'
'▁unn'
'▁ዕዳ'
'▁dār'
'▁တွ'
'▁ਜਾਣਦੇ'
'▁seca'
'▁mu'
'▁libertad'
'サンプル'
'▁tutoe'
'biya'
'▁miriona'
'▁አዳዲስ'
'▁Maliya'
'▁चुका'
'▁җир'
'▁Diet'
'ដែរ។'
'indog'
'ẽle'
'뜻'
'rali'
'▁କରୁଥିବା'
'乳'
'Xa'
'▁Simone'
'▁nejaký'
'▁tubag'
'ಕು'
'▁Kosov'
'▁syg'
'▁Evo'
'▁kieltä'
'▁finansial'
'▁сторони'
'▁ब्या'
'▁llim'
'▁ସେମାନଙ୍କ'
'▁যিনি'
'▁kiganiro'
'▁најмање'
'өг'
'▁xưa'
'▁lieč'
'▁vakaila'
'ācija'
'ہری'
'digo'
'estas'
'▁Roy'
'ibh'
'ārī'
'▁pencegahan'
'▁வச'
'apostola'
'▁ਹਾਲ'
'わたって'
'▁ଜିନି'
'ੜੀਆਂ'
'▁помі'
'ками'
'▁kela'
'ನಿಗೆ'
'fulness'
'▁prendre'
'▁budúc'
'▁venda'
'LV'
'håll'
'▁dedica'
'▁konvention'
'реа'
'▁כדור'
'▁ikoll'
'▁skipan'
'▁vug'
'hanang'
'▁napasamak'
'▁flex'
'ەتكە'
'өнөң'
'▁ndodhur'
'ัว'
'ngra'
'▁સહિત'
'ومی'
'▁history'
'wla'
'▁kendo'
'▁kaliya'
'弃'
'▁amayi'
'▁ટીમ'
'▁apud'
'▁aftalen'
'教徒'
'hafa'
'▁되찾'
'▁প্রার্থ'
'▁लऽ'
'▁gjithçka'
'amee'
'▁tayong'
'▁moute'
'▁wierklech'
'ያቄ'
'אַס'
'▁әйтәм'
'cciones'
'▁Сез'
'▁ئالا'
'čas'
'▁심리학'
'äwin'
'▁Promo'
'▁간의'
'▁التر'
'▁vision'
'▁doganlar'
'不正'
'▁mõju'
'▁な'
'postile'
'▁გვი'
'ereg'
'▁kres'
'▁izindlela'
'ત્મક'
'▁πρόβλη'
'▁جوامع'
'్చ'
'▁उत्तरा'
'▁dents'
'▁shatai'
'▁йыр'
'▁akufanele'
'Talk'
'▁मिळाली'
'飲む'
'prodott'
'ᱤᱭᱟᱹ'
'odde'
'ानीय'
'ษ'
'▁toka'
'λε'
'▁̄'
'▁rapelela'
'▁slak'
'innya'
'▁პირ'
'gula'
'▁ناق'
'▁økonomiske'
'▁آچ'
'▁beag'
'▁Help'
'▁beneficios'
'距離'
'▁يۈزىدە'
'▁nlereanya'
'▁Bericht'
'wes'
'ッター'
'िनु'
'▁ambony'
'▁adore'
'▁Aristo'
'ウイル'
'pats'
'ୀଶୁ'
'▁gỡ'
'▁최상의'
'尼亞'
'▁Send'
'▁člani'
'▁corect'
'▁doonaan'
'ishingiz'
'▁Ngakho'
'ുകയ'
'▁ezagutzen'
'出现'
'SK'
'akej'
'yeleti'
'▁номина'
'itile'
'▁Yale'
'▁հիմն'
'▁investiment'
'▁discip'
'älla'
'▁sma'
'▁kakuatan'
'▁szava'
'▁tipprovdi'
'説得'
'▁ኢሳይያስ'
'▁βλέπεις'
'ומ'
'ാല'
'▁vlasti'
'▁Herode'
'▁hang'
'▁ପାଇବା'
'elni'
'▁ngazo'
'▁Saray'
'ũkĩte'
'▁يوني'
'▁скільки'
'▁vora'
'ર્જા'
'▁8'
'diant'
'▁କହିଲା'
'чињата'
'촬'
'▁tõus'
'seer'
'gaŵa'
'β'
'▁同時'
'▁Jesuo'
'öne'
'▁mpanyin'
'▁skaitā'
'valmist'
'▁Beste'
'ĩre'
'▁Systems'
'▁thia'
':3,'
'▁May'
'▁بگویید'
'▁تارت'
'▁Situ'
'eten'
'자들은'
'لب'
'okon'
'▁chuma'
'▁d'
'▁dheireadh'
'離れて'
'▁Artıq'
'▁mioł'
'▁sɔrɔla'
'▁helpim'
'▁വാഗ്ദ'
'▁మార'
'ewel'
'essaan'
'lijo'
'バイオ'
'▁চর'
'inipisa'
'▁kawi'
'á'
'եշտ'
'▁мек'
'▁يەتك'
'στή'
'▁mwingi'
'itions'
'▁humelela'
'▁gazdasági'
'xlɔ'
'бна'
'▁30:'
'▁sanguluka'
'ရည်'
'▁khoma'
'▁тренутку'
'ვნთ'
'▁Wuhan'
'awofo'
'▁hest'
'▁ẹnì'
'すれば'
'བདའ་'
'▁uYehova'
'ሮችን'
'▁ನನಗೆ'
'▁Evil'
'▁дауыс'
'▁နာ'
'计算'
'iment'
'▁ಅಮೇ'
'▁моля'
'ات'
'▁omba'
'▁broke'
'▁effectu'
'▁Yudea'
'▁Mirziyoyev'
'ėjų'
'▁gisa'
'▁texnik'
'▁gcuir'
'monės'
'зақ'
'▁Ні'
'akwerhu'
'▁ochokera'
'वइ'
'enguèt'
'▁요셉'
'▁rheoli'
'▁ostatné'
'umente'
'▁tasar'
'▁کیل'
'▁ఇంట్లో'
'িন্তু'
'▁mwanakazi'
'▁සතු'
'EHO'
'cipe'
'▁yɛka'
'▁tốn'
'kas_Arab'
'▁sungbat'
'▁bekezdés'
'▁эт'
'euro'
'ակում'
'48'
'すると'
'lhodi'
'వల్ల'
'▁kantite'
'▁CAR'
'▁uzman'
'▁liitt'
'ingkam'
'ብ'
'이었고'
'▁Dash'
'lös'
'kach'
'▁йәш'
'▁Would'
'ディング'
'▁Beverly'
'▁reš'
'▁vakayalo'
'▁batter'
'▁procesą'
'▁особи'
'▁비디오'
'▁methods'
'▁ע'
'берәк'
'ithanda'
'▁салды'
'ঢ'
'▁subyekt'
'▁lieca'
'打'
'mir'
'▁boog'
'▁littafi'
'ðinu'
'ུགས་'
'әмәғәт'
'▁Muséu'
'▁manual'
'▁土'
'▁መግ'
'ãla'
'▁غادي'
'ге'
'anes'
'▁dzień'
'ಿಯಿಂದ'
'etsika'
'▁normal'
'▁käytt'
'▁Aléna'
'▁asianmuka'
'▁geutanyong'
'էր'
'▁opmærksom'
'utiliz'
'▁začel'
'▁győ'
'ukola'
'മുണ്ട'
'▁proves'
'րդ'
'をして'
'▁dhok'
'ాల్సిన'
'▁przedsiębior'
'pako'
'▁øyeblik'
'▁بالطبع'
'▁결코'
'サーバ'
'▁rileng'
'フォーラム'
'▁túc'
'շխան'
'ست'
'sísì'
'uiwa'
'▁ब्रह्म'
'naire'
'▁nilalaman'
'▁phak'
'▁lony'
'▁speaker'
'ностей'
'▁retro'
'设立'
'▁agente'
'▁ໃດ'
'▁syystä'
'qaror'
'ួម'
'▁raMwari'
'ன்றும்'
'▁gadījumos'
'▁meridi'
'▁traditionelle'
'iswe'
'▁모습을'
'▁ថា៖'
'amis'
'のを'
'amehe'
'信心'
'▁abịa'
'▁Spro'
'▁գտ'
')).'
'▁stell'
'▁vaIsalele'
'лине'
'inch'
'▁imidlertid'
'▁takich'
'▁preja'
'▁karano'
'▁дне'
'▁Chair'
'вора'
'ɲɛn'
'शु'
'▁haur'
'▁כפי'
'위가'
'▁kojom'
'igun'
'▁სად'
'▁ഉദാഹ'
'▁kasalukuyang'
'▁배운'
'మి'
'ekereza'
'▁كەلگەن'
'▁aTémoin'
'خیص'
'▁நடவ'
'9-'
'▁lồ'
'▁နည်းနည်း'
'▁đại'
'▁analize'
'mişə'
'▁Ndomo'
'ئىل'
'orra'
'ндан'
'▁مەسىلى'
'سو'
'opor'
'סטו'
'விட்டால்'
'띄'
'▁کچه'
'▁maén'
'▁tshidi'
'官'
'▁Nigba'
'▁lajɛn'
'оне'
'1⁄4'
'▁teumpat'
'minos'
'དཱ་བིད་'
'ことができる'
'▁Hadda'
'▁yaf'
'斑'
'iset'
'▁zego'
'▁형태'
'▁spørsm'
'▁здоро'
'▁investigat'
'▁හතර'
'▁dinyakwa'
'ooo'
'يں'
'▁Pase'
'ньої'
'క్య'
'▁Dublin'
'वृ'
'▁kellha'
'▁uč'
'▁هایشان'
'▁יחד'
'▁conos'
'▁Сега'
'ជាក់'
'▁tersedia'
'régation'
'umbana'
'buke'
'ावल'
'▁స్థా'
'▁woma'
'▁भई'
'▁muudat'
'▁loving'
'▁Dèan'
'down'
'的主要'
'tug'
'ungenyi'
'恶劣'
'▁langka'
'▁እንግ'
'heleleyo'
'wenera'
'▁ĩvindanĩ'
'▁Feed'
'▁שנת'
'ליון'
'▁egyes'
'արձր'
'▁بڕیار'
'▁لەدەست'
'▁paamd'
'对于'
'▁τους'
'▁higayon'
':30-3'
'пові'
'▁випро'
'▁orainn'
'▁KDE'
'▁Jérusalem'
'▁vutuka'
'▁midi'
'▁ಸಾಕಷ್ಟು'
'▁వర్'
'▁가입'
'▁ڏسي'
'goda'
'াম'
'▁buraya'
'▁ahem'
'런'
'ियै'
'▁медицин'
'cuti'
'▁νιώ'
'vain'
'▁класи'
'▁जागतिक'
'▁دادا'
'laichean'
'穗'
'▁наших'
'▁किसान'
'▁instruments'
'▁PME'
'▁冷'
'▁ejemplo'
'▁években'
'▁Μπά'
'▁sådana'
'▁sela'
'▁maba'
'▁हुँदैन'
'▁uñacht'
'▁ئىنسانلار'
'▁vanlige'
'▁niŋ'
'▁excelente'
'▁ⵜ'
'mekl'
'▁aprendre'
'sv'
'▁banned'
'▁ឯង'
'માંના'
'▁nha'
'▁ندارند'
'▁лидери'
'먹'
'धारा'
'▁vʋʋ'
'▁síbè'
'▁لوا'
'້ຽມ'
'アメ'
'▁naudojami'
'weka'
'▁forma'
'喧'
'▁vyž'
'▁tokkoo'
'τρι'
'▁doy'
'திலும்'
'▁тәүге'
'▁răm'
'▁setan'
'▁eksped'
'▁pieejama'
'▁deltagelse'
'▁sedemikian'
'zele'
'ほとんどは'
'▁Tete'
'ສ້າງ'
'▁15:4'
'▁Harrison'
'▁ናት'
'▁취할'
'▁Skulle'
'▁lotu'
'teau'
'▁dejado'
'legum'
'▁rị'
'▁gegee'
'▁απαν'
'▁πολιτική'
'▁kompon'
'▁ਸਦਾ'
'▁მვ'
'▁240'
'▁various'
'ตตา'
'ীয়া'
'▁ئېيتقىنكى'
'▁kwak'
'paus'
'▁salju'
'вија'
'▁қау'
'▁اسٹ'
'▁placer'
'udas'
'ních'
'õig'
'ບ'
'▁izteik'
'तुं'
'▁codice'
'▁bangkit'
'子どもが'
'▁función'
'▁Ann'
'ཡོད་པ་ཡིན་ནོ།'
'્વ'
'▁nogle'
'▁મેં'
'▁Umug'
'bihiin'
'▁mafoko'
'Space'
'▁ብግ'
'▁قاراڭ'
'▁பிரி'
'▁Lelaki'
'ßer'
'▁maricho'
'ပွၵ်ႈ'
'▁usted'
'▁Aontais'
'ίνω'
'▁тарбия'
'▁రెండవ'
'ondoka'
'▁sinó'
'isil'
'uenyo'
'▁putih'
'улга'
'环境'
'▁taget'
'Ҳ'
'ཚུགས།'
'▁निश्चय'
'谴'
'▁nzaũ'
'デザイ'
'লেও'
'▁siss'
'▁правило'
'tigas'
'▁obboloota'
'▁մյուս'
'qanman'
'တ'
'▁merasakan'
'iskeg'
'▁odr'
'\u202c'
'▁siji'
'روں'
'kyt'
'belle'
'▁ระ'
'▁ndik'
'ó'
'грес'
'▁isku'
'prote'
'▁kanaaf'
'▁يىراق'
'▁boitsh'
'ዳር'
'▁Trí'
'രിച്ച'
'▁ملات'
'тельства'
'▁مستعد'
'▁auprès'
'▁সাত'
'▁zmeniť'
'▁성전'
'▁చేసిన'
'▁ũlũngalu'
'email'
'▁nunna'
'uttle'
'ष्ट्र'
'▁فتح'
'▁Bina'
'▁àk'
'▁ቃል'
'▁чындык'
'▁сро'
'▁chuyên'
'عم'
'▁сәнғәт'
'▁dalyva'
'▁Johana'
'▁ବିଶ୍'
'▁swali'
'▁также'
'▁Һеҙҙең'
'akasti'
'▁rokas'
'ukolo'
'▁Нара'
'▁Justin'
'ód'
'▁folafola'
'▁սահման'
'▁tautauvata'
'▁ఆందోళన'
'ۉ'
'▁fiskeri'
'变成'
'▁Security'
'▁uchaguzi'
'▁izved'
'পূ'
'住在'
'གུ་'
'▁ghr'
'▁ווע'
'ڊيا'
'▁nokkur'
'▁tsunami'
'▁Wo'
'▁अक्'
'esion'
'▁uddannelses'
'▁فعال'
'▁செய்யும்'
'দিং'
'▁aplicação'
'LR'
'状況を'
'▁doang'
'وظ'
'▁Ελπίζω'
'▁되었다'
'ཟ་'
'▁kijk'
'сән'
'🔍'
'▁kódà'
'▁Nip'
'᱖'
'रोपीय'
'▁ժողովուրդ'
'▁gen'
'▁rendelkezik'
'ός'
'▁hoffe'
'▁trade'
'▁האיר'
'▁realis'
'▁uhi'
'▁Yeru'
'▁커플'
'▁Castiella'
'Jehovah'
'▁մե'
'jarat'
'▁Orain'
'▁starp'
'信じる'
'▁ரொம்ப'
'▁ילד'
'▁dizan'
'▁Crimea'
'▁پذیرش'
'▁její'
'▁ngag'
'▁Tann'
'▁imis'
'▁Dà'
'▁දරුවන්'
'▁Despu'
'ný'
'வர்கள'
'▁יז'
'▁чыгар'
'▁நம்ப'
'waga'
'▁kuma'
'▁doing'
'េក'
'▁igwe'
'▁ንኣምላኽ'
'▁ಎಷ್ಟು'
'▁մ'
'▁шавед'
'ارب'
'▁Jumat'
'ົນ'
'▁calquera'
'buki'
'れない'
'▁fullkom'
'▁précéd'
'ampaikan'
'ňazí'
'▁혁신적인'
'▁అడగ'
'▁បង្កើត'
'貯'
'ħroġ'
'ර්ථක'
'▁haɗ'
'เส'
'▁tlhokega'
'デジ'
'▁иши'
'▁kado'
'▁ဢွၼ်'
'▁usaren'
'بار'
'▁아직'
'▁kujdes'
'▁xué'
'ـ'
'იდ'
'▁Berlin'
'▁снова'
'îl'
'▁ৰাখি'
'▁프리'
'tiu'
'▁luv'
'▁incont'
'▁ବୁଝ'
'зује'
'▁jikkons'
'hoeddi'
'▁mosuni'
'▁묻'
'▁malak'
'▁سجد'
'▁testoster'
'unkwe'
'▁alba'
'▁Spanish'
'▁áhygg'
'▁Hair'
'misestä'
'▁엔'
'дера'
'▁forsik'
'খিব'
'bun'
'▁приз'
'▁lwet'
'▁roghainn'
'▁bazalaka'
'▁chuyện'
'ཆར་'
'▁bây'
'▁Sly'
'▁ਉਹ'
'សង្ឃឹម'
'▁diterbitkan'
'ഞ'
'▁torni'
'лыклар'
'▁پیچیده'
'▁Äert'
'ẫn'
'▁tsho'
'oci_Latn'
'▁ယုမ်ႇ'
'▁Szóval'
'キ'
'чыні'
'▁normalmente'
'▁atrak'
'▁જેવા'
'▁жатты'
'▁yand'
'▁onongo'
'▁વર્ણ'
'▁ք'
'级'
'▁moguć'
'▁anigye'
'unnut'
'壽'
'▁өзгерістер'
'▁डिस'
'▁повеќе'
'nyuma'
'isasi'
'▁hmel'
'jassa'
'▁giusta'
'epo_Latn'
'éga'
'malı'
'▁jaké'
'▁fanomezana'
'▁১৯৬'
'শ্ব'
'sunal'
'▁ວ'
'റെ'
'▁기다리'
'▁विरोधी'
'▁8.'
'▁드라이브'
'▁દર્દી'
'▁Għal'
'▁其實'
'niedz'
'ច្រើន'
'леріне'
'▁Dieva'
'定期的に'
'uldig'
'ekiwe'
'よりは'
'▁pací'
'▁munar'
'▁মাজ'
'▁puto'
'▁እያንዳንዱ'
'▁ଗୁରୁତ୍ୱପୂର୍ଣ୍ଣ'
'▁Berikut'
'▁raraunga'
'ît'
'"0'
'▁Στη'
'▁doe'
'▁noite'
'▁Dù'
'▁twa'
'▁ば'
'କଙ୍କ'
'▁wer'
'▁responde'
'▁sofitu'
'▁poshtë'
'▁blan'
'▁постоје'
'جار'
'▁సరిపో'
'▁muhim'
'▁esumũlũho'
'▁ababili'
'ளி'
'heiten'
'▁Ef'
'्ती'
'▁oble'
'▁однос'
'▁व्यवसाय'
'▁chinali'
'linu'
'▁악'
'▁tampaknya'
'มน'
'▁konformi'
'▁raad'
'ထုတ်'
'long'
'▁mekaar'
'▁kasuwan'
'▁khía'
'▁betur'
'▁الاس'
'θος'
'ickej'
'▁interess'
'▁белгән'
'▁ⴰⵡ'
'▁Prze'
'лийг'
'веда'
'▁ერთად'
'▁valaki'
'éiwi'
'繁'
'▁بسته'
'īšanas'
'▁Rito'
'▁llega'
'▁paremmin'
'ন্দ্র'
'▁રાજા'
'▁tanggungjawab'
'▁Ads'
'▁Mister'
'▁رعایت'
'▁Prev'
'▁cumpli'
'戲'
'▁ଆସିବା'
'ᄂ'
'igue'
'φα'
'្តី'
'maning'
'▁qiladigan'
'をと'
'renta'
'एर'
'▁بېرى'
'▁مىللەت'
'▁利用'
'▁Philip'
'IVA'
'кистан'
'▁mbotika'
'تاح'
'▁adwenle'
'▁Madiia'
'▁taisykl'
'▁byiza'
'▁reyin'
'ీయ'
'дуст'
'▁Сада'
'мем'
'▁disimpan'
'മന്ത്രി'
'стання'
'▁dolerių'
'▁Angle'
'ҫ'
'jeroning'
'▁میت'
'hne'
'isyèl'
'▁учаске'
'ייט'
'▁LOL'
'▁partikolari'
'yata'
'▁dogoggora'
'▁уника'
'▁우려'
'▁served'
'▁kend'
'▁брон'
'ával'
'▁mema'
'▁ساب'
'▁受'
'▁রই'
'ပဵၼ်ၸဝ်ႈ'
'▁юкка'
'名叫'
'iraka'
'▁veidot'
'▁தொழில்நுட்ப'
'▁megny'
'▁tharra'
'▁Farr'
'▁بولے'
'▁standarti'
'cindezeleka'
'usela'
'imbo'
'اهم'
'üsü'
'▁ո՞վ'
'▁എന്നതാണ്'
'▁τμήμα'
'ແ'
'▁pistol'
'essant'
'▁Tundé'
'▁생산'
'stelsel'
'▁Пав'
'▁Pēc'
'▁October'
'ników'
'▁poll'
'ლო'
'álisan'
'▁génn'
'ツ'
'▁ikkinchi'
'شتنی'
'ไว้'
'leksyon'
'▁rafiki'
'▁гуза'
'▁ndéve'
'څ'
'▁човекот'
'▁ɗan'
'▁opti'
'▁मंदिर'
'▁jsme'
'rency'
'▁όχι'
'▁شرایط'
'ি'
'▁fivavahana'
'▁κρι'
'ොර'
'▁Kobe'
'▁raibh'
'▁tjen'
'sil'
'yeen'
'▁Koska'
'▁díobh'
'▁roimh'
'jaar'
'руу'
'▁daradara'
'▁Circle'
'▁ପିଲା'
'▁gras'
'fn'
'▁activitats'
'▁forhindre'
'udika'
'▁ianareo'
'▁nahar'
'륭'
'▁ինչ'
'▁بەرد'
'▁בשבילי'
'ੁਰੂ'
'▁Nine'
'▁altså'
'▁associ'
'▁გვ'
'▁lenni'
'ômage'
'▁हउ'
'▁Мемлекеттік'
'▁دیں'
'▁মাহৰ'
'ຕົວ'
'▁майҙа'
'▁Boże'
'▁iera'
'▁מאחורי'
'▁paš'
'moin'
'▁समस्त'
'ของเขา'
'àite'
'наа'
'▁شوێن'
'▁recogni'
'▁480'
'گردان'
'រាល់'
'کنال'
'▁године'
'щення'
'▁إي'
'▁آرو'
'▁kobon'
'ారని'
'写'
'▁muanda'
'ළඟ'
'▁nisu'
'싱턴'
'준다'
'▁peih'
'▁qayta'
'▁nuos'
'▁ték'
'▁마찬가지로'
'lemole'
'▁nợ'
'haga'
'▁Lezi'
'話す'
'データの'
'▁lugar'
'▁Олон'
'िके'
'▁Marse'
'▁ст'
'▁tyto'
'ຄິດ'
'ייך'
'▁noh'
'anakanyi'
'ザン'
'▁Yardım'
'▁liomanu'
'▁یق'
'▁orduan'
'▁falen'
'vimba'
'▁있는'
'▁חשב'
'angana'
'▁демон'
'▁Leina'
'▁tesz'
'wakwa'
'人から'
'▁support'
'хте'
'▁தரு'
'▁règ'
'▁యూని'
'▁тулд'
'▁dy'
'大きく'
'▁találko'
'▁abar'
'▁ekspert'
'▁mengatasi'
'▁Bunlar'
'▁Morgen'
'▁hakiri'
'▁rhain'
'▁விளையாட்டு'
'▁razen'
'▁פאַר'
'▁#5'
'▁गर्नुहुन्छ'
'sabi'
'▁tagara'
'▁धर'
'▁εμάς'
'situ'
'rote'
'osva'
'▁означає'
'еп'
'▁kanyak'
'ɖeŋ'
'▁waje'
'upheka'
'▁kitabı'
'▁കമ്പന'
'印度'
'▁великих'
'▁gargaare'
'潜在'
'▁atun'
'▁Джордж'
'▁basue'
'▁leydi'
'▁nime'
'çiler'
'▁nuka'
'▁vodu'
'▁বাচ্চা'
'ḓ'
'▁kyerɛ'
'▁taighde'
'▁सहि'
'alara'
'▁گھروں'
'▁ብዘ'
'▁dute'
'▁이들에게'
'▁delic'
'▁koordin'
'▁njihovih'
'▁oktobrī'
'▁vieux'
'ഹ്'
'▁раньше'
'▁ပြ'
'▁ընտանի'
'ಲಿಷ್'
'▁bendrovė'
'』'
'议'
'▁ଆଉ'
'▁kod'
'▁Дә'
'▁ngra'
'▁정보는'
'▁प्रॉ'
'ុទ្ធ'
'તંત્ર'
'▁fixed'
'▁тәкъва'
'itoje'
'▁fordele'
'▁miña'
'▁زمين'
'▁şeylər'
'ursa'
'୦୦'
'lɛya'
'Nĩ'
'tɩnɩ'
'지면'
'▁তারা'
'▁chroni'
'ilun'
'▁kosong'
'▁žinoma'
'▁ahunu'
'▁visiem'
'▁mide'
'ulwa'
'iksyon'
'▁pendukung'
'▁実'
'▁dokáže'
'臣'
'▁ён'
'te'
'▁ryh'
'が一番'
'asti'
'dh'
'▁obstaja'
'▁말했다'
'▁konkret'
'▁telefoon'
'▁kehend'
'▁mého'
'ומי'
'▁સમા'
'▁nodarb'
'panna'
'▁마지막으로'
'日々'
'▁சம'
'▁expres'
'ныг'
'▁بىراق'
'▁λοι'
'▁zvishoma'
'मर्थ'
'▁44,'
'▁zostało'
'▁makkedai'
'▁mission'
'וצאה'
'spart'
'ോ'
'▁कउनो'
'▁ينب'
'▁Ngũsĩ'
'mid'
'▁موتور'
'▁yä'
'▁കുടുംബ'
'▁Offic'
'ပြစ်'
'▁podemos'
'āta'
'bell'
'▁jeder'
'действие'
'▁Islam'
'参加'
'oħra'
'тъ'
'▁सिनेमा'
'▁iban'
'\x83'
'etně'
'Finnish'
'▁руха'
'▁Bila'
'▁grups'
'を開始'
'▁mfundo'
'▁ито'
'값'
'▁wě'
'하라'
'▁penjara'
'▁βασ'
'▁maari'
'▁سیاست'
'▁váš'
'▁Tình'
'▁kaps'
'▁कीन्ह'
'▁امکانات'
'▁Olonjali'
'▁mesmu'
'▁pember'
'རོལ་'
'▁iala'
'속에'
'सरा'
'▁wosi'
'▁sulle'
'ርያ'
'▁miɖée'
'▁لڳي'
'▁pɛpɛɛ'
'itaa'
'чним'
'▁Vader'
'▁ಡೇ'
'တယ်၊'
'▁მსოფლიოში'
'ijoro'
'▁mahd'
'▁президент'
'▁valits'
'▁Sampeyan'
'▁бодож'
'▁ที่จะ'
'▁Gai'
'▁Rabbigu'
'োধন'
'vasa'
'▁gac'
'لارغا'
'▁guvern'
'▁versk'
'▁күрен'
'▁kũv'
'▁pieds'
'▁iwi'
'ตาม'
'སྐམ་'
'▁pomemben'
'idin'
'▁capacité'
'▁대단한'
'▁佢哋'
'డానికి'
'▁پایه'
'▁maata'
'бесін'
'▁ogla'
'ненні'
'▁vermək'
'▁վերահ'
'məyin'
'▁rinn'
'▁ବିରୋଧ'
'▁ملازمت'
'▁hmu'
'내에'
'▁kne'
'▁올해'
'▁utuu'
'▁dɔɔnwo'
'▁taui'
'poz'
'▁такім'
'▁கற்ப'
'▁given'
'麦'
'▁dilaksanakan'
'▁ευχαριστώ'
'▁多分'
'▁joita'
'▁yliop'
'▁mahar'
'▁куҷо'
'cwalisa'
'▁Victor'
'▁trobat'
'▁обла'
'▁nebude'
'▁maniera'
'▁Nut'
'▁ŝ'
'темати'
'▁+"'
'gl'
'▁ኸም'
'▁fuel'
'▁nøjag'
'뤼'
'ların'
'▁ut'
'Ke'
'▁fã'
'▁געפֿי'
'▁ההי'
'lithe'
'▁დემ'
'actu'
'သီး'
'ཁོང་ཉིད་'
'ထတ်း'
'▁Veel'
'▁བཙ'
'▁මුද'
'▁pokus'
'遭遇'
'▁Model'
'▁ғүмер'
'▁punktā'
'À'
'etään'
'issu'
'▁દીધી'
'лности'
'buti'
'with'
'▁3:2,'
'ოდენ'
'리고'
'▁dyambu'
'bria'
'▁못했습니다'
'àrà'
'▁kiwango'
'オフ'
'خل'
'ိုတ်း'
'▁ಬಳಸ'
'▁ඇර'
'▁friend'
'▁Tanrı'
'ŧ'
'▁intern'
'▁Emir'
'▁kupiga'
'▁tils'
'▁どの'
'vinda'
'▁ekólo'
'▁ipurangi'
'▁体'
'lapha'
'▁yìí'
'▁define'
'▁bryr'
'▁ਮੌ'
'▁проблема'
'wolo'
'ũlĩhĩ'
'▁Kristy'
'▁လု'
'ئام'
'вими'
'▁پەيدا'
'▁ezinkulu'
'सिस'
'Yesu'
'ûs'
'▁రోజులు'
'▁नव्हतं'
'▁һымаҡ'
'▁жылдар'
'umaa'
'سەڭ'
'他人の'
'ɖa'
'▁පිළිබඳ'
'zuzu'
'▁серед'
'esneg'
'טות'
'▁လမ်း'
'▁nʋmɔʋ'
'なに'
'veille'
'▁πρόσωπο'
'▁VER'
'qap'
'▁nkhawa'
'▁Anong'
'▁positiiv'
'inner'
'дення'
'ุษ'
'▁chot'
'▁ngëm'
'טיקה'
'▁היש'
'eg'
'uuu'
'▁nemad'
'▁miɛ'
'▁vailyĩ'
'▁twaku'
'jadores'
'тілген'
'gesamt'
'▁සුව'
'▁diminye'
'▁ትምህርቲ'
'▁Президенты'
'頭の'
'...)'
'▁ئېي'
'▁mikolo'
'shwa'
'▁2022.'
'▁సమావేశ'
'▁với'
'▁manumalo'
'ალით'
'洗'
'▁zahiri'
'りする'
'ર્મ'
'▁Рай'
'ردنی'
'▁ඔහු'
'ølv'
'▁được'
'▁प्रश्न'
'▁[1'
'▁кылуу'
'▁situlula'
'▁jumanakat'
'▁२००'
'▁akked'
'ادىكى'
'▁fet'
'▁Kash'
'Ұ'
'▁pamaké'
'▁чине'
'▁bangsaé'
'seo'
'▁Ind'
'▁뜻'
'থায়'
'司'
'سىنى'
'▁فرو'
'▁locek'
'▁આગા'
'redin'
'▁વિશાળ'
'▁ब्रेक'
'ප්'
'▁kivál'
'olla'
',+'
'▁bete'
'▁kuonyesha'
'ılacaq'
'▁يۈ'
'ծի'
'ڳ'
'ێکیان'
'काँ'
'ገብሮ'
'政'
'▁સંપર્ક'
'▁din'
'▁Tesla'
'▁hundumaa'
'ট'
'▁Pavel'
'▁Bude'
'▁помош'
'ajrup'
'▁उड'
'▁bio'
'▁Molo'
'ний'
'▁ndoa'
'▁līdzekļi'
':1,'
'▁მამაკაც'
'▁maaaring'
'▁Clark'
'gæ'
'ềm'
'▁Babylone'
'▁rzeczy'
'ויס'
'▁1914'
'हरूलाई'
'▁Bari'
'uarã'
'▁واع'
'▁देवा'
'▁वैश्व'
'esy'
'▁tökéletes'
'▁shows'
'▁Tunaweza'
'ātiem'
'؟"'
'ګ'
'hais'
'から出て'
'นํา'
'▁snu'
'แบ'
'▁bonse'
'▁எப்போது'
'▁formació'
'▁bankul'
'▁bentuk'
'▁kiese'
'▁ဆေး'
'bogbo'
'▁waNkulunkulu'
'▁jiragen'
'▁нито'
'▁priestor'
'BO'
'▁আলাদা'
'elével'
'▁ɖěɖee'
'他的'
'▁zor'
'▁ຫຼັງຈາກ'
'heundak'
'▁यस'
'▁בעסטער'
'ຶດ'
'сіне'
'▁apk'
'▁Amalumbo'
'лите'
'빴'
'▁Qu'
'ପର'
'▁sprach'
'▁6:9)'
'▁내지'
'▁panig'
'▁કહેવું'
'fih'
'▁okukkiriza'
'▁μάλλον'
'▁стоя'
'▁여기에'
'▁قارداشلار'
'▁대출'
'্ৰম'
'▁zaude'
'▁Trade'
'▁mahla'
'▁ainakin'
'aji'
'▁କୁହାଯାଇଛି'
'▁diag'
'▁крат'
'ሰት'
'▁१९९'
'qhu'
'തല്ല'
'ционар'
'▁কর্ত'
'▁viven'
'▁kakšen'
'▁merusak'
'നീ'
'▁oğ'
'▁کران'
'▁رأ'
'▁ಹೌ'
'colile'
'▁зре'
'▁магистра'
'host'
'▁कुणी'
'▁puang'
'wany'
'秘'
'▁adiera'
'maten'
'ించబడ'
'▁gwɛn'
'šanu'
'майг'
'sioun'
'▁hordo'
'▁Popular'
'ሳት'
'reka'
'מס'
'▁aĉ'
'▁ھی'
'▁ειναι'
'अनुसार'
'တွေကတော့'
'јски'
'▁каала'
'▁chel'
'▁konkr'
'▁مدر'
'▁caca'
'▁Auschwitz'
'걔'
'▁zg'
'ekati'
'地元'
'אל'
'▁genç'
'イズ'
'▁tová'
'▁relativamente'
'私達の'
'olofelo'
'тно'
'▁Nab'
'▁uê'
'▁pädev'
'དངོས་པོ་'
'ཿ'
'bihi'
'bella'
'▁सकैत'
'ለሁ'
'ማሽ'
'▁मिनेट'
'ເສັ້ນ'
'▁սեփական'
'▁nekutsi'
'▁llamp'
'malısınız'
'ၵႂႃႇ'
'▁satış'
'ຢູ່ໃນ'
'▁umbombe'
'▁यहि'
'▁Ří'
'▁беру'
'▁brans'
'▁muz'
'▁උබ'
'त्या'
'▁Magar'
'▁Unter'
'▁waste'
'zibwa'
'▁געווי'
'▁nhấn'
'dür'
'▁mošomo'
'▁ကျော်'
'▁봅시다'
'ေပါ့'
'rup'
'▁pagbaba'
'ใส'
'▁2017-'
'▁necht'
'▁адво'
'▁kadhi'
'GO'
'▁itsi'
'▁kuda'
'▁ისრა'
'▁щодо'
'▁zoek'
'▁десят'
'▁świata'
'idanud'
'يين'
'āra'
'▁անոնց'
'▁텍스트'
'նչ'
'▁cyangwa'
'▁blockchain'
'▁heula'
'ακ'
'黄色'
'▁express'
'-3'
'▁spē'
'いえば'
'▁أمام'
'រាង'
'▁questão'
'thaich'
'▁લાગુ'
'▁དེ་བས་ན་'
'▁olevien'
'ಚೇ'
'yã'
'ãn'
'▁조합'
'ます'
'nością'
'▁weren'
'▁පාවිච්චි'
'rep'
'之一'
'▁schopný'
'▁onto'
'otton'
'▁ཡོ་ཧ་'
'▁く'
'▁ලඟ'
'▁Балалар'
'▁ներս'
'brud'
'▁жаман'
'ଡି'
'▁ҚР'
'▁fàcil'
'▁pɩɩ'
'▁ארויס'
'satz'
'▁שיי'
'▁कमाई'
'ikela'
'ísk'
'yó'
'frem'
'ларга'
'▁kulonga'
'▁ঠাই'
'▁tranon'
'ၢၼ်'
'▁Loku'
'ეტი'
'▁izrač'
'증'
'▁pere'
'▁addım'
'▁저작'
'▁praktil'
'▁કારણે'
'▁lluz'
'roz'
'▁אַזוי'
'▁управление'
'リの'
'lanyp'
'▁आ'
'▁fête'
'만한'
'▁funksjon'
'▁ເຄ'
'▁예상'
'融資'
'įž'
'▁betek'
'▁خانگی'
'▁متمرکز'
'▁Vinc'
'判決'
'RNA'
'▁kgoši'
'▁compi'
'信じて'
'լլ'
'opheleleko'
'▁բացահայտ'
'▁cycle'
'▁vektor'
'▁ಸಮುದಾಯ'
'▁دەچ'
'▁unele'
'▁yv'
'▁Aira'
'▁halen'
'▁DES'
'欲しかった'
'▁ҡай'
'▁башка'
'▁ገሊ'
'▁vëmend'
'▁Pano'
'▁juguw'
'▁لاح'
'▁섬'
'Unjoni'
'▁yetɔn'
'న్యూ'
'▁kuad'
'▁Watter'
'▁લાલ'
'almas'
'▁چیخ'
'prest'
'▁பண்ண'
'▁상세'
'▁rezultātu'
'суға'
'▁asocia'
'Net'
'▁disseny'
'▁girman'
'olao'
'▁वर्ष'
'▁Jannar'
'woloka'
'ctu'
'▁ئىبار'
'▁yace'
'union'
'▁Paga'
'▁Katu'
'▁ವಿವ'
'czej'
'poti'
'▁hien'
'▁dikar'
'▁목표를'
'ਰੇਕ'
'▁10).'
'вица'
'ська'
'Jó'
'▁ڏين'
'▁همئشه'
'▁האח'
'▁possibilitats'
'▁kɛra'
'éro'
'▁ເພີ່ມ'
'▁ਕੰ'
'▁үлем'
'▁kuvanda'
'▁விஷயம்'
'▁funkti'
'kì'
'ट्'
'▁Imate'
'▁hidh'
'▁üht'
'▁kthe'
'▁tillgång'
'града'
'▁opòtinite'
'▁ڕای'
'▁այնպիսի'
'▁ruolo'
'ġijiet'
'▁коопера'
'inkan'
'醸'
'▁bèè'
'▁licence'
'▁قانچىلىك'
'▁hungry'
'▁próxima'
'ңғай'
'▁срца'
'▁跟'
'▁कुछू'
'▁Mwene'
'▁ngokuvumelana'
'▁gulak'
'▁hlawm'
'▁kanssaan'
'▁example'
'▁arrabbi'
'मारी'
'▁teisin'
'▁вечно'
'▁alínea'
'োক'
'▁ezt'
'▁אנדערע'
'▁வைக்க'
'▁مىنى'
'▁ndima'
'▁bàa'
'wedzera'
'▁مېنىڭ'
'▁မု'
'▁alles'
'▁kavand'
'▁warto'
'▁স্থানীয়'
'▁Izaho'
'▁yaNkulunkulu'
'▁Survey'
'▁tij'
'金'
'▁дуртай'
'▁ఉదాహరణ'
'▁진리가'
'大人'
'顔を'
'▁ителде'
'ላችንም'
'▁Ew'
'▁ọṅụ'
'▁មេ'
'▁દ્વા'
'▁гэд'
'▁normalt'
'▁graphi'
'ayensi'
'ពោះ'
'ăr'
'▁sokuti'
'▁dài'
'ksomh'
'▁hembiapo'
'▁duel'
'\x89'
'▁голову'
'▁കരു'
'୍ଲା'
'úpe'
'▁Felix'
'▁علیه'
'▁konzult'
'▁mpingo'
'巨大'
'▁ກ່ຽວ'
'lerini'
'▁coby'
'上回'
'▁Syl'
'ాలనే'
'▁keinginan'
'etown'
'▁rwako'
'▁selwe'
'認証'
'▁कॅ'
'सों'
'▁Eternel'
'▁wòanye'
'avientu'
'▁ringawt'
'▁مرد'
'isah'
'▁Mutu'
'▁Clu'
'▁gaaffii'
'▁agarsi'
'▁견'
'▁valutazione'
'▁jħ'
'▁media'
'▁জায়গা'
'▁அரசு'
'კვეთ'
'▁Ou'
'CU'
'lheni'
'▁매'
'▁تریش'
'▁yoldaş'
'್'
'यत'
'▁1930.'
'wiedz'
'▁azoknak'
'▁olit'
'ลาด'
'My'
'▁anksčiau'
'▁ڏانھن'
'▁kike'
'▁ناشی'
'▁देइ'
'▁hem'
'aliso'
'▁uvádza'
'▁הפי'
'vay'
'▁bukunya'
'뤘'
'▁abag'
'mist'
'▁Váš'
'యాలు'
'▁Abamu'
'letela'
'▁tornare'
'を残'
'▁narediti'
'vaja'
'ľúben'
'▁Selfs'
'नुहु'
'▁18:4'
'▁Angaben'
'▁Një'
'▁فعلی'
'glo'
'▁меро'
'▁lufwa'
'▁കൂടിയ'
'▁Inglaterra'
'▁আরও'
'▁estran'
'▁upozna'
'▁cevap'
'コー'
'▁ឪពុក'
'▁vote'
'▁प्रतिनिध'
'▁kopo'
'▁rhywbeth'
'▁naći'
'ອົາ'
'zicht'
'זט'
'▁خواست'
'రోధ'
'▁ukukhanya'
'gunakeun'
'▁significant'
'baze'
'▁којима'
'▁sungu'
'▁Tig'
'▁шушы'
'andid'
'▁opr'
'անի'
'▁agaibh'
'▁ಪಟ್ಟಣ'
'ွန်'
'ध्या'
'べる'
'▁kim'
'▁Satu'
'▁kance'
'вийн'
'▁ー'
'랄'
'hase'
'ágot'
'▁mɛɛ'
'恵'
'ussu'
'щин'
'▁U'
'▁integrit'
'▁luce'
'持っている'
'▁yan'
'▁allir'
'▁detto'
'▁kwona'
'фә'
'lif'
'▁раз'
'▁אַנדער'
'▁घरा'
'アッ'
'▁ĩmã'
'שור'
'eli'
'▁ຕົວ'
'▁امر'
'hlela'
'atfu'
'▁kgakol'
'▁kalba'
'▁Спа'
'▁pagda'
'▁Bokonzi'
'െയോ'
'▁диск'
'jlisi'
'ስማ'
'▁milles'
'▁boloka'
'ורה'
'▁llarga'
'▁यूह'
'atter'
'тті'
'▁तौर'
'▁uim'
'ម្លៃ'
'álov'
'▁nipadua'
'▁부동'
'▁Fonda'
'ikke'
'▁simţi'
'ingut'
'▁betekent'
'▁Sain'
'ᱩᱛ'
'Fre'
'iten'
'▁ହୋଇଯାଇଛି'
'itės'
'▁ਤਰ੍ਹਾਂ'
'▁दृष्टि'
'▁mahimong'
'▁شفا'
'集まり'
'▁leida'
'ན་'
'▁tikela'
'▁पठ'
'োর্'
'pelajari'
'▁Thai'
'▁પ્રશ્નો'
'ատես'
'soang'
'▁take'
'▁ados'
'▁unong'
'▁Egblɔ'
'▁conversation'
'다른'
'▁시계'
'▁Wagner'
'style'
'ىشت'
'▁Məs'
'▁Rory'
'▁komõ'
'▁لماذا'
'▁ਜੁ'
'▁ຕ່າງ'
'▁வாக்கு'
'һығыҙ'
'▁సె'
'▁elv'
'▁tiếp'
'uret'
'▁lelei'
'ran'
'▁ESMA'
'ñch'
'örü'
'▁שלוש'
'кора'
'▁институты'
'misiniz'
'importazzjoni'
'▁পাস'
'女性と'
'タン'
'ologiske'
'病気'
'amach'
'itsongo'
'Йәшлек'
'אן'
'▁либо'
'▁holdes'
'▁Vaku'
'▁خېلى'
'▁nechal'
'▁일반적인'
'오니'
'skon'
'▁خەلق'
'dún'
'思う'
'▁жұмысын'
'角色'
'▁Vai'
'▁አስቸጋሪ'
'tany'
'▁Kristotɔwo'
'▁করল'
'▁프'
'▁wir'
'▁καρδιά'
'eletša'
'▁hlawuleka'
'δί'
'▁mobili'
'ۈشكە'
'▁hurt'
'丧'
'ark'
'▁jadotta'
'魅力'
'▁Ifi'
'▁مه'
'hemmin'
'etukutuku'
'ാണോ'
'butho'
'▁બનાવવામાં'
'▁юри'
'▁Anjeunna'
'▁použí'
'▁Jimbangi'
'idio'
'▁lyaLush'
'gaidh'
'သင့်'
'▁Maine'
'рад'
'itat'
'▁જઈ'
'▁έλε'
'▁ketakutan'
'igos'
'▁aanbid'
'▁Балким'
'▁výdav'
'▁هیچ'
'ill'
'▁tipa'
'▁költség'
'▁여자는'
'▁egli'
'▁sábháilte'
'▁согу'
'▁apib'
'ecek'
'▁įgalioj'
'ската'
'inson'
'▁giống'
'▁næ'
'▁ಖರೀ'
'म'
'▁Vincent'
'▁miara'
'▁جذاب'
'▁주장했다'
'ṣo'
'▁ਵਿਸ਼'
'所の'
'▁nkanda'
'ought'
'▁ineela'
'▁radical'
'▁Karya'
'▁মাঝে'
'▁cât'
'▁tashkilot'
'皆さん'
'▁magħmula'
'▁fia'
'▁nomuni'
'ىمى'
'▁xav'
'▁ព្រះយេស៊ូ'
'▁xare'
'umal'
'▁ग्राहकों'
'▁रोजगार'
'▁ñò'
'ø'
'łabym'
'▁cuntaba'
'쪽에'
'lēdz'
'▁Bont'
'ولر'
'▁kolim'
'▁дәвам'
'▁imkan'
'▁listi'
'▁ofufe'
'▁ཆོས་'
'▁nung'
'▁rétt'
'anmi'
'▁wayar'
'▁tlang'
'▁Omnye'
'▁მი'
'▁gera'
'▁سەیری'
'▁Sử'
'▁сөз'
'▁bō'
'ड़िया'
'▁kene'
'▁THE'
'гот'
'やる'
'▁intal'
'▁reyi'
'▁tús'
'▁მსგავს'
'▁फिट'
'▁kailan'
'اكل'
'▁opravdu'
'ब्लिक'
'不動産'
'▁flores'
'▁dubi'
'▁yalododonu'
'▁върху'
'winj'
'▁नस'
'▁VO'
'▁plăcut'
'кавы'
'▁çıktı'
'▁ũte'
'▁भयं'
'enesisi'
'▁erne'
'сыздык'
'▁RS'
'သား'
'▁нәмә'
'ෙන්නේ'
'▁begrij'
'umue'
'▁regionen'
'иста'
'▁queden'
'Zu'
'灾'
'▁menc'
'apan'
'▁વિચ'
'ંત્રણ'
'្ធ'
'▁Kata'
'▁країни'
'ျဖ'
'▁državljan'
'▁설문'
'▁dté'
'▁görkezýär'
'▁አቅር'
'▁kunas'
'▁antic'
'ivalu'
'▁тэдний'
'▁بدانند'
'šky'
'ciamo'
'ဏ္ဍ'
'▁шәһәр'
'▁dibi'
'▁Пов'
'ayu'
'▁insbesondere'
'侯'
'▁അപകട'
'▁마십시오'
'▁అద'
'▁болгож'
'▁países'
'▁పంప'
'▁akay'
'آمد'
'▁Sina'
'履'
'摩西'
'▁중국은'
'▁Spiller'
'▁პოლიტიკ'
'▁Hop'
'律'
'ລະກິດ'
'صف'
'снээр'
'▁ngraga'
'▁expla'
'افي'
'▁კატ'
'▁թող'
'▁Dikwalo'
'برت'
'II'
'ɣzɩɣ'
'tionen'
'▁kaiwhaka'
'గ్రత్త'
'pulikano'
'знагра'
'èl'
'学生が'
'▁дау'
'圃'
'決議'
'▁Sest'
'ননা'
'ونہ'
'▁cyt'
'သေးတယ်။'
'▁aprakst'
'▁ಕಾಳ'
'▁زۆر'
'下さい'
'alungelo'
'▁diakal'
'賊'
'▁ಬದಲ'
'ביא'
'▁toekoms'
'▁Verd'
'▁hạn'
'▁родите'
'álacha'
'▁يست'
'▁Finshi'
'olomon'
'▁सामान्य'
'▁ⵓⵏ'
'▁گەور'
'▁folyamat'
'▁šef'
'шылардың'
'ຕັ້ງແຕ່'
'▁Hudaýa'
'▁befektet'
'آي'
'▁yot'
'▁བརྩི་'
'▁Village'
'შენ'
'▁болгондо'
'▁jälle'
'▁xog'
'▁məlumat'
'τας'
'mı'
'τευ'
'아의'
'▁fantas'
'несува'
'ब्'
'▁Karl'
'θν'
'imizga'
'▁მოვი'
'ческая'
'▁Tres'
'ទំព័រ'
'inojo'
'▁барга'
'દાહરણ'
'de'
'▁rinoti'
'▁nødven'
'▁ess'
'kwá'
'▁iM'
'▁erag'
'▁notific'
'egosi'
'▁ahami'
'▁ચાર્'
'전의'
'▁jii'
'예를'
'▁संभावना'
'▁lero'
'▁sasi'
'▁спеці'
'ენის'
'▁좋아요'
'▁facile'
'▁badu'
'redu'
'▁غربی'
'▁mõlemad'
'ageer'
'ītie'
'▁ဦး'
'▁säädet'
'שראל'
'odim'
'▁tester'
'▁प्राथमिक'
'▁ఆఫ్'
'▁ithute'
'น่า'
'▁under'
'škega'
'▁과정을'
'▁bekerja'
'▁ተጫ'
'▁Ê'
'पर्भू'
'▁τελευτα'
'▁OECD'
'▁neimwe'
'の一人'
'▁çer'
'▁حض'
'▁paid'
'▁maŋ'
'མོའི་'
'litats'
'▁punya'
'ნთ'
'畫'
'単'
'▁mùa'
'▁Jehóva'
'круг'
'笑い'
'▁широко'
'你們的'
'安排'
'hae'
'▁noteikts'
'丰'
'spr'
'▁förvän'
'▁평안'
'ении'
'alok'
'iriwe'
'श्चित'
'▁maikarabelo'
'▁gevangenis'
'▁بوم'
'啟'
'▁bellach'
'▁membolehkan'
'▁recente'
'▁ukwo'
'▁uhaxi'
'▁αναφέρεται'
'▁رائ'
'▁Cri'
'▁następ'
'ختى'
'▁Oñ'
'ත්'
'▁komoly'
'接'
'ร้าน'
'▁orthu'
'fahrens'
'▁Краљев'
'▁ਸ਼ਾਇ'
'▁cooperação'
'མནོ་'
'▁rumah'
'ógra'
'▁ພັນ'
'▁makare'
'▁slobodu'
'▁ልዩ'
'لاي'
'▁paytda'
'wui'
'▁Egipto'
'▁mettre'
'bihan'
'idlalo'
'▁miễn'
'▁ධ'
'▁初'
'▁Че'
'▁پهريون'
'ርቲ'
'▁خۇدانىڭ'
'aime'
'ваў'
'▁xitu'
'▁limitado'
'▁Unde'
'Tele'
'▁Gbɔ'
'▁soco'
'ሎም'
'▁Русија'
'qai'
'▁volia'
'▁mengand'
'▁فراہم'
'▁பிரச்சினை'
'லி'
'▁कमी'
'երը'
'न्त्र'
'▁сфер'
'▁výr'
'நீ'
'▁ସମସ୍ୟ'
'▁እሷ'
'mam'
'▁کمپنی'
'тари'
'▁પ્રમાણમાં'
'▁cancer'
'▁mĩth'
'նք'
'▁yokuti'
'▁Nitori'
'クリスチャン'
'liku'
'▁ცხოვრება'
'endesha'
'▁zařízení'
'▁valore'
'чною'
'▁inşa'
'င္'
'으면'
'▁juž'
'timin'
'▁ungdom'
'▁गएन'
'▁yoloye'
'▁Untuk'
'▁faċ'
'▁mał'
'▁अर्थ'
'▁deltak'
'▁kaum'
'▁będą'
'▁voivat'
'▁belangrij'
'▁まさに'
'▁chluiche'
'ekuje'
'တက'
'έρα'
'ıyorlar'
'ላፊ'
'▁脳'
'න්ගේ'
'▁ගා'
'শ্বাস'
'னுடைய'
'ོ་བར་'
'▁حالا'
'▁15%'
'över'
'entlig'
'gbára'
'दना'
'▁aanvull'
'▁tariro'
'▁वर्गी'
'lege'
'▁Bevölker'
'▁10-'
'ulaw'
'▁existeix'
'ững'
'▁misst'
'起來'
'▁Trail'
'үә'
'▁mengandung'
'▁đệ'
'▁char'
'▁quanh'
'တန်'
'▁lade'
'దవ'
'▁گەی'
'▁दिनु'
'ክኖሎጂ'
'▁겪고'
'▁ceg'
'▁skończy'
'▁babu'
'annach'
'ɛti'
'▁ettik'
'ļau'
'▁ચા'
'▁infrastructure'
'льше'
'yrt'
'剂'
'▁babone'
'▁entón'
'▁Kalau'
'区別'
'ሰል'
'▁bamposa'
'▁súlyos'
'▁extrater'
'▁Ру'
'▁memperkenalkan'
'bbir'
'▁بىلىپ'
'▁됩니다'
'osios'
'beed'
'▁કમા'
'▁ᱞᱮ'
'▁samaniya'
'▁Brez'
'▁Веро'
'▁скъ'
'▁авиа'
'▁ganteng'
'▁행복하게'
'▁स्रोत'
'▁ერთი'
'▁hük'
'ваме'
'▁Sut'
'▁तूँ'
'istą'
'▁теле'
'▁rezo'
'▁turpina'
'▁cinneadh'
'▁členskými'
'Baba'
'୍ୟାନ'
'▁ବାଇ'
'▁význam'
'▁තත්'
'▁존재한다'
'▁ɛta'
'▁podrí'
'毁灭'
'▁אָן'
'liyim'
'klĩ'
'▁사이트'
'▁jlɛ'
'བཟུམ་'
'eyow'
'▁monument'
'▁napja'
'▁tutki'
'ィ'
'uhake'
'▁odli'
'ātnes'
'▁Hel'
'▁परिचित'
'▁ئازاد'
'риф'
'ಲೋ'
'રાત'
'▁faaopoopo'
'кый'
'▁իմ'
'▁اقیان'
'▁معبود'
'ストリ'
'▁రెండో'
'▁نافرمانی'
'ଲ୍ୟ'
'▁Connecticut'
'aca'
'ສະຖານທີ່'
'▁परमेश्वरले'
'▁učinek'
'finu'
'രാ'
'确定'
'▁Barcel'
'arap'
'Vangeli'
'▁přece'
'atia'
'▁mikil'
'▁atkreip'
'ká'
'▁paham'
'lulileyo'
'▁руко'
'▁μπορού'
'нымі'
'zenie'
'那些'
'▁בדי'
'▁ငွေ'
'▁lintho'
'▁ତଥାପି'
'위를'
'ヨーク'
'▁начинот'
'зня'
'▁Potrze'
'W'
'▁sajrone'
'▁متى'
'yeho'
'▁ناچار'
'▁isleýär'
'ন্ত্ৰ'
'hlawu'
'百萬'
'▁unnt'
'▁rankontre'
'▁დასა'
'▁ndox'
'рања'
'▁Samaria'
'xiques'
'▁campo'
'вакыт'
'▁كۇ'
'▁ingxaki'
'學生'
'emaw'
'עי'
'▁과도'
'რის'
'▁perioda'
'ោគ'
'▁terbukti'
'▁समीक्षा'
'祈り'
'▁həqiq'
'st'
'াপ'
'ველი'
'აი'
'دىنمۇ'
'▁көрүүгө'
'▁後'
'▁ועד'
'▁Penny'
'▁bg'
'▁ieji'
'키는'
'▁האנשים'
'знача'
'▁այլեւս'
'టన్'
'▁omanu'
'▁საერთ'
'itaji'
'odes'
'абы'
'▁metho'
'▁جایگاه'
'▁ସେଥିରେ'
'മാനം'
'मान'
'▁hafa'
'結果は'
'▁ស្ត្រី'
'▁atrás'
'▁মাথায়'
'ляції'
'нението'
'abu'
'리라고'
'▁qazan'
'▁каже'
'ély'
'roy'
'▁දෙයක්'
'▁àpilè'
'たが'
'▁قانۇن'
'▁arra'
'нени'
'ɖeam'
'バージョン'
'▁ende'
'rá'
'▁6:2'
'▁erkennen'
'▁fukki'
'▁কেই'
'▁Cat'
'▁nisqanman'
'གང་ཡང་'
'▁चाहिँ'
'▁উৎপাদন'
'ultimo'
'하죠'
'utwala'
'kontenut'
'▁살고'
'рів'
'▁толку'
'kamitti'
'▁കുഴ'
'akamaro'
'zyma'
'教育'
'≤'
'▁doub'
'▁құжат'
'žnosti'
'▁eblas'
'▁kude'
'▁तैयारी'
'ప'
'òg'
'▁الأمر'
'▁требало'
'▁Unga'
'▁ನಿಮ್ಮನ್ನು'
'▁نړیوال'
'▁হয়েছেন'
'▁Kena'
'▁가로되'
'▁Alfr'
'▁بؤ'
'▁אבא'
'▁Dance'
'せない'
'iloga'
'ojn'
'▁pick'
'▁ngawit'
'▁perbuatan'
'▁መንግሥ'
'▁fuldstæn'
'▁rëër'
'▁tanga'
'▁рәхмәтле'
'heni'
'かけ'
'onoño'
'▁സ്ഥ'
'聞いた'
'▁medžiagos'
'▁ಬೇರೆ'
'Plus'
'▁bzw'
'▁ລັບການ'
'きましょう'
'▁једној'
'▁familier'
'חות'
'▁maita'
'ང་ནི་'
'▁게임에서'
'▁교'
'食品'
'▁qay'
'▁ସମ୍ପୂର୍ଣ୍ଣ'
'▁iratou'
'orong'
'▁capitale'
'▁importants'
'unik'
'ಶ್ಚ'
'àä'
'བྲན་'
'▁opges'
'Faro'
'טע'
'▁করেছিল'
'캡'
'▁ང'
'▁ür'
'▁indvodza'
'араа'
'▁demostr'
'遂げ'
'▁ne'
'▁conas'
'ஸ்க'
'lamaki'
'མཉམ་'
'ように'
'ต้อง'
'▁ɣa'
'▁ሁለ'
'▁jõ'
'▁asign'
'▁wszystkim'
'▁hvordan'
'▁bonts'
'لیق'
'▁bijo'
'CB'
'▁Haere'
'ٹل'
'▁כרגע'
'ẹn'
'▁(2.'
'▁stră'
'▁terminar'
'져서'
'leste'
'မှစ'
'▁Spur'
'▁agen'
'▁lage'
'▁cią'
'▁차이를'
'osizione'
'ウェ'
'ggia'
'▁books'
'டியாக'
'▁কাৰ'
'▁Eis'
'▁ভী'
'igsinn'
'▁አገ'
'ặm'
'emise'
'▁získa'
'▁upenyu'
'▁januari'
'▁Yeesu'
'▁parlamentet'
'ũmwa'
'אָרן'
'▁사이'
'aso'
'▁moeten'
'▁anene'
'rappur'
'▁Wein'
'லாமா'
'്മ'
'▁Many'
'▁људ'
'▁ຈັກ'
'▁rerekē'
'▁pääst'
'▁안돼'
'lingkor'
'▁ಹಾಸ'
'▁چم'
'멸'
'▁imaš'
'▁Зак'
'نس'
'empo'
'çon'
'迟'
'▁гуфта'
'▁brauc'
'▁kihai'
'▁tikslų'
'▁апре'
'▁Kristiyano'
'▁омӯ'
'▁9:6'
'▁обли'
'▁buryo'
'ानं'
'▁pesa'
'▁बाटेन'
'▁kulambira'
'▁Jared'
'niah'
'▁ထိ'
'нами'
'▁رچی'
'▁miëth'
'▁ветерина'
'▁kaput'
'▁զր'
'่อย'
'▁הקי'
'lużjoni'
'ewġ'
'を理解'
'▁ئەوەیە'
'אזל'
'▁kenyataan'
'ផ្តល់'
'▁adidi'
'▁sapos'
'обра'
'明显'
'▁salita'
'▁Still'
'.;'
'Jer'
'▁үтә'
'▁Akeh'
'▁vary'
'啱'
'ዎ።'
'illag'
'aysayan'
'▁다만'
'▁iP'
'jile'
'▁šķidr'
'▁juliol'
'EHS'
'▁Sto'
'▁కే'
'qondi'
'▁fahat'
'▁тексер'
'\x8d'
'▁পেয়েছি'
'▁Maraming'
'▁ကူ'
'▁отли'
'jall'
'▁Nez'
'▁anledning'
'▁América'
'▁zemlji'
'▁kritis'
'▁Ի՞նչ'
'keres'
'▁minētā'
'▁veç'
'느냐'
'▁둘이'
'▁Arabic'
'ယဝ်ႉ၊'
'▁speel'
'▁kommun'
'▁बुनियादी'
'するという'
'▁нукле'
'▁Version'
'▁aýal'
'▁चालक'
'▁akadem'
'erse'
'ítà'
'努'
'▁ವಿಮ'
'▁لەوە'
'▁письмен'
'▁Isila'
'▁Pare'
'▁sefer'
'▁Ụlọ'
'susu'
'▁नियन्त्र'
'篤'
'▁stellt'
'▁ieteik'
'▁lokasa'
'ᱛ'
'orahame'
'▁Hvis'
'▁Vaj'
'ġu'
'gileng'
'▁suut'
'▁jiraachuu'
'▁amennyiben'
'▁reng'
'ukuwa'
'▁yun'
'▁stoppe'
'▁silo'
'šį'
'▁savrš'
'▁drag'
'▁Naarta'
'sí'
'žvelgiant'
'riste'
'▁artıq'
'▁ବହୁ'
'▁ځانګ'
'▁సంతో'
'қият'
'▁ଗ'
'▁deskrit'
'▁basadi'
'ានៅ'
'ктер'
'▁Meko'
'ጦ'
'ंवर'
'▁Нин'
'▁Debora'
'▁loca'
'▁jɔɔn'
'▁Histor'
'estens'
'▁가슴'
'你们应当'
'▁ئاۋاز'
'▁économi'
'цэ'
'όλου'
'▁bevæ'
'müş'
'▁¤'
'積み'
'ebenz'
'▁աշխ'
'Dok'
'橋'
'anjut'
'▁브라우'
'ëè'
'▁Gdy'
'άς'
'▁Atmos'
'▁Ären'
'▁lop'
'▁vakabulai'
'viac'
'bonakalisa'
'▁union'
'nɛ'
'▁моло'
'חים'
'▁בב'
'▁계약'
'аст'
'eche'
'▁Dai'
'▁يۈر'
'▁۔۔۔'
'▁Ãdem'
'▁Hik'
'▁Parker'
'hail'
'▁затворени'
'▁ишет'
'▁ndụmọdụ'
'риса'
'▁1:13'
'▁সে'
'▁burger'
'▁проповеда'
'协调'
'▁Kristotɔ'
'▁መል'
'したら'
'ⵛⵂ'
'波兰'
'▁Куда'
'▁Kuva'
'▁чык'
'▁tumor'
'▁വരും'
'▁නිද'
'gaa'
'▁tyd'
'▁vialua'
'ælt'
'▁Makin'
'фил'
'ướ'
'onraí'
'བཞུགས་'
'▁нәтижелері'
'▁humb'
'▁qenë'
'▁ዘለዋ'
'들은'
'▁اط'
'▁dinheiro'
'▁azal'
'▁варто'
'さんと'
'▁inversión'
'ុល'
'▁ఇ'
'ຈໍານວນ'
'мату'
'▁edə'
'vaga'
'▁បោះ'
'isiones'
'jivaluko'
'▁nata'
'▁hiện'
'▁zuela'
'▁ကဲ'
'に向けた'
'▁vuriwa'
'mhór'
'▁kü'
'▁langue'
'▁Bä'
'▁pɛrɛn'
'лус'
'iriúnach'
'▁נו'
'▁maybe'
'yifat'
'▁EE'
'អ្វី'
'에게도'
'▁체험'
'herana'
'unts'
'▁mély'
'▁mũnene'
'▁ласка'
'▁വിവരങ്ങൾ'
'grup'
'▁medan'
'▁tulla'
'▁планира'
'▁এগ'
'▁royna'
'▁Компанія'
'amwo'
'▁برع'
'▁(24'
'▁magpa'
'▁bub'
'▁rifu'
'▁arunak'
'▁ngeliat'
'▁Pretože'
'▁töötada'
'▁jotka'
'▁محدود'
'وانین'
'łość'
'▁បាប'
'봤'
'ендәге'
'괄'
'▁ennen'
'▁kohd'
'▁لغ'
'▁chacha'
'▁arkadaş'
'ów'
'dular'
'▁nguye'
'ێتان'
'▁resultados'
'▁napap'
'▁zêl'
'▁taid'
'▁갇'
'遭到'
'▁suiga'
'▁okuma'
'akule'
'▁wha'
'▁excell'
'▁esan'
'▁electrò'
'aktar'
'▁skate'
'▁ಗೊ'
'skar'
'▁zayıf'
'premessa'
'▁Sanki'
'xwé'
'▁pēr'
'heke'
'▁cal'
'▁Tuy'
'▁viņi'
'▁tettong'
'▁nouveau'
'▁låter'
'▁жағынан'
'onek'
'▁km'
'▁taşı'
'גרום'
'▁පිළිබඳව'
'▁Bíonn'
'▁pranaš'
'▁involver'
'pol_Latn'
'▁Eftersom'
'нім'
'▁Know'
'▁Sebaliknya'
'གཙ'
'talilaho'
'▁початку'
'▁지속적으로'
'жайы'
'ләне'
'eders'
'▁আগ্র'
'▁itiner'
'▁sôs'
'▁مقاو'
'אם'
'▁लड़की'
'▁eòlas'
'▁မြ'
'▁qiluvchi'
'▁paitsi'
'▁domnule'
'▁Мора'
'jok'
'▁ଆମ'
'▁کارهایی'
'▁боломжтой'
'દ્ધા'
'▁jmen'
'▁vhod'
'▁near'
'▁messages'
'ھې'
'inty'
'ାରୁ'
'▁barbaachisaa'
'▁ಆತನ'
'▁යන්නේ'
'▁بلی'
'▁다'
'▁சகோதர'
'▁בכי'
'orum'
'採択'
'▁іно'
'ಂತ್ರ'
'othewu'
'uncin'
'▁torí'
'▁diversa'
'▁ئوين'
'មិនមែន'
'ེད་'
'▁दुनू'
'لوس'
'opa'
'▁umwan'
'huvo'
'▁amuyt'
'▁finanční'
'▁ଗର'
'▁이곳'
'▁gheibh'
'čitve'
'▁ایسی'
'▁Šiame'
'guei'
'▁ತಲು'
'▁mellan'
'▁ua'
'▁तहत'
'▁napet'
'իկան'
'▁ɲɔgɔn'
'▁ለሌ'
'▁тышкары'
'ച്ച'
'鲁'
'看護'
'プロジェクトは'
'://'
'▁programm'
'நாடு'
'▁történő'
'▁مذہ'
'▁органів'
'▁ಒಳ್ಳ'
'罪の'
'▁babeng'
'သူတို့'
'▁школи'
'▁lelit'
'▁कल्प'
'Cent'
'▁үҙе'
'▁mira'
'▁Тогава'
'▁effet'
'▁variasi'
'▁tashkil'
'erman'
'▁hilaha'
'▁жеткізі'
'▁babedi'
'▁sannsynligvis'
'тре'
'▁Od'
'πνο'
'▁jednostavno'
'▁হোৱাৰ'
'▁گۆڕانکاری'
'▁thus'
'▁বিচাৰি'
'▁Pang'
'ዖም'
'▁kemu'
'▁원하는'
'▁हंस'
'▁이름은'
'▁panali'
'inėje'
'➜'
'ymu'
'ەتلىك'
'▁Awo'
'▁agbenɔnɔ'
'▁Pisarema'
'iko'
'▁įr'
'▁αμά'
'တိုင်း'
'▁لوگو'
'▁dalo'
'▁zunaj'
'▁PLA'
'Ḥ'
'▁interon'
'লত'
'суль'
'វិស'
'▁markar'
'▁folla'
'▁גאָט'
'▁мөселман'
'▁achị'
'ື້ອງ'
'▁meufeureuman'
'öm'
'নীতি'
'zave'
'▁kukuk'
'قع'
'▁ائطاعت'
'▁bezain'
'ብና'
'▁Atamu'
'National'
'▁duny'
'ུས་གསོལ་'
'αιο'
'▁tufunga'
'▁أع'
'▁nil'
'▁थप'
'▁පුතා'
'▁avuga'
'▁عدد'
'таж'
'▁कि'
'▁baino'
'wolaeth'
'▁Char'
'▁Siyempre'
'ĩkwat'
'vint'
'ugét'
'▁жиын'
'leč'
'వేయ'
'▁hadis'
'▁جۆرە'
'ऐ'
'▁bune'
'▁guard'
'edel'
'▁നേട'
'▁དྲང་'
'することはできない'
'Cy'
'lt'
'ရှေ့'
'acord'
'mong'
'▁repente'
'▁ကြည့်'
'▁አባት'
'▁uabha'
'oru'
'▁depress'
'قل'
'აკუთ'
'▁nuwɔna'
'▁yashash'
'▁kapott'
'▁apesi'
'▁පෙන්න'
'▁väljas'
'wisaka'
'▁それにしても'
'▁ludo'
'▁घरे'
'▁Iblis'
'బ్ర'
'javatra'
'▁Dob'
'▁ነቲ'
'▁sapela'
'▁diameter'
'чем'
'▁mengurangi'
'▁elad'
'टेन'
'agara'
'▁ҙ'
'멈'
'▁ọn'
'▁coloro'
'▁жатып'
'▁דם'
'ρίου'
'▁muenhu'
'-12)'
'▁tõ'
'фікова'
'▁프로젝트에'
'ulabirako'
'annut'
'جی'
'▁নির'
'ícím'
'▁saik'
'▁පළ'
'Lev'
'▁འགྲ'
'ũmĩĩ'
'ିତ୍ୱ'
'jerojat'
'ጓ'
'θως'
'上げた'
'▁matsa'
'▁tvil'
'▁kalim'
'▁whakahau'
'ponsa'
'可能な'
'▁birds'
'▁istituzioni'
'гам'
'▁lexikulu'
'▁መልእ'
'▁انته'
'▁қою'
'▁dettag'
'▁eiti'
'▁pici'
'▁City'
'▁సరే'
'▁primerih'
'དྲ'
'▁গভ'
'▁যুগ'
'見つけ'
'goe'
'▁ner'
'▁ለማወቅ'
'▁apresent'
'fapan'
'▁féadfaidh'
'破'
'hver'
'▁ġiet'
'▁boýun'
'▁gelijk'
'▁ነኝ'
'izathu'
'osszabb'
'▁plás'
'▁՝'
'གཅིག་གི་'
'▁moadto'
'▁להר'
'▁reikš'
'▁নিশ্চিত'
'پور'
'▁börnin'
'▁ukxa'
'▁tough'
'豐'
'▁lebaka'
'eraniro'
'▁situāciju'
'▁ਕਿਰ'
'▁mostrar'
'▁ehtiyoj'
'▁ietekmē'
'မိူဝ်ႈ'
'▁našim'
'ζο'
'anete'
'▁dịch'
'activitat'
'pana'
'표'
'▁கீ'
'▁eerst'
'▁Jekk'
'▁caq'
'▁پۇ'
'▁erkin'
'▁þið'
'▁Pany'
'راوی'
'ėjai'
'▁kecewa'
'ĩtyo'
'doli'
'😔'
'▁ഫോ'
'▁говориш'
'依存'
'▁ча'
'▁зла'
'▁kahirupan'
'▁Ɛ'
'▁Focus'
'పడ'
'għanijiet'
'పి'
'chon'
'▁niga'
'▁Phillips'
'▁võrreld'
'▁یقین'
'▁ଯେତେ'
'▁фара'
'▁najd'
'▁δεδομένων'
'▁നമ്മുടെ'
'▁болохгүй'
'генин'
'akɔ'
'▁siis'
'খানে'
'▁थाले'
'▁siyah'
'cking'
'▁回'
'▁nepār'
'▁నియమ'
'▁нашей'
'▁corpu'
'ក្រៅ'
'чески'
'strong'
'rial'
'របស់ខ្លួន'
'▁Sigur'
'▁superfície'
'▁kalimat'
'луча'
'尚未'
'▁gydag'
'▁instrumentos'
'▁Kopi'
'Mawu'
'▁smiješ'
'▁масло'
'▁hội'
'はどう'
'ベトナム'
'▁cím'
'ას'
'▁Everest'
'▁kolobela'
'▁personer'
'金の'
'▁isizathu'
'ଥିଲେ'
'レス'
'xaan'
'▁viņš'
'基本的な'
'▁maneh'
'▁ಮುನ್ನ'
'▁Bestimm'
'▁mondják'
'▁sead'
'▁acɛ'
'taim'
'ጨረ'
'▁Pulau'
'とっても'
'?.'
'▁qawqha'
'堡'
'گره'
'2019'
'▁ngaloo'
'閉鎖'
'▁အကြီး'
'▁saksi'
'▁ונ'
'ၶွင်'
'▁କରିଛି'
'▁leen'
'▁oigire'
'བསད་'
'▁برخ'
'▁کەس'
'▁гэлээ'
'ဖော်ပြ'
'▁предпринима'
'▁Morêna'
'▁anonym'
'▁душе'
'▁heila'
'дина'
'▁návr'
'▁آی'
'▁Range'
'▁69.'
'ើ'
'▁né'
'▁nášho'
'▁zaio'
'lustus'
'▁barbaachisu'
'▁ceritanya'
'альні'
'vnih'
'▁cselek'
'베'
'▁WA'
'ilile'
'▁sætter'
'▁ours'
'▁Valley'
'hawula'
'▁gobier'
'ट'
'▁hö'
'▁እድ'
'▁hương'
'▁måter'
'▁והמ'
'Bydd'
'يار'
'qanrayku'
'▁मुलगी'
'▁ẹgbẹ'
'▁చెప్పిన'
'▁পারবে'
'▁medicina'
'▁היי'
'▁অতঃপর'
'муштуу'
'ನಿ'
'▁দেশে'
'▁falsa'
'anoe'
'▁위반'
'▁1950.'
'▁lile'
'▁बोझ'
'▁ಕಟ್ಟಡ'
'によって'
'▁storil'
'▁mahimmanci'
'itala'
'reny'
'▁ולע'
'▁कदा'
'▁ವೀಕ್ಷ'
'००'
'athi'
'RS'
'čš'
'▁שלום'
'▁ජි'
'پس'
'bigan'
'▁ɔbarima'
'▁སྡེ་ཚན་ག་ཡང་'
'मि'
'范围内'
'elu'
'▁كاپىر'
'▁kamin'
'▁None'
'▁poja'
'▁nude'
'▁hacemos'
'ĩrĩria'
'▁maasem'
'чена'
'▁bala'
'▁ਸਕੂਲ'
'ethol'
'▁PD'
'時の'
'tada'
'iby'
'様が'
'▁하더라도'
'▁lɛc'
'▁pamisa'
'▁ambiental'
'äll'
'▁Lees'
'▁شرا'
'▁crees'
'▁sangka'
'振り返'
'▁Rog'
'lement'
'▁Чӣ'
'ໄສ'
'▁ناح'
'Salmo'
'▁реко'
'remo'
'▁casinos'
'filipi'
'▁intér'
'ဢဝ်'
'പ്ര'
'▁jī'
'▁Ark'
'▁կայ'
'ýändir'
'ମାନେେ'
'▁नसेल'
'▁Според'
'▁allin'
'esem'
'▁교훈을'
'推奨'
'▁Race'
'眾'
'тка'
'žiai'
'ྨ'
'▁کې'
'зер'
'▁5-6'
'▁সংশ'
'▁najviac'
'日に'
'▁atilẹyin'
'螺'
'▁lijst'
'pish'
'▁vinthu'
'▁bô'
'▁রূপ'
'рәк'
'▁govoriti'
'▁କୁହ'
'▁გამოვ'
'▁پرۆژ'
'गृह'
'ário'
'▁बनवा'
'▁võtta'
'bayang'
'negara'
'▁беспла'
'▁Portu'
'▁meɖe'
'شش'
'▁хугацаа'
'▁necesario'
'▁تعمل'
'▁ང་བཅས་'
'гає'
'▁formação'
'utnya'
'ເຮັດວຽກ'
'Ngisi'
'غر'
'▁컨트'
'▁мақсатында'
'▁পক্ষে'
'▁грађа'
'▁председник'
'▁질문이'
'inskih'
'▁zarela'
'行为的'
'missione'
'itata'
'▁politique'
'▁зы'
'▁cond'
'▁Majalisar'
'▁зня'
'▁jikk'
'маты'
'во'
'석을'
'▁ಅವರು'
'ეშ'
'бөр'
'▁saq'
'▁żewġ'
'▁његовим'
'▁Жер'
'▁mami'
'व्ह'
'▁tidaklah'
'▁Musíte'
'ക്കൂ'
'▁mər'
'inih'
'▁अनुभव'
'પૂર્'
'▁uñj'
'▁permet'
'▁hyɛɛ'
'▁oamenii'
'▁میری'
'▁teriw'
'叩'
'▁nũ'
'▁Добро'
'▁провести'
'▁ભાગના'
'viste'
'▁laarin'
'▁vaqtida'
'▁במס'
'主義者'
'шь'
'▁Panang'
'▁hal'
'▁ietekm'
'ራብ'
'▁szabads'
'▁расте'
'Magwaro'
'ಷಿ'
'▁lebala'
'▁Recon'
'▁उपाय'
'رتان'
'▁divin'
'álně'
'▁matumaa'
'▁tachi'
'▁གནམ་'
'ωσε'
'riske'
'▁kusambira'
'▁마디'
'пані'
'▁ĩyo'
'▁Sektor'
'iriau'
'▁list'
'▁Yos'
'ishiga'
'elola'
'olsó'
'▁valin'
'دون'
'체가'
'▁asp'
'▁mukanda'
'▁פע'
'を読'
'үд'
'▁လိုအပ်'
'▁sosiale'
'▁Scho'
'ሦ'
'དོན་དག་'
'トルコ'
'▁subɔsubɔdɔa'
'▁glede'
'žne'
'altre'
'▁Klima'
'deren'
'lawn'
'じゃあ'
'त्ता'
'▁authority'
'▁ibin'
'▁ေပ'
'밸'
'▁ತಕ್ಷಣ'
'▁viral'
'ਟੋ'
'▁pošt'
'ທ້າຍ'
'▁Ngek'
'わっている'
'▁pārbaud'
'▁byrjar'
'▁буйы'
'▁høv'
'lole'
'▁Hotels'
'▁එකම'
'▁lỗ'
'vimu'
'ଭବ'
'▁náz'
'▁lā'
'ám'
'▁numër'
'juru'
'显'
'لىم'
'▁pressione'
'GET'
'▁babes'
'▁ಒಂದೇ'
'▁dogry'
'hod'
'▁ນາ'
'isyyden'
'▁săptămâni'
'eraha'
'បញ្'
'paikan'
'▁୨୦'
'▁Ē'
'▁адеп'
'▁ရှ'
'▁ऋ'
'▁umr'
'weereza'
'▁bidimu'
'▁କୌଣସି'
'▁hatwok'
'▁চাব'
'▁zokhudza'
'▁lenguahe'
'iguro'
'▁ئامۆژگاری'
'བཏུབ་'
'▁だけ'
'▁högst'
'ెస్'
'zame'
'хәб'
'ෙකුට'
'ረጥ'
'▁tvarka'
'tivas'
'▁जुलाई'
'▁CSS'
'▁megkö'
'നിന്ന്'
'televat'
'▁counter'
'จัก'
'unyana'
'▁mask'
'▁obetumi'
'▁sayesinde'
'▁Barn'
'▁заку'
'warin'
'▁komonana'
'ues'
'▁하루'
'▁Ŋɔŋlɔawo'
'▁kezkatu'
'ريك'
'udno'
'sting'
'▁Pack'
'alista'
'▁ऑपरे'
'cetam'
'biu'
'uvchi'
'▁comú'
'▁kişinin'
'▁специја'
'ûm'
'▁patah'
'ទៃ'
'▁piepr'
'iex'
'▁alltså'
'õiguste'
'зун'
'會'
'ñ'
'▁zinali'
'▁suurt'
'న్'
'▁Ngbanga'
'ística'
'nično'
'დაპირ'
'▁feina'
'ori'
'▁tras'
'▁afọ'
'дони'
'▁kardeş'
'▁Ibillisi'
'▁mafelelong'
'▁ခရီး'
'▁Andrea'
'音樂'
'▁Нали'
'▁doty'
'▁pokazuje'
'▁homologa'
'▁अत्यधिक'
'▁임무'
'gænge'
'▁ŵasambiri'
'▁kufiz'
'▁koncert'
'tihan'
'▁ఫోటో'
'▁keletšo'
'▁vijë'
'蓋'
'▁mavunwa'
'芬兰'
'▁pross'
'ilwa'
'▁پایین'
'▁HTML'
'▁mulut'
'▁غلط'
'▁би'
'רק'
'▁ongum'
'▁chanm'
'alej'
'▁kær'
'▁soif'
'▁melek'
'kuku'
'▁ngaro'
'▁wasan'
'▁rerek'
'▁บาง'
'ţine'
'▁nigi'
'愛し'
'▁obst'
'▁từng'
'ེས་'
'ขึ้นมา'
'▁Enter'
'umiwa'
'вол'
'▁goonga'
'▁conseguinte'
'발'
'▁तुम्ह'
'▁മൂ'
'מינה'
'MO'
'štát'
'▁skladu'
'效'
'▁apho'
'どのようにして'
'▁കൊള്ള'
'▁မဵဝ်း'
'▁galim'
'াৰা'
'▁нельзя'
'meniz'
'idiú'
'мәде'
'▁ضبط'
'▁Rasuul'
'ģent'
'חוד'
'σουμε'
'▁unto'
'ွေ့'
'மாட்ட'
'▁ŋutete'
'▁Ша'
'▁іншы'
'يز'
'▁እኔን'
'രിക്കുന്നു'
'▁لات'
'மு'
'▁menutupi'
'žím'
'▁iże'
'ワクチ'
'▁januára'
'▁fog'
'▁bëhen'
'▁shang'
'کشن'
'▁nxa'
'शिया'
'ೊ'
'▁רוצה'
'▁filan'
'▁klostu'
'▁ڕاست'
'▁kõikide'
'བྱ་བ་'
'▁ரீ'
'私たちが'
'▁berende'
'▁Tanmateix'
'▁išteklių'
'▁छोटा'
'▁vaxt'
'jita'
'▁Hati'
'▁माग'
'ႄႉ'
'okan'
'ustit'
'▁அதனை'
'ල්'
'偽'
'▁tlhas'
'▁ìwà'
'▁mny'
'▁일반'
'▁бебе'
'לב'
'▁monia'
'སྨོ།'
'▁kontinu'
'▁cres'
'▁વેપાર'
'वु'
'▁taab'
'▁discu'
'▁жағда'
'▁standartus'
'터'
':19'
'▁ನೀ'
'▁gonne'
'▁Lans'
'lemen'
'▁dokumen'
'ึ่ง'
'▁kutsutaan'
'根'
'▁phi'
'▁Traba'
'cijske'
'▁directamente'
'▁الصغير'
'ۆك'
'▁impriżi'
'▁mbʋ'
'▁ĉio'
'▁చిన్న'
'▁துணை'
'▁চাহ'
'▁υπόλοι'
'ediakan'
'共産'
'▁skete'
'یره'
'▁komun'
'▁အထ'
'▁منف'
'▁solen'
'▁becomes'
'ခံစား'
'▁regul'
'▁սար'
'▁apika'
'▁rregul'
'inant'
'▁থাকা'
'▁sunyi'
'▁Nhà'
'▁paykunata'
'িত্ৰ'
'거든요'
'縦'
'▁بودم'
'ulungele'
'▁Huo'
'utohu'
'asyp'
'▁10:3'
'▁jumala'
'▁質問'
'▁ربه'
'▁קי'
'▁ಪೋಷ'
'▁ngọn'
'▁zinaweza'
'όταν'
'▁Bunda'
'▁qualquer'
'▁ساختن'
'医薬品'
'anymy'
'▁부분에'
'festyle'
'цияны'
'▁nyadia'
'▁kulu'
'▁ḿ'
'єте'
'usho'
'▁ათ'
'over'
'odil'
'▁meetmete'
'▁così'
'atekesu'
'▁поду'
'虎'
'▁авто'
'▁Rahayu'
'▁plena'
'zése'
'▁ойлгож'
'▁sjálvandi'
'ድግ'
'▁ඡ'
'炊'
'wi'
'త్తు'
'▁vakavinaka'
'▁кич'
'▁pembunuhan'
'▁たった'
'мови'
'ීත'
'▁kèm'
'▁dinja'
'かえ'
'땐'
'jimi'
'▁велику'
'wadai'
'▁dessen'
'▁आदत'
'▁هیجان'
'▁През'
'ກ່າວວ່າ'
'លេង'
'▁becer'
'▁Viņa'
'ichagua'
'▁bilgisayar'
'▁Փ'
'OME'
'πό'
'ගත්තා'
'治安'
'▁Biasanya'
'▁estad'
'▁kugenda'
'▁zaz'
'vuvu'
'▁avaliação'
'▁kraljest'
'▁Τ'
'лли'
'▁ilgsto'
'▁prakse'
'▁zilizo'
'▁옹'
'▁atar'
'▁rizik'
'▁joriġinaw'
'领域'
'▁Улар'
'ҙәре'
'▁gamla'
'▁बरं'
'▁bilamba'
'úir'
'ラジオ'
'쫓'
'▁とは'
'▁most'
'▁Memory'
'Por'
'▁words'
'▁এনে'
'▁изпра'
'▁konkurr'
'▁ይበልጥ'
'夏'
'esser'
'▁సినిమా'
'▁ingin'
'▁khắp'
'▁esh'
'alim'
'utoko'
'experiència'
'▁telefonen'
'▁бъдеш'
'assin'
'andi'
'消費者'
'▁oi'
'▁olohutililo'
'ົດ'
'▁mutta'
'▁убие'
'▁көрүп'
'▁UJehova'
'▁független'
'▁chachik'
'▁inntil'
'▁люб'
'▁ọbịa'
'▁nghena'
'回到'
'▁كف'
'▁setzt'
'▁אותנו'
'▁malalties'
'▁כוח'
'▁SER'
'▁jeżeli'
'ityalo'
'탄'
'▁Gül'
'▁stare'
'ئێ'
'▁phawt'
'ブラジル'
'inthu'
'▁ಪ್ರೀತಿಯ'
'▁ekri'
'popola'
'▁తెలియదు'
'ழுது'
'▁André'
'▁mý'
'ණා'
'onics'
'▁kump'
'▁হবেন'
'▁ሙሴ'
'▁وردئلر'
'▁ƙafa'
'▁денеш'
'▁mógł'
'▁બને'
'▁शुरुआत'
'▁유대인'
'▁apakah'
'▁subi'
'▁capire'
'▁lich'
'ખી'
'▁nyǐ'
'▁يې'
'▁གིས་'
'▁არაფერი'
'▁nèt'
'ulogalamu'
'èyàn'
'컷'
'▁IT'
'▁lelu'
'ೀಲ'
'▁teagmháil'
'sã'
'日は'
'▁قم'
'ekanye'
'င့္'
'▁ithangana'
'▁Tich'
'כון'
'óga'
'ள்ளன'
'▁George'
'liin'
'pherd'
'ultur'
'ረጋግ'
'▁Sillä'
'▁tugon'
'▁persist'
'悟'
'▁әмер'
'▁ogn'
'▁sila'
'▁хочете'
'▁prín'
'▁봅'
'▁Zd'
'▁სავ'
'▁umusi'
'▁työ'
'▁arĩ'
'▁üzem'
'▁mony'
'▁المدر'
'likes'
'▁vitenskap'
'▁mỏ'
'ىلەرنى'
'eksyon'
'▁ಅಧ್ಯಕ್ಷ'
'ishiba'
'▁ghanyake'
'▁행복을'
'obr'
'ouya'
'▁eļ'
'ိ'
'▁uuring'
'▁mendatang'
'cintai'
'▁دەرەوە'
'▁تحریک'
'▁iestāžu'
'▁19,'
'▁depu'
'1%'
'льный'
'▁schre'
'▁ആദ്യം'
'▁nem'
'alifornia'
'▁forstyr'
'ċipa'
'▁kicsit'
'▁khel'
'▁ពួក'
'▁ampir'
'▁issued'
'ೆಯೂ'
'▁mía'
'ەنت'
'場の'
'▁ترسره'
'್ರಿಯ'
'▁Ì'
'▁अं'
'སྤྲོ་'
'ཕྲུག་'
'▁ostale'
'ፆ'
'灯'
'▁społe'
'ⵙⵏ'
'▁tuvi'
'▁pagpana'
'лювати'
'▁Jeho'
'▁ਪ੍ਰਧਾਨ'
'endan'
'သု'
'▁دستورالعمل'
'édéé'
'əş'
'lüğ'
'▁združ'
'▁stipula'
'▁እሞ፡'
'irà'
'తను'
'▁කියන්නෙ'
'▁인디'
'彼らの'
'▁бары'
'põ'
'▁Muze'
'▁фільм'
'▁Facebo'
'▁ଏକା'
'වස'
'▁Італі'
'▁народ'
'▁паста'
'▁Білім'
'ूक'
'ucapkan'
'▁kotinda'
'▁ekonomika'
'▁વ્યાપક'
'▁gweng'
'쪽'
'▁restos'
'ምለ'
'籲'
'stvá'
'▁بئر'
'▁मूर्ख'
'▁méi'
'برا'
'▁caaman'
'▁fines'
'▁Raica'
'▁repons'
'▁християн'
'▁ukapacha'
'மாம்'
'▁numerous'
'cheiden'
'▁ibanga'
'▁laks'
'▁ಕೊನೆ'
'▁başlang'
'▁holim'
'ურადღ'
'▁ની'
'čt'
'▁개념을'
'▁बढा'
'▁přijít'
'ክርስቶስ'
'▁deulu'
'▁рейтин'
'▁Neg'
'bias'
'▁একা'
'punktā'
'өөлөр'
'▁garde'
'▁cakap'
'ከኣ'
'▁matemati'
'▁Һи'
'▁ऑन'
'▁পছ'
'▁таасир'
'▁ಶಸ್ತ್ರ'
'▁najm'
'▁башлый'
'ブラジ'
'ঙ্গ'
'副'
'▁hot'
'önt'
'継続'
'ffor'
'▁abayobozi'
'▁polnud'
'▁1974.'
'▁Conselho'
'▁dinene'
'▁boitumelo'
'▁άντρας'
'лады'
'を買'
'▁גאַנץ'
'▁ļa'
'▁Sweswo'
'teki'
'ಪ್ಪು'
'etsitsi'
'သာ'
'▁खा'
'算'
'▁gospodar'
'▁ਆਯ'
'▁jerin'
'▁розу'
'否认'
'▁tsakanin'
'▁доведе'
'髮'
'▁dao'
'▁دەگەڕ'
'ড়ান্ত'
'ွေးနွေး'
'limenti'
'▁ανταγων'
'▁giovane'
'▁spela'
'▁prezident'
'ቃሚ'
'▁revolució'
'畏惧'
'ктен'
'▁ସୂଚନା'
'athini'
'足'
'▁kwan'
'▁తరచుగా'
'▁parehas'
'▁একটু'
'▁ted'
'iniet'
'▁thonë'
'ե՛'
'▁pyör'
'▁ہوئی'
'▁Slo'
'▁ayam'
'▁छलहुँ'
'ješa'
'▁tariki'
'miljø'
'▁殺'
'่ม'
'ompi'
'▁wasana'
'▁ලිප'
'後半'
'▁maloko'
'▁জে'
'лэн'
'▁Ukuk'
'▁išs'
'▁אַנט'
'▁زېمىننىڭ'
'▁GPU'
'pxäna'
'▁காரணம்'
'▁2021.'
'erungs'
'▁Bed'
'▁ರಕ್ಷಣ'
'▁hujjatlarida'
'▁دونی'
'దా'
'pale'
'ແຫຼ'
'▁kriz'
'ཉུང་'
'▁1956.'
'llë'
'fasana'
'Ձ'
'▁ਕੈਂ'
'hambo'
'▁bobl'
'ണ്ണം'
'▁Może'
'▁nebu'
'▁ଥା'
'වැ'
'▁اکس'
'▁kelip'
'优先'
'▁Enterprise'
'ຫຼັກ'
'▁Ta'
'চিত্র'
'▁annul'
'▁tāl'
'▁twitter'
'▁3:23)'
'▁Қыз'
'▁ето'
'▁ผม'
'▁beze'
'▁mokolo'
'▁جشن'
'▁pieprasījuma'
'ються'
'▁piblik'
'▁vee'
'マリ'
'▁Tere'
'rini'
'▁slår'
'▁ଘରୋଇ'
'ੇਰੇ'
'▁Donc'
'ĵo'
'▁అందు'
'trz'
'ེག་'
'▁بۆم'
'site'
'▁gått'
'▁آیتوں'
'▁sny'
'▁mākou'
'▁nodar'
'▁अभिनेता'
'▁econom'
'珠'
'ɔɔr'
'▁lintang'
'▁dagidiay'
'▁sostit'
'▁ಹಿ'
'▁일하는'
'萊'
'ీకరించ'
'▁방향'
'cam'
'▁nnọọ'
'▁soal'
'해진'
'དོན་ལུ་'
'êng'
'▁गर्ने'
'▁የመጣ'
'▁stycket'
'焉'
'hnut'
'▁izņemot'
'isisi'
'▁གསུང་རབ་ནང་'
'olojik'
'▁огла'
'▁ನನ್ನ'
'▁tiamisila'
'ରୀ'
'▁ብመን'
'▁દાખલ'
'発明'
'▁페이스북'
'▁erstat'
'▁starf'
'▁moro'
'▁Анда'
'▁ច្ប'
'政府の'
'▁अइसे'
'ворення'
'▁ongangu'
'▁luvena'
'▁wovosyo'
'/2'
'▁Danas'
'▁affir'
'ാനായി'
'必ず'
'▁비용을'
'▁chanje'
'▁vendre'
'▁כת'
'▁سڀني'
'র্শ'
'▁Що'
'▁বিদ্যালয়'
'ural'
'beteg'
'▁3:17,'
'▁Tokoki'
'▁చదువు'
'ایدا'
'▁høyt'
'▁вз'
'▁Πε'
'▁მსახურ'
'▁аюулгүй'
'▁Bahamas'
'▁масли'
'▁도덕적'
'▁glori'
'quera'
'ӯш'
'▁пра'
'erim'
'▁Združ'
'issä'
'▁イギリス'
'的です'
'▁Ҡ'
'tili'
'▁շարժ'
'▁Vǐ'
'▁tún'
'▁Andrews'
'vie_Latn'
'アルゴ'
'ಚ್'
'フィン'
'ئکلري'
'▁एकरसेति'
'ሰሩ'
'▁նյութ'
'▁گردید'
'نئن'
'huri'
'".[2]'
'▁Muszę'
'elukk'
'مانی'
'amaan'
'▁కాదు'
'▁വിവ'
'▁παιδιά'
'awan'
'▁mamatay'
'orevole'
'▁operación'
'▁tlala'
'▁දෙන්නෙ'
'▁ngoba'
'▁gjë'
'uktu'
'органи'
'мек'
'ང་བཅས་'
'▁Жүй'
'▁Salu'
'аѓа'
'▁vozidla'
'▁pareng'
'▁༩༨'
'esal'
'二人'
'versite'
'▁ចំពោះ'
'▁lefaseng'
'▁lainim'
'čanja'
'▁شوخ'
'cukacha'
'▁mukhuva'
'▁பாதுகா'
'▁keladi'
'akau'
'နိူင်'
'▁chips'
'fitra'
'▁དུས་ཚོད་'
'▁ತಾನು'
'▁Jahr'
'▁ڵک'
'ିବ'
'เสียง'
'を除'
'▁ଯିବା'
'▁टिक'
'▁plekke'
'▁datblygu'
'▁ژوور'
'▁conclusión'
'▁الأح'
'▁зно'
'▁shak'
'▁Kek'
'anyol'
'▁শ্র'
'ట్టే'
'▁dymuno'
'કે'
'▁kamfan'
'र्थिक'
'culi'
'ɔɔk'
'▁sáu'
'▁jita'
'▁jyn'
'▁గౌర'
'▁diris'
'တႃႇ'
'่อง'
'্স'
'tuvo'
'▁payg'
'▁Hukum'
'jenost'
'▁Barbie'
'esaist'
'▁Fumana'
'▁Аза'
'lavors'
'▁dł'
'▁benad'
'Euro'
'fami'
'▁nokuk'
'▁अन्'
'ėjus'
'▁अत्या'
'▁lupwa'
'▁سرزمین'
'▁바이'
'عن'
'▁꾸'
'ĩlĩ'
'▁tamata'
'ตั้ง'
'zce'
'▁sedmi'
'▁wā'
'▁мэт'
'ekuti'
'▁viitor'
'▁riti'
'荣耀'
'▁برکت'
'▁समर्थन'
'▁বিশ্ব'
'▁지구의'
'▁nõlapo'
'▁mbohapy'
'▁దీనికి'
'▁Kup'
'▁தொழிலாள'
'úto'
'100%'
'▁калган'
'▁ક્ષેત્ર'
'▁zamanda'
'▁பிறந்த'
'ություններին'
'▁त्वा'
'▁rätt'
'ithla'
'▁saka'
'▁മനസ്സ'
'گفت'
'iawo'
'▁चिंत'
'▁मह'
'業'
'▁chilengedwe'
'▁vuyelo'
'▁Бары'
'Servi'
'▁आम्ही'
'▁tiyimis'
'piwa'
'▁fluor'
'補'
'▁fidi'
'صدقاء'
'▁వాడు'
'▁قاتار'
'▁uran'
'▁significativa'
'ڑک'
'▁елі'
'ጣል'
'▁кулланы'
'鍛'
'▁amiotonu'
'▁kũvika'
'▁Kimi'
'▁lähen'
'▁පැවස'
'ától'
'▁bolmak'
'灵'
'atuan'
'▁маль'
'银'
'gyrch'
'▁Ο'
'▁dieťa'
'▁dhi'
'▁포함하는'
'hoze'
'зем'
'ropa'
'▁tsone'
'▁يص'
'interès'
'▁полиция'
'▁പ്രോ'
'▁ಮದುವೆ'
'ാസ്ത്ര'
'▁бүлен'
'▁ಕರ್ತ'
'▁oeuvre'
'▁Rinn'
'riamh'
'▁nond'
'צח'
'ugon'
'▁hein'
'▁नुकसान'
'ードの'
'▁ασ'
'▁Мини'
'AV'
'otts'
'▁Şu'
'语言'
'▁ඉන්නෙ'
'▁Malaa'
'▁ushaka'
'▁manba'
'▁mesịrị'
'▁selva'
'▁티켓'
'▁Coup'
'▁demikian'
'piñ'
'▁бөек'
'ukub'
'.....'
'uba'
'माला'
'▁Albert'
'Video'
'▁arada'
'әз'
'žd'
'▁chtít'
'јин'
'▁gullukçy'
'ছু'
'ybody'
'▁anyen'
'▁gio'
'མཐོ་'
'▁தீர்மான'
'▁دۇئا'
'▁árini'
'▁нават'
'lora'
'▁yithu'
'▁marane'
'▁28,'
'▁여자'
'▁Turklāt'
'▁болохыг'
'引っ越'
'wɔna'
'ọrùn'
'த்தர'
'▁kinunana'
'ଟକ'
'cushi'
'▁aleke'
'▁maison'
'▁خواه'
'▁helikop'
'त्मिक'
'ئلده'
'omia'
'▁ప్రొ'
'▁ba'
'▁ਮਿਸ'
'▁نات'
'▁collo'
'▁vyrų'
'▁नीति'
'▁acus'
'гности'
'▁まずは'
'▁Hae'
'ina'
'▁Aş'
'▁कुन'
'engqondo'
'laties'
'▁hkat'
'▁jum'
'स्क'
'xxi'
'ल्ल'
'▁hancur'
'▁어'
'っているのか'
'æð'
'▁ներ'
'▁certa'
'შა'
'▁вредност'
'▁의'
'▁اکثر'
'གཏོར་'
'▁öreg'
'▁vērtības'
'▁cazzi'
'連続'
'▁юға'
'ٽري'
'▁ದೇ'
'ugol'
'▁སྤུན་ཟླ་'
'の子'
'▁növeked'
'▁án'
'▁shanhte'
'▁ордуна'
'▁jarri'
'્વા'
'▁tehty'
'▁برآورده'
'▁ხმა'
'▁Ara'
'▁અટકા'
'▁minorit'
'funda'
'▁něco'
'▁சின்ன'
'༢'
'▁Kanda'
'▁израз'
'奋'
'▁ತಯ'
'τησε'
'Ich'
'ţele'
'ēri'
'▁ആരോ'
'ндарды'
'របស់យើង'
'▁akarja'
'uns'
'arib'
'▁கொ'
'▁மூன்ற'
'▁zade'
'不思議'
'▁माइक्रो'
'▁φίλος'
'▁ετών'
'iksi'
'▁mesele'
'▁mahimo'
'▁రే'
'▁넘는'
'▁started'
'▁hơi'
'▁Ahakoa'
'▁ietekmi'
'Ё'
'▁ठीक'
'▁coop'
'▁shapraw'
'keeda'
'▁pogwiritsa'
'▁skjer'
'▁Anpil'
'▁đựng'
'▁წლამდე'
'▁為'
'раҡ'
'од'
'▁ئەمڕۆ'
'▁permitir'
'▁करिन'
'ێنین'
'▁kemikali'
'letseng'
'▁innovation'
'▁སློབ་མ་'
'▁qor'
'▁stadion'
'▁юлдан'
'▁babenga'
'Bul'
'▁Boh'
'▁سهم'
'⭐'
'▁ಸ್ವಯ'
'▁ᱢᱤᱫ'
'▁Ikke'
'ృతి'
'▁پەن'
'▁Alc'
'▁előre'
'▁bikesa'
'trent'
'̇'
'वीं'
'ivad'
'▁ọbụ'
'▁kaning'
'▁jaro'
'▁Andy'
'▁cyane'
'ոկ'
'▁قلي'
'▁cocog'
'▁끝났'
'ኑ።'
'▁Organisationen'
'▁prís'
'▁birnäçe'
'▁fulgte'
'▁wava'
'▁fejn'
'ថា៖'
'▁kujenga'
'▁nandza'
'▁lab'
'▁Bibli'
'▁ámbito'
'国王'
'콥'
'▁Aten'
'▁Dore'
'▁বিশেষকৈ'
'ಂಪ್'
'▁Penn'
'▁건물'
'▁galimybių'
'ums'
'stanbul'
'▁његова'
'a'
'▁Klu'
'еҙ'
'مەند'
'▁forbindelse'
'▁오른쪽'
'では'
'សំខាន់'
'uther'
'Mag'
'engeng'
'▁ଶବ୍'
'▁boyokani'
'▁atat'
'ಡೆಯ'
'▁друга'
'▁mazunda'
'に対して'
'▁резултати'
'▁leleŋ'
'ദം'
'ïki'
'▁swiharhi'
'▁дигән'
'▁настай'
'йтеся'
'awa'
'▁دايان'
'▁morgenen'
'▁seenaa'
'▁Abans'
'འགྲོ་བའི་'
'▁Nzuá'
'fet'
'▁שהת'
'テーマ'
'▁përsëri'
'▁rọrun'
'ആ'
'であった'
'▁ক্ষেত্রে'
'▁ɛha'
'▁دەنگی'
'▁өс'
'▁모르겠'
'ασίας'
'▁iints'
'▁весь'
'▁ucampis'
'▁남자는'
'▁ضربه'
'arus'
'▁kugadzirisa'
'▁yewoƒe'
'ຣິກາ'
'▁ریه'
'▁Kenan'
'cave'
'ሊዝ'
'▁грек'
'▁हौ'
'лео'
'▁Myslíš'
'▁oip'
'▁يەت'
'▁ฟัง'
'國'
'ବର'
'▁মহ'
'上で'
'▁chúa'
'▁Pami'
'▁ትምህር'
'▁сый'
'▁રંગ'
'▁مۆمىنلەرگە'
'▁незави'
'▁gori'
'▁ሃይማኖት'
'水'
'▁ዱ'
'kuéra'
'▁apakšpunktu'
'Os'
'▁gezin'
'▁Haley'
'▁המקום'
'▁Pati'
'▁bekor'
'▁shani'
'▁Minh'
'▁tšoana'
'▁উৎসাহ'
'▁maalmood'
'хээр'
'▁protokolu'
'▁parofisai'
'पूर्ण'
'▁Muso'
'▁Gru'
'דזש'
'▁суди'
'ogilego'
'▁Ndia'
'▁بہن'
'▁effects'
'tober'
'чени'
'▁とにかく'
'▁ukula'
'映像'
'Ngi'
'▁parti'
'賓'
'үүд'
'futa'
'▁soki'
'▁andmed'
'མི་ཤེས་'
'▁स्पष्ट'
'▁həft'
'বিল'
'▁conf'
'▁دانند'
'▁[3].'
'yona'
'▁богат'
'зей'
'gyblion'
'▁Makanan'
'▁àlùfáà'
'▁무'
'▁pɔtɔ'
'▁Анна'
'ומים'
'▁sugu'
'▁শিজিন্ন'
'amarika'
'apataki'
'▁tumbula'
'imig'
'▁није'
'▁vua'
'▁יכולה'
'▁түсі'
'▁خر'
'лея'
'ћен'
'नंतर'
'▁પાણી'
'ũũraga'
'▁කාලය'
'ვებს'
'▁szom'
'ఆ'
'եի'
'▁Hồi'
'▁૨'
'行動を'
'▁bakang'
'▁Mitgliedstaat'
'โจ'
'ɔti'
'▁калі'
'▁kukuru'
'сыздан'
'▁속'
'▁عبر'
'ٲری'
'माल'
'ವುದ'
'ტრ'
'▁خالى'
'мад'
'əli'
'▁मुद्दों'
'աստան'
'▁adım'
'▁Reinu'
'▁impedir'
'▁خودرو'
'▁bilmir'
'▁ناخۆش'
'▁кні'
'▁colon'
'▁údar'
'▁κεφάλι'
'다면'
'▁گرین'
'▁Eric'
'▁bepergian'
'▁हानि'
'▁fenye'
'▁док'
'▁fella'
'ook'
'▁autoriteiten'
'▁jenom'
'ष्टि'
'▁gompieno'
'▁ariũ'
'ירת'
'▁vokuenda'
'▁ũvũngũ'
'▁paru'
'▁preve'
'դ'
'▁ເດ'
'▁లక్ష్య'
'▁Јас'
'예요'
'▁noteikto'
'▁nêna'
'ازه'
'▁أغ'
'ządz'
'阅'
'▁क्रिस'
'▁sopra'
'▁कन'
'▁Ambeni'
'pierw'
'▁heading'
'輸出'
'▁同'
'▁Tās'
'▁cartref'
'と言われています'
'▁ods'
'▁ideas'
'▁kgathale'
'▁gun'
'▁사랑을'
'▁நிலை'
'ניק'
'▁contrôle'
'▁Jē'
'▁ɔsɔ'
'wanza'
'▁asasin'
'▁Test'
'ព្រម'
'در'
'uskan'
'▁ارتباط'
'▁diad'
'▁waiting'
'caksın'
'▁lieber'
'▁ukhona'
'weeg'
'▁matutua'
'▁ንላ'
'ması'
'▁Epa'
'▁ನಿಜವಾಗಿಯೂ'
'▁стверджу'
'▁балалар'
'ారీ'
'▁เพื่อน'
'▁huköm'
'itiitia'
'ၼ်ႈတႃႇ'
'▁nhiệm'
'зда'
'gon'
'▁unaweza'
'▁yaso'
'തല'
'kãens'
'隔'
'▁yiwen'
'ლში'
'▁Ayon'
'▁เอ่อ'
'▁ひ'
'▁स्तन'
'зен'
'▁nkutu'
'▁Ма'
'espai'
'▁সামনে'
'▁ປ'
'ətdə'
'▁jinoenyoe'
'▁Wide'
'aduse'
'▁vosaltres'
'▁lumella'
'▁መወዳእታ'
'રેક'
'▁retningslinjer'
'▁Wẽnnaamã'
'▁Kenneth'
'▁viver'
'▁விளையா'
'▁hjál'
'▁thập'
'amara'
'▁põhj'
'▁แ'
'▁आइस'
'墳'
'▁gysylltu'
'▁সন্ধান'
'▁СП'
'ძლიათ'
'▁特に'
'▁boyekoli'
'▁voy'
'வதை'
'▁көндәр'
'▁skyri'
'▁respeto'
'ŋlɔ'
'▁seems'
'▁ekipo'
'ေါ်'
'▁아니'
'▁είχα'
'▁Ɛnyɛ'
'▁faqe'
'୍ରୀୟ'
'▁honi'
'▁ҷониби'
'▁суспільства'
'▁línea'
'čega'
'▁अनुग्रह'
'raven'
'▁هیدایه'
'▁چؤرک'
'▁levar'
'▁सता'
'▁bigger'
'ıyorum'
'ছত'
'▁айтып'
'āšanu'
'innig'
'▁상징'
'▁మీరే'
'▁pytanie'
'ђују'
'▁pencari'
'▁гости'
'▁taha'
'▁सदस्यों'
'venir'
'էք'
'▁لگتا'
'▁Umoja'
'qes'
'しませんでした'
'asjons'
'▁ટૂ'
'▁ھايات'
'心理'
'▁Gilbert'
'▁xiboho'
'গা'
'▁tusaanidde'
'▁luui'
'osse'
'ହରଣ'
'arali'
'ленән'
'▁orb'
'dong'
'ittaa'
'▁bijlage'
'wayat'
'ত্র'
'▁forced'
'▁लगा'
'▁ngakumbi'
'nug'
'▁rarawa'
'▁чија'
'appa'
'Has'
'▁fina'
'▁yingisa'
'▁gebore'
'学校'
'▁asir'
'чака'
'юз'
'▁donné'
'▁teachd'
'▁mụtara'
'▁साझे'
'▁һич'
'▁podjetje'
'▁bugu'
'ষ্টা'
'絶対'
'▁отыры'
'erá'
'▁ပါ။'
'▁पथ'
'▁ekonomik'
'میر'
'▁терористи'
'યે'
'▁هاميس'
'▁kraftig'
'त्त्वा'
'▁කල'
'▁ecc'
'интере'
'▁campuran'
'vár'
'ავად'
'ঞ্জ'
'თვის'
'▁minuts'
'▁ядро'
'▁तुरंत'
'▁ଗୁ'
'ণৰ'
'▁koyi'
'▁мақса'
'jxo'
'▁biwe'
'▁žod'
'▁cence'
'hoofolo'
'▁её'
'▁бать'
'qol'
'wisana'
'اں'
'▁sleep'
'▁Ubangijin'
'小売'
'ńca'
'▁белги'
'▁mfumo'
'▁Chipwe'
'▁mār'
'▁Wol'
'▁-¿'
'hlekelele'
'윈'
'▁esošo'
'▁келі'
'वर्त'
'▁dɔkun'
'▁sosai'
'▁інте'
'▁olhar'
'▁tlɛ'
'дарә'
'Simakadze'
'▁ဝဵင်း'
'▁ماذا'
'▁tula'
'▁Rock'
'東'
'母親'
'▁κάτω'
'рид'
'▁setšhaba'
'▁Maũndũ'
'▁بافت'
'bit'
'ပုံ'
'ဆိုင်ရာ'
'▁ping'
'▁whisky'
'▁Opra'
'ica'
'▁எதிர்பார்க்க'
'▁tsoang'
'▁øde'
'▁hos'
'▁primeran'
'▁Zum'
'ۇنى'
'▁momentu'
'▁популяр'
'▁ትልቅ'
'भौ'
'ເນ'
'▁menest'
'▁ప్రమాణ'
'▁ਲਿਖਿਆ'
'▁módon'
'▁მშობ'
'▁fəali'
'▁buna'
'▁березня'
'▁회의'
'න්ධ'
'▁ሀገር'
'▁kontinua'
'▁estoy'
'▁chhi'
'▁ýör'
'▁Benim'
'▁binéh'
'▁angĩ'
'biles'
'Kun'
'▁obzir'
'▁المس'
'▁manda'
'lé'
'▁65'
'រគុណ'
'▁बाळा'
'шната'
'▁ঝুঁ'
'yigikira'
'▁bɛlɛ'
'▁vnútro'
'▁abali'
'▁चुन'
'▁уг'
'meh'
'▁copil'
'▁оҙаҡ'
'papo'
'▁anyag'
'▁uram'
'▁măs'
'▁دهیم'
'iləcək'
'asala'
'▁wubetumi'
'পার'
'▁sign'
'▁tajā'
'▁vildi'
'▁fetoha'
'పోయింది'
'approvazzjoni'
'▁podent'
'▁buke'
'▁унија'
'▁그때'
'▁susseg'
'▁boshqar'
'ينى'
'▁떠오'
'genza'
'etina'
'▁ceng'
'▁ल्या'
'‰'
'▁Разбира'
'▁يولغا'
'អាច'
'▁రహ'
'▁изпълнение'
'▁jih'
'▁enc'
'чила'
'▁Puwangngé'
'▁transportes'
'Ò'
'өөк'
'▁proyectos'
'▁cort'
'▁mustah'
'yadong'
'▁예배'
'раш'
'▁përsh'
'▁assunto'
'▁ነፍሲ'
'症'
'ⵛ'
'ėmis'
'▁Apre'
'▁eten'
'▁ଫେରି'
'▁tråd'
'▁ចុង'
'▁예술가'
'▁ಅಸ'
'▁পেয়ে'
'▁айып'
'▁هاميسيني'
'▁acmha'
'▁atsižvelgiant'
'▁دانشگاه'
'▁Apoc'
'▁نئن'
'▁faatatau'
'道の'
'amanya'
'wenyo'
'▁还'
'▁ngwavo'
'▁iepa'
'vari'
'▁mbisi'
'▁alış'
'▁ស្ថាន'
'▁देखो'
'▁тасымалдау'
'ୋଇ'
'▁dda'
'▁lilemong'
'▁اتمه'
'▁sarana'
'orca'
'▁vɩɩm'
'ravimo'
'▁lënd'
'կային'
'รวจ'
'ordre'
'वर'
'▁ederra'
'▁ໄວ້'
'▁apua'
'▁기대'
'▁Sci'
'▁anwo'
'▁jard'
'▁rejet'
'топ'
'▁जानत'
'▁булы'
'2-14)'
'zdrav'
'▁କାହାର'
'udi'
'▁Mos'
'▁داشته'
'rada'
'ịta'
'Es'
'▁نگ'
'お客'
'အုပ်'
'▁facts'
'imm'
'▁ходе'
'дь'
'▁ndikus'
'▁lífi'
'忙'
'▁liela'
'▁alohida'
'ál'
'エンジン'
'▁2"'
'▁용감'
'zjon'
'sün'
'▁prêts'
'▁மைய'
'ிருப்ப'
'▁guha'
'욱'
'unwa'
'▁anställ'
'လိူၼ်'
'▁staan'
'ოფ'
'▁փոքր'
'ότι'
'Matigi'
'▁mozu'
'▁encontro'
'▁liu'
'ekat'
'▁atid'
'▁förde'
'▁يؤ'
'▁sterk'
'itheoir'
'▁पूर्णपणे'
'▁מצ'
'▁аңа'
'▁Rao'
'ishni'
'்களுக்கு'
'▁kobanda'
'ඕ'
'WO'
'▁Gesch'
'▁Isaaya'
'帖'
'ligh'
'▁දරුව'
'ರುತ್ತದೆ'
'▁есть'
'▁gefa'
'▁ব্যা'
'▁bý'
'baihan'
'▁Manam'
'▁δουλεύ'
'কেল'
'បន្ទ'
'Nanging'
'▁rezon'
'nému'
'▁noin'
'▁gaséh'
'žiš'
'▁matsayi'
'エラ'
'Ɖ'
'▁gesch'
'▁росі'
'λαμβ'
'▁бисё'
'▁nguchi'
'▁obrir'
'likle'
'zij'
'▁дому'
'▁nti'
'▁skoon'
'---'
'ätwa'
'യോഗ'
'itada'
'▁kawalan'
'лије'
'▁qilayotgan'
'xiri'
'▁menemene'
'▁cantu'
'반'
'▁utji'
'▁balsu'
'aliswa'
'▁সাংবাদিক'
'▁시리아'
'▁htjela'
'▁خێرا'
'▁näeb'
'▁ĝis'
'▁lisalisi'
'isak'
'▁erin'
'ىدىن'
'▁vess'
'▁안'
'▁saraka'
'的神'
'liyi'
'critu'
'▁eksterne'
'▁Bunların'
'花'
'▁Natan'
'▁гово'
'▁population'
'▁trīs'
'▁我的'
'▁srityje'
'▁libuka'
'を与え'
'hlok'
'jend'
'lacions'
'▁кедендік'
'▁But'
'▁predp'
'▁бидо'
'стно'
'्यः'
'▁기업의'
'▁китеп'
'▁enpò'
'riy'
'▁lini'
'▁atnauj'
'▁並且'
'ሺ'
'▁tka'
'▁používan'
'erra'
'enye'
'أن'
'▁yĩĩ'
'सेना'
'არო'
'moyo'
'▁söýgü'
'▁tää'
'▁atlet'
'▁manene'
'▁گەرد'
'lese'
'ilor'
'制作'
'hig'
'▁դիտ'
'kooda'
'▁dometɔ'
'ادن'
'任意'
'ungamirira'
'ադար'
'heits'
'▁prensi'
'▁あなたがたは'
'anganye'
'▁Framework'
'枉'
'тардан'
'▁uten'
'anken'
'▁udělal'
'▁heima'
'uruhan'
'▁afwile'
'▁खैर'
'▁iný'
'시킬'
'വിധാന'
'▁कामा'
'ೆಂದು'
'ttal'
'▁nuw'
'idid'
'្យ'
'▁ufusa'
'ضان'
'fanywa'
'urd'
'mich'
'▁bagus'
'爲'
'▁musow'
'alisar'
'▁Then'
'▁خوشح'
'▁업'
'▁ຫຼາຍ'
'▁leathanach'
'лоп'
'▁Squ'
'▁ਹੱਕ'
'▁ส'
'▁امریکی'
'▁vemos'
'▁Buka'
'▁kubuya'
'▁është'
'▁पुछ'
'▁àrees'
'িয়াই'
'▁27'
'▁атынан'
'▁ਸਿੱਖ'
'▁dacu'
'▁শর'
'اے'
'▁imibono'
'ዘዝ'
'▁Ix'
'▁UYehova'
'▁ཕྱི་'
'▁spôsobom'
'诗'
'▁ntanshi'
'▁оцін'
'▁bolelang'
'▁मजदूर'
'ìè'
'▁šie'
'ovaným'
'▁পৰম'
'▁ನಮ'
'▁komitejas'
'▁fiza'
'▁tepet'
'banding'
'▁htung'
'▁kgethegileng'
'▁walik'
'▁zmen'
'宪'
'ھے'
'▁মো'
'▁ဟော'
'▁dürli'
'nutím'
'istrazzjoni'
'▁kisangusangu'
'▁writ'
'▁അനുവദ'
'▁Gj'
'▁sché'
'imientos'
'▁બિન'
'▁বিভ'
'▁ила'
'▁নিম্ন'
'▁Nay'
'sɛɛ'
'▁reaksi'
'▁Bamwe'
'︎'
'wili'
'▁ቅር'
'ER'
'▁Kple'
'ᱜᱮ'
'▁Egutu'
'intah'
'LB'
'▁ആളുകൾ'
'▁descend'
'▁экологиялық'
'intona'
'ywa'
'▁turismo'
'▁ору'
'▁girl'
'▁ຈໍາ'
'zē'
'fama'
'▁ունենք'
'▁bermula'
'▁serious'
'arbe'
'▁කැමැත්ත'
'Ver'
'▁мекунед'
'lahay'
'寿'
'▁صند'
'ാണ്'
'వర'
'▁Nap'
'▁shahar'
'▁ավ'
'ongezelela'
'ulu'
'▁menyebar'
'▁ناهي'
'▁ऐ'
'▁18:2'
'▁wakayowoya'
'▁サン'
'측'
'rɛ'
'▁اجتماعی'
'▁seumur'
'▁नए'
'▁taber'
'▁kaikkia'
'▁prosent'
'▁fede'
'▁बजा'
'တာပေါ့။'
'phine'
'▁main'
'▁/>'
'▁Kada'
'jare'
'▁پزی'
'▁vakarorogo'
'▁Duniya'
'ણ'
'푼'
'▁మార్చ'
'πισ'
'▁Beijing'
'uli'
'Ona'
'uniden'
'▁भोजन'
'▁vakale'
'▁ζώ'
'▁Джо'
'▁キ'
'▁wanti'
'▁ඉ'
'▁কিতাপ'
'▁ādas'
'Time'
'ovaní'
'انهن'
'▁skjø'
'▁Hep'
'▁nasyo'
'▁nakoana'
'▁پەنج'
'▁leš'
'▁amaxesha'
'▁monro'
'▁Jan'
'▁diiala'
'▁Già'
'▁namų'
'འེ་'
'▁elsker'
'▁ਸਭ'
'▁diret'
'▁ଶାନ୍ତି'
'▁Jesusar'
'▁لکه'
'▁होही'
'▁khama'
'▁derin'
'▁ɔwɔ'
'▁자리'
'まった'
'▁مجوز'
'തൽ'
'▁تۇت'
'▁mfalme'
'▁hwenu'
'▁हुन्थ्यो'
'thni'
'▁eitt'
'人権'
'▁İsa'
'illet'
'လုပ္'
'▁møguleika'
'ʇ'
'▁takim'
'▁конф'
'▁یش'
'▁sibonelo'
'བཀའ་ཁྲིམས་'
'ър'
'ⵅⴼ'
'▁భవి'
'▁үүнийг'
'▁Talán'
'▁Supr'
'ilina'
'▁zabil'
'▁poziva'
'sign'
'▁пайдалану'
'chikiza'
'▁ଲୁ'
'▁ئەۋ'
'angka'
'▁givim'
'спар'
'▁বিশ্বাস'
'borne'
'ligining'
'▁wairua'
'ക്കം'
'▁мэдэхгүй'
'ミネ'
'▁اوپر'
'▁پێی'
'▁осе'
'▁जाब'
'データは'
'gum'
'▁cipi'
'▁place'
'ʣ'
'▁ṣíṣe'
'हिन'
'▁podeu'
'▁dal'
'▁۱۰'
'소가'
'▁elke'
'धे'
'elske'
'▁དཀའ་ངལ་'
'▁během'
'▁வெளி'
'inggian'
'▁bilirəm'
'▁ծր'
'▁ideologi'
'магыз'
'▁አፈ'
'ohenda'
'▁mercan'
'▁øver'
'▁wowu'
'▁मुख'
'▁trase'
'欣'
'▁എനിക്ക്'
'▁наша'
'▁ನಿಮ್ಮ'
'▁አውቃ'
'▁zarete'
'ulaka'
'amboatra'
'isesti'
'▁enei'
'side'
'アフ'
'zodzwa'
'▁पसंदीदा'
'▁منط'
'མཚམས་'
'▁tokio'
'▁mopɛ'
'▁vreodată'
'▁thĩna'
'段階'
'▁өнім'
'ђи'
'▁unika'
'andakanya'
'▁કરતાં'
'usut'
'▁오'
'▁bakam'
'剃'
'▁(2'
'▁Level'
'vote'
'▁seksua'
'▁ipi'
'▁Satan'
'▁პროცეს'
'▁Joom'
'▁produse'
'▁እንተዘይ'
'дар'
'ချိန်မှာ'
'enhu'
'فة'
'▁ئاماد'
'▁Tohle'
'▁དང་གཅིག་ཁར་མི་'
'rof'
'▁hera'
'▁ngalaba'
'▁while'
'▁universo'
'▁sipan'
'▁kesepakatan'
'▁görev'
'▁Pip'
'▁pateik'
'adero'
'▁landbouw'
'wike'
'▁nail'
'▁آيري'
'▁ၼင်ႇ'
'▁כאלה'
'టల్'
'ARC'
'▁විසින්'
'▁dangant'
'▁relativt'
'▁meitä'
'umb'
'yí'
'▁hạnh'
'بې'
',18'
'ız'
'መይ'
'▁සමඟ'
'▁provi'
'▁ዋ'
'▁Bretaña'
'▁kardiovas'
'▁preparar'
'ጽ።'
'▁nenten'
'alada'
'▁pregunta'
'fare'
'inājumā'
'ంటర్'
'▁ትዕ'
'▁çağ'
'▁chestis'
'▁luni'
'▁kūd'
'▁Akolintho'
'▁sąra'
'▁བགོ་བཤའ་'
'臘'
'ལུང་ཕྱོགས་'
'ຫວ'
'▁পৌঁছ'
'ся'
'▁rō'
'▁piedi'
'▁uto'
'warga'
'▁vs'
'▁উত'
'▁pitisa'
'iphiqo'
'cuali'
'▁Kabeh'
'▁dzisiaj'
'ਖ਼'
'▁vóór'
'▁କଂଗ୍ରେସ'
'▁മുന്ന'
'▁rispetto'
'ттарының'
'탭'
'fuv_Latn'
'াৰণ'
'▁novad'
'limatta'
'▁všeobec'
'▁തോന്നുന്നു'
'▁whā'
'ეზ'
'▁chòir'
'▁këto'
'▁onego'
'ូដ'
'▁infan'
'▁Might'
'▁சுமார்'
'ืน'
'牧師'
'▁hedduun'
'▁Abraham'
'andaş'
'▁comercial'
'▁privind'
'མཚོའི་'
'▁だが'
'3),'
'ং'
'fero'
'▁morajo'
'▁guts'
'▁ቀላል'
'▁asina'
'▁Prom'
'itoj'
'▁ರಕ್ಷ'
'hor'
'anap'
'տանգ'
'▁määratud'
'▁Castro'
'མཆ'
'apak'
'მა'
'▁wiha'
'jedin'
'▁ėmė'
'ီ'
'▁yera'
'▁ኤ'
'ikit'
'▁hamorao'
'ච්ඡ'
'atki'
'▁ପରିଚାଳ'
'▁apresenta'
'ких'
'ңғы'
'ēl'
'▁deziras'
'etting'
'▁폭탄'
'▁sive'
'厉'
'▁састо'
'▁ስርዓ'
'alele'
'▁світу'
'るの'
'▁aksepte'
'išk'
'▁akufuna'
'▁Muut'
'通信'
'dern'
'धी'
'bam'
'▁उठ'
'ээгүй'
'▁vinyo'
'誰もが'
'▁počas'
'▁ప్రశ్న'
'▁ଆଇ'
'rici'
'▁kimfumu'
'▁تۈرلۈك'
'▁yakazara'
'য়েছে'
'▁eloko'
'来ました'
'▁çevir'
'ວາ'
'പോലും'
'▁old'
'гово'
'▁ತಂತ್ರಜ್ಞಾನ'
'▁reuni'
'▁bolella'
'籠'
'łączn'
'otora'
'vaj'
'▁ክሳብ'
'ွႆႈ'
'▁മാറ'
'རབ་'
'ląda'
'▁răng'
'lls'
'▁siècle'
'mät'
'▁මෙන්'
'▁lidah'
'▁Jul'
'満足'
'мізді'
'▁належить'
'анд'
'▁öner'
'▁kutuba'
'ческие'
'▁Sè'
'handi'
'降临'
'िमी'
'Kristo'
'fai'
'▁Ehe'
'luan'
'muh'
'emporary'
'ilis'
'ାବି'
'▁kërk'
'▁Gade'
'ilerine'
'펜'
'▁hlavu'
'▁rhannu'
'▁fami'
'asaa'
'▁ដ៏'
'ስ።'
'避免'
'eniu'
'▁sønn'
'▁sơ'
'▁visok'
'prowad'
'▁ئىلىم'
'▁জা'
'akamana'
'ikku'
'▁planen'
'▁pievieno'
'▁kadang'
'▁kʋ'
'▁지역에'
'weretsa'
'▁chaitheamh'
'▁хе'
'▁rtas'
'ambwa'
'▁را'
'▁onnur'
'ayhu'
'▁salu'
'数が'
'▁katuq'
'▁panem'
'▁nsango'
'▁샀'
'▁herin'
'▁their'
'gangspunkt'
'បង់'
'▁GMO'
'▁возможно'
'ារ្យ'
'▁גא'
'ায়ী'
'Kɔc'
'▁ASEAN'
'▁parda'
'▁tarif'
'▁уруу'
'▁ragazze'
'▁ngaliwatan'
'▁överens'
'壮'
'▁одер'
'▁Jahren'
'▁olokolo'
'▁ମୋ'
'टिश'
'¢'
'내고'
'▁inre'
'▁nevyhnut'
'▁гэж'
'కరంగా'
'antal'
'ሓፍ'
'発達'
'▁tapos'
'▁ለተ'
'▁ରାତି'
'يرسينيز'
'▁Неу'
'▁hald'
'▁nkw'
'▁tàn'
'Mail'
'▁conxunto'
'▁umugisha'
'▁47,'
'▁गल'
'ৰাষ্ট্ৰ'
'પાન'
'▁༈'
'▁sekiranya'
'▁Фі'
'տես'
'▁rakyat'
'aturan'
'▁gadsim'
'▁қатты'
'▁lebel'
'▁ūá'
'တိုက်'
'▁Joshua'
'▁רב'
'▁zabantu'
'▁ਭੈ'
'ᱟᱹᱜ'
'▁yapu'
'enik'
'ก่อน'
'晩'
'▁ark'
'xda'
'▁своему'
'เตือน'
'▁Ireland'
'▁방송'
'▁차이가'
'▁hại'
'▁deja'
'▁τροπο'
'▁mabhuku'
'▁ಕುಳಿತು'
'ṭa'
'стырылады'
'dg'
'▁облыс'
'▁ethĩwe'
'ੈਡ'
'▁hiala'
'▁ائکي'
'▁ktorými'
'▁સૌથી'
'▁damb'
'▁ارسال'
'▁वहीं'
'クルマ'
'▁коммуна'
'▁neie'
'ली'
'स्मा'
'▁distingu'
'ria'
'চীন'
'čejo'
'▁բայց'
'سب'
'گي'
'▁Victoria'
'សម្'
'▁inx'
'▁bày'
'мога'
'▁قلت'
'▁membe'
'letso'
'▁hắn'
'пите'
'▁Find'
'▁ਜਿਹਾ'
'ئق'
'▁Før'
'▁সন্তান'
'▁projektov'
'▁меся'
'баев'
'▁Gore'
'ਥੀ'
'mira'
'дете'
'prat'
'▁Single'
'ཟེར།'
'▁wcześ'
'ūrų'
'гени'
'كەر'
'▁пояс'
'akanisi'
'▁같다'
'àrna'
'ansin'
'▁сөзсүз'
'እና'
'toim'
'▁अहिले'
'▁riziką'
'รี่'
'国家'
'▁іс'
'▁mengalir'
'▁پي'
'kut'
'āli'
'▁Record'
'男性'
'▁ndaba'
'▁reetsa'
'ကြွ'
'如'
'▁Again'
'prezzijiet'
'包含'
'▁ජය'
'▁оруж'
'▁cúpla'
'▁penggunaan'
'ريت'
'▁Motiv'
'▁overensstem'
'▁འད'
'▁기억'
'zit'
'joo'
'▁popol'
'ждени'
'王国'
'须'
'edral'
'▁Ιεχωβά'
'ニング'
'▁swin'
'ગીરી'
'▁bepaald'
'▁amico'
'▁ئۆتكەن'
'▁انہیں'
'▁ئەوانەی'
'לת'
'فضل'
'▁përmend'
'▁بولى'
'▁зони'
'오늘'
'▁ഉണ്ടാക'
'▁Psalm'
'▁dinañu'
'▁escapar'
'▁ozo'
'▁54:1'
'ವೃತ್ತ'
'cä'
'ื้น'
'▁ghníomha'
'▁По'
'▁bekym'
'▁sellainen'
'▁nɔnɔ'
'▁Pétérù'
'▁предмет'
'nɩ'
'▁kualitas'
'▁ڕاستە'
'提供的'
'▁आकर्षक'
'▁Raris'
'▁সুখ'
'▁övlad'
'ოლი'
'▁används'
'lağan'
'कर्ताओं'
'▁ಸೃಷ್ಟ'
'iganiro'
'▁cells'
'atanzwe'
'▁명의'
'▁Kendo'
'akɩ'
'фект'
'▁منھ'
'▁chắc'
'▁ସାକ୍ଷ'
'▁મ'
'▁mukhale'
'▁بان'
'య్య'
'▁शक्त'
'▁அதனால்'
'▁분야'
'▁להשיג'
'▁патрэ'
'▁natuk'
'likhulu'
'लाल'
'▁በማንኛውም'
'▁aniq'
'▁parch'
'གཟིགས་'
'▁oportunidade'
'▁ensure'
'▁TI'
'▁mitema'
'رست'
'▁më'
'▁있어'
'▁GR'
'▁tajn'
'▁Kõige'
'ាត់'
'▁muci'
'▁Sank'
'▁Ludzie'
'▁спе'
'okun'
'▁tahd'
'amesom'
'▁deixou'
'▁लागले'
'ósitos'
'▁apaan'
'▁enthält'
'▁שת'
'▁واش'
'▁tekshir'
'perijodu'
'▁Déanann'
'▁naši'
'ági'
'▁mumo'
'▁ntik'
'ondomeko'
'▁ήμουν'
'yordum'
'▁eksportu'
'▁Sig'
'▁менамо'
'▁patvirt'
'▁taisn'
'س'
'▁ді'
'▁Ak'
'▁dê'
'ხედ'
'▁Ancak'
'▁باش'
'▁الخاص'
'▁aña'
'▁پێویستە'
'osaa'
'ent'
'etzen'
'▁semuanya'
'▁siseri'
'ayamba'
'▁माइ'
'▁Kà'
'▁چىراي'
'ොත්'
'▁સક્ષમ'
'▁Під'
'▁serti'
'▁դեղ'
'urumidza'
'ũmĩa'
'▁চৰকাৰে'
'▁녹색'
'▁ఐదు'
'▁염려'
'▁denarja'
'▁nglanturang'
'贵'
'▁gelu'
'delelu'
'규모'
'twi_Latn'
'▁tighinn'
'▁Questa'
'▁gestió'
'▁inyaniso'
'▁అలాగే'
'▁бюджета'
'čajno'
'▁된다고'
'▁manusane'
'▁attiec'
'늘'
'▁appro'
'▁Matsalwa'
'▁讓'
'ంటీ'
'▁Cross'
'ுக்க'
'voja'
'▁հազ'
'▁hene'
'▁istirahat'
'ycz'
'▁نجه'
'ကောင်းတဲ့'
'▁باي'
'▁kelgan'
'ୋନ'
'▁লগতে'
'loob'
'▁ұйы'
'▁maniero'
'▁masinak'
'▁pink'
'▁親'
'▁arai'
'enji'
'veza'
'akụkụ'
'▁기다려'
'▁ohecha'
'▁Shar'
'▁maikaelelo'
'▁digawe'
'▁akur'
'ദി'
'▁그를'
'▁komplett'
'▁بنگ'
'机制'
'▁سأكون'
'embeka'
'▁Vaefesa'
'Tongana'
'▁metá'
'▁vidjeti'
'▁Perry'
'▁sladkor'
'▁ਮੰਤਰ'
'ಚಿತ'
'▁mwyn'
'▁keber'
'ach'
'▁zast'
'unyelwa'
'▁uwal'
'шу'
'▁わたし'
'▁ਵਾਲਾ'
'adas'
'▁zem'
'▁있도록'
'▁menghitung'
'▁یې'
'▁ル'
'inginan'
'▁dèan'
'hir'
'▁하십시오'
'▁Mwaka'
'▁주었습니다'
'▁Paske'
'▁Библи'
'üsse'
'▁സാധ്യ'
'દ્ધિ'
'▁3:7'
'▁ወላ'
'▁супра'
'▁стре'
'▁تحب'
'▁Tony'
'▁നൽകുന്ന'
'띠'
'▁dene'
'штан'
'urnal'
'ɖó'
'▁అందించ'
'ווא'
'을위한'
'vuga'
'▁Stati'
'isee'
'▁энергетика'
'規模'
'च्छ'
'▁pagpam'
'▁siyos'
'▁siv'
'añu'
'▁munnu'
'▁mwyaf'
'▁কাজের'
'▁Eeb'
'γγελ'
'▁ਗੁਣ'
'jenega'
'سبب'
'▁lelapeng'
'▁didalam'
'nede'
'▁dziewczyn'
'akoso'
'сінде'
'▁atike'
'▁jaKalunga'
'▁අලුත්'
'▁tuần'
'▁ngia'
'▁লোকে'
'▁slova'
'▁Freder'
'▁withu'
'ట్'
'▁giữa'
'ována'
'▁onlarla'
'写真'
'▁ສາ'
'चित'
'▁dhashay'
'▁kampuni'
'▁pusaka'
'▁padibu'
'تص'
'▁dout'
'ates'
'▁مەک'
'▁gyakorlat'
'▁সঠিক'
'ཚབ་'
'▁neposredno'
'▁ถึง'
'▁Pár'
'ելուց'
'▁ਜ਼ਿੰਮੇ'
'▁گوج'
'▁sappiamo'
'潰'
'▁gotlhe'
'▁அளவு'
'서'
'▁ibar'
'▁அதன்'
'▁Jɔ'
'แหละ'
'2%'
'เที่ย'
'▁zoona'
'▁Register'
'▁заб'
'▁všetko'
'▁Mumbai'
'▁työn'
'льных'
'▁sebopeho'
'allan'
'▁kwenzeka'
'▁boletše'
'▁szy'
'ków'
'▁hpra'
'▁jangka'
'idi'
'▁siapakah'
'▁ئىبادەت'
'▁swonghasi'
'#'
'▁daunim'
'▁Ву'
'▁zlep'
'▁हाइ'
'neš'
'▁δρόμο'
'▁Энэ'
'сьці'
'ustru'
'▁ზოგ'
'ંને'
'Kim'
'▁የለው'
'▁உயிர'
'▁eren'
'amini'
'▁씨앗'
'▁ಮಾಹಿತಿ'
'▁استطيع'
'ი'
'即使'
'һо'
'▁Oleh'
'▁bernilai'
'▁body'
'ovaných'
'......'
'▁марта'
'▁е'
'▁एल'
'▁im'
'बरा'
'離開'
'쎄'
'▁kön'
'▁lager'
'▁monit'
'կանում'
'▁montan'
'してきました'
'▁現実'
'okod'
'▁Male'
'ხე'
'▁helyszín'
'sinsɛn'
'▁pes'
'▁أنتم'
'▁मुलां'
'▁분명'
'▁fä'
'▁møguligt'
'▁devu'
'▁initi'
'▁Là'
'擴'
'okho'
'▁അങ്ങ'
'▁ост'
'▁bakit'
'▁response'
'ኛው'
'ativit'
'▁eleman'
'貿易'
'▁cún'
'▁кесе'
'▁Jel'
'▁फिल्म'
'▁оси'
'▁prejudi'
'adega'
'tivu'
'ູ້ນໍາ'
'▁pii'
'NK'
'persuna'
'▁Rīgas'
'▁dtg'
'▁위원회'
'haontú'
'▁vym'
'▁pemba'
'adael'
'▁उसकी'
'▁Femin'
'usika'
'▁ପାର'
'▁tangata'
'▁Estava'
'▁Содан'
'▁בעצמ'
'▁księ'
'▁spreag'
'▁kukuatekesa'
'▁phepa'
'▁propri'
'▁օդ'
'▁whakamahia'
'▁bosupi'
'▁laaye'
'▁लग'
'chs'
'quer'
'▁توغرا'
'tette'
'ekongelo'
'▁technológie'
'ęż'
'ጠሩ'
'quq'
'▁गेलाह'
'ాలలో'
'ћих'
'見つ'
'▁mukaji'
'▁37:2'
'ジャ'
'▁teño'
'▁Pane'
'▁ħaż'
'дүк'
'ဝၢၼ်ႈ'
'▁toko'
'litzar'
'ظہ'
'▁nsuo'
'▁мәліметтер'
'vinn'
'▁හො'
'▁Caribbean'
'▁ኣለ'
'っていなかった'
'▁mametraka'
'言うと'
'▁ಊಹ'
'ayin'
'▁vovo'
'▁아브라함'
'▁dɛsɛ'
'▁Repub'
'しまう'
'▁эту'
'▁IC'
'ବାନ'
'▁meist'
'▁segd'
'▁नेहमी'
'новити'
'▁খেল'
'▁doeltreff'
'éadfadh'
'関連する'
'▁4:12.'
'▁Lithu'
'場'
'കുതി'
'ukalamba'
'▁hóa'
'▁ಅವರಿಗೆ'
'лля'
'▁претход'
'▁ovoga'
'▁పారి'
'▁Emo'
'లోని'
'▁wall'
'▁бәсеке'
'▁Немо'
'▁akti'
'indig'
'ຮັບ'
'▁hial'
'▁Sawuli'
'▁دشوار'
'øring'
'▁यत'
'▁көрә'
'▁muéne'
'▁авгу'
'▁nnali'
'▁சார்'
'▁zápas'
'▁zmiz'
'▁ദൈവ'
'ñan'
'▁hình'
'▁kieki'
'▁nostri'
'▁tanaman'
'▁kitu'
'▁Tingim'
'▁칭찬'
'▁održ'
'▁옛'
'▁kādas'
'ungkul'
'ខាន់'
'▁сә'
'▁ayun'
'▁відрі'
'▁పరిష్'
'▁бастапқы'
'ıc'
'పడి'
'américa'
'▁හදා'
'لره'
'ovinu'
'gle_Latn'
'▁lespri'
'сред'
'ception'
'▁انتہائی'
'▁упла'
'▁ትርጉም'
'DE'
'▁tshit'
'▁Qi'
'溪'
'▁aktív'
'▁እርምጃ'
'▁सं'
'íà'
'▁sambo'
'odin'
'▁아이디어를'
'श्वर'
'үт'
'័រ'
'aduate'
'▁தமி'
'▁vari'
'▁mẫu'
'akobi'
'▁jörð'
'▁안전을'
'▁sibon'
'うちに'
'▁ris'
'▁ahogy'
'ăl'
'▁Kamera'
'▁अजूनही'
'▁តើអ្នក'
'▁kolonepa'
'▁रूप'
'▁개인'
'▁βγά'
'▁الض'
'▁सबूत'
'ാഭ്യ'
'▁zdo'
'ңды'
'▁сил'
'▁diante'
'人間'
'▁사람들의'
'▁জীৱনত'
'▁Tomas'
'ําลัง'
'▁tlwa'
'malıdır'
'▁compos'
'▁ɔyɛɛ'
'น้'
'یم'
'ಿದು'
'▁Ҷ'
'embwa'
'真正'
'чної'
'pri'
'▁SAM'
'tio'
'dera'
'מין'
'▁θυμά'
'▁पता'
'▁nais'
'▁taabã'
'ĕ'
'munt'
'▁hanji'
'▁хирур'
'itaja'
'кы'
'wiwe'
'▁gau'
'▁بنیادی'
'▁Advanced'
'▁zalo'
'今年の'
'נם'
'197'
'fl'
'▁studie'
'ποιη'
'ריים'
'▁Каза'
'▁байланыштуу'
'▁чыгы'
'▁Bre'
'جس'
'uganda'
'ურთ'
'inip'
'▁conflict'
'▁kwaĩ'
'▁Љ'
'şan'
'紗'
'▁rrit'
'▁табан'
'▁Вақте'
'itât'
'▁Hệ'
'▁effeithiol'
'▁víctimes'
'▁इत'
'▁banker'
'▁sula'
'▁ezeket'
'▁dock'
'ניס'
'▁Feuer'
'靜'
'ẫu'
'▁aktivt'
'▁پک'
'▁lunghelo'
'▁26;'
'▁chunye'
'▁ମାରି'
'▁suri'
'▁Source'
'▁1975.'
'▁Fj'
'▁ল'
'▁totoo'
'Jak'
'vê'
'▁Sawulo'
'▁tecnologies'
'lado'
'▁alami'
'▁አለው'
'sið'
'▁поране'
'▁mengungkapkan'
'ۇن'
'▁tari'
'න්නා'
'▁udah'
'દી'
'▁ndry'
'sin'
'▁واضح'
'ishoni'
'carbon'
'herë'
'▁reyn'
'್ರೆ'
'▁εργ'
'▁attacks'
'ێل'
'▁فوتبال'
'▁millel'
'qil'
'etsong'
'ুকে'
'▁nākotnē'
'▁э'
'▁akoko'
'▁Arsch'
'▁1953,'
'illas'
'▁बुरा'
'zya'
'▁Йәһвәгә'
'讐'
'▁Tämän'
'록'
'▁ẹnikan'
'▁vekongelo'
'ጭር'
'orixe'
'གཉེན་'
'▁મોટો'
'ວະ'
'▁چیتر'
'携帯電話'
'▁International'
'▁പര'
'▁qillq'
'▁sawir'
'ělal'
'weswo'
'▁ଲ'
'зира'
'▁आदमी'
'▁keselamatan'
'chij'
'lenül'
'▁གཞི་'
'▁approv'
'▁ਚਲ'
'erder'
'▁ahụmahụ'
'▁tuqiw'
'▁abï'
'▁fingu'
'▁дос'
'▁સારવાર'
'▁Barkatu'
'سیون'
'おお'
'▁òdinatè'
'▁onda'
'ану'
'▁climate'
'ционно'
'▁vermiş'
'▁işlem'
'▁נכנס'
'ιώ'
'្ត្រ'
'▁okres'
'▁Înt'
'▁dosiahnuť'
'▁odlič'
'▁gɔme'
'emen'
'▁atur'
'告訴'
'▁pusht'
'▁fif'
'何が'
'▁ທີ່'
'▁белсен'
'jnë'
'▁polizi'
'ению'
'▁құқықтары'
'▁szkol'
'▁plé'
'ایید'
'feni'
'▁Zeit'
'ness'
'▁ואם'
'▁nib'
'үз'
'▁aktibo'
'▁﴿'
'ayasa'
'天神'
'▁Endzhakunyana'
'▁Genese'
'אַק'
'ckých'
'ali'
'wiri'
'▁শব্দ'
'▁cineál'
'vyeyi'
'ంద'
'▁కు'
'▁ñʋʋ'
'▁Ihren'
'▁Mao'
'▁при'
'▁nemzet'
'▁published'
'▁alalla'
'▁pengacara'
'▁Prostě'
'▁keke'
'nə'
'▁ထူး'
'▁gris'
'▁chokwadi'
'▁còmhla'
'ствието'
'୩'
'▁ਬੱਚੇ'
'D'
'▁dibawa'
'wani'
'弥'
'▁vezet'
'▁psic'
'ཕེ་'
'▁ਡੀ'
'वळ'
'2'
'▁sol'
'▁বাট'
'▁dëgjuar'
'▁tuaj'
'▁wẽndẽ'
'▁ɖen'
'ర్లు'
'▁qolgan'
'anima'
'▁ტრ'
'▁покажува'
'▁intar'
'▁popele'
'inay'
'▁nguan'
'上帝的'
'▁πρόσω'
'েই'
'ざる'
'▁Third'
'▁আলা'
'éron'
'šitšwego'
'eronoma'
'▁gyinae'
'▁kuijiia'
'▁최선을'
'▁يل'
'▁kanti'
'신'
'▁મિલ'
'▁ምእ'
'▁перек'
'▁ukur'
'▁yapılan'
'▁rannpháirt'
'သူတွေ'
'ɓe'
'rish'
'▁Mest'
'▁maşga'
'foni'
'▁поте'
'asɛ'
'▁Zergatik'
'▁trend'
'tiú'
'▁mlandu'
'らし'
'inyt'
'cupazione'
'▁Dar'
'hou'
'omioistu'
'▁지구'
'▁રાષ્ટ'
'おく'
'▁ಪ್ರಕ್ರಿಯ'
'▁ukax'
'דינה'
'unpaman'
'▁baanu'
'သလော'
'▁კლ'
'itiin'
'▁explan'
'▁kwist'
'▁penderfyniad'
'indikira'
'anzwe'
'hatho'
'▁좋다'
'▁voqea'
'▁sùn'
'sicu'
'▁고속'
'▁гер'
'▁rze'
'ীর্'
'▁т'
'▁ប្រាក់'
'▁permainan'
'▁bai'
'نەت'
'▁prihodnosti'
'▁identifikati'
'▁sluts'
'선이'
'TH'
'▁মমা'
'▁všem'
'▁Luba'
'zekelo'
'endus'
'▁አውሮ'
'아라'
'▁puoli'
'▁eɖokui'
'▁dhaqan'
'▁dou'
'▁egongo'
'▁رض'
'▁Hie'
'клю'
'▁kept'
'omola'
'ፉ'
'▁blag'
'▁Rådet'
'▁لێکۆڵ'
'▁contribuir'
'▁Dins'
'▁uzay'
'▁مق'
'▁енгізі'
'▁123'
'▁tutya'
'▁ڏيڻ'
'▁ڇا'
'astanza'
'▁հետաքրք'
'▁bɛba'
'▁marco'
'ཡའི་'
'▁zake'
'▁خالىسا'
'ustat'
'föld'
'tiť'
'▁metropo'
'盗'
'▁Xi'
'alusna'
'▁твори'
'▁aksè'
'▁Funny'
'▁bantši'
'kansas'
'▁ଦୃ'
'▁rw'
'▁Ukut'
'▁tirelong'
'ကြောင်းကို'
'▁izwe'
'▁реали'
'確'
'ূল'
'▁goals'
'वरून'
'▁Khu'
'Ģ'
'ることができます'
'tuag'
'▁kukuka'
'▁Tex'
'леги'
'▁לט'
'▁kurun'
'▁അന്വേഷ'
'▁জর'
'ଶା'
'ustatud'
'5]'
'▁punkta'
'ambie'
'şit'
'umul'
'▁rwa'
'ཀུ་'
'Meunyoe'
'▁sabab'
'▁özünüz'
'▁જેવી'
'▁घटि'
'▁uts'
'きれ'
'▁თქვენი'
'▁Rĩungã'
'zyn'
'▁ወንዶች'
'怨'
'▁Democra'
'▁યહો'
'▁toinen'
'エホバ'
'▁siiski'
'хати'
'旨'
'▁Ибро'
'▁mjer'
'chenjeri'
'寬'
'▁ebonisa'
'joe'
'emand'
'▁increas'
'▁değiştir'
'itab'
'▁vaan'
'▁مختلفی'
'ंता'
'govern'
'puɔ'
'▁looga'
'enede'
'ลืม'
'kudu'
'데'
'adele'
'▁diplomatik'
'▁കൊ'
'▁iwájú'
'単語'
'▁yupaychañ'
'อยากจะ'
'▁sval'
'▁ટાળ'
'▁yĩla'
'▁ළ'
'eng_Latn'
'вары'
'sområdet'
'ємося'
'▁сушти'
'ོ་ལ'
'▁bok'
'▁တစ်'
'▁近'
'▁여러가지'
'▁annon'
'ñɩnɩ'
'▁pèsonèl'
'▁خالىغان'
'▁것일'
'ρείται'
'▁Zač'
'▁liel'
'χεια'
'▁anything'
'▁Immag'
'▁isuamin'
'蜜'
'1/'
'▁انرژی'
'▁말할'
'▁고맙'
'പേ'
'▁你'
'▁ତାଙ୍କର'
'▁махсус'
'▁эшләрне'
'놈'
'▁ሲያ'
'▁kɩɩsd'
'őri'
'することです'
'▁tayon'
'▁alert'
'▁Xeneral'
'▁jajajajaja'
'▁հարց'
'çı'
'▁vigor'
'uriza'
'▁비트코'
'愛と'
'ша'
'himin'
'kwist'
'▁прегледа'
'דברים'
'▁тип'
'▁tavo'
'覽'
'binrin'
'▁አፍ'
'andri'
'▁шийд'
'▁нигеҙ'
'▁gb'
'▁bintang'
'▁jak'
'ңны'
'тарға'
'dilər'
'▁التي'
'udrav'
'▁şəkildə'
'▁hte'
'ಾರಣ'
'gien'
'▁გულ'
'เหตุ'
'གོ་བཙུགས་'
'回答'
'▁оты'
'▁sbag'
'▁nggo'
'يهر'
'▁ਮਹਾਨ'
'▁odmiet'
'▁mak'
'aliswe'
'▁brauche'
'▁altre'
'▁nataony'
'▁grundlægg'
'▁قضاوت'
'▁عجی'
'ئف'
'▁Taf'
'▁pannak'
'▁जिनगी'
'nénk'
'▁Беренсе'
'▁деятельности'
'odies'
'▁před'
'▁וי'
'akaa'
'▁можда'
'▁akpale'
'▁གཅིག་དང་'
'自分を'
'▁sommige'
'▁གཙོ་བོ་གི་'
'覧'
'▁فراوان'
'▁природи'
'ājis'
'▁క్యాన్సర్'
'▁гириф'
'▁그녀를'
'▁손가락'
'แห'
'▁iepriekš'
'▁Italian'
'▁показу'
'нымды'
'▁обзира'
'ዎም።'
'æiske'
'estr'
'▁뛰'
'Att'
'▁idup'
'tsp'
'Sas'
'▁kockázat'
'れて'
'ལོ་'
'રુ'
'▁கூற'
'▁hê'
'▁Onu'
'▁суд'
'▁둘째'
'▁wiwit'
'납니다'
'ক্ষিত'
'▁tikus'
'▁umuz'
'▁Orch'
'▁音楽'
'▁ਭ'
'▁Gy'
'▁जेल'
'▁gawo'
'emias'
'ിക്കൊ'
'▁aɖee'
'▁جدي'
'▁geura'
'▁ഇന്നു'
'▁ištek'
'caa'
'▁lwandle'
'▁fyld'
'▁gagner'
'энэ'
'▁peýd'
'▁biện'
'▁گۇمان'
'▁نگران'
'쪽으로'
'▁eşit'
'▁massu'
'ଯାଉ'
'kay'
'▁@'
'্'
'▁čet'
'زە'
'▁۱۵'
'▁Lefè'
'▁խոսում'
'▁COS'
'▁agu'
'▁visus'
'▁yaran'
'დს'
'▁jot'
'▁daging'
'▁ᱟᱨ'
'ماع'
'☺'
'▁Haw'
'heberu'
'unami'
'eteik'
'▁xanh'
'▁asjakohas'
'▁máte'
'ಬಲ್ಲ'
'▁egyed'
'▁руски'
'ongui'
'▁ordre'
'▁migliori'
'▁finito'
'▁ŵaz'
'vang'
'rn'
'▁svetu'
'gift'
'რეთ'
'コロン'
'▁일어'
'▁mokyto'
'▁ክብ'
'ungama'
'▁kommunik'
'וון'
'ಗಳನ್ನು'
'टिक'
'јат'
'▁полностью'
'▁ricer'
'idow'
'▁뛰어난'
'▁suss'
'adhaa'
'yisa'
'▁abal'
'▁keunoe'
'τροπή'
'▁سردار'
'▁investu'
'اهای'
'▁Üm'
'שאַן'
'▁اھ'
'▁charge'
'კავ'
'▁آرخ'
'▁kwete'
'ยก'
'▁pís'
'▁والدین'
'▁систе'
'zok'
'▁Upo'
'ekolah'
'ètí'
'▁इसके'
'རུ་ཤི་'
'只係'
'▁비즈'
'ഖല'
'▁менше'
'dı'
'▁प्रतिनि'
'▁কলে'
'▁ماڻ'
'▁determinado'
'▁управување'
'▁ਹਾਈ'
'操'
'▁Schmid'
'▁stóð'
'▁देतो'
'▁與'
'▁syv'
'ैले'
'▁Pu'
'▁vann'
'▁बघ'
'▁رگه'
'▁ترافیک'
'ລະ'
'▁taiao'
'랑'
'ソフト'
'iskop'
'▁ጐ'
'widi'
'▁nasu'
'▁сапа'
'▁ಭೇ'
'▁vyavi'
'спи'
'▁dagens'
'▁Ndaño'
'▁ɔkwan'
'▁emaz'
'▁shin'
'▁музи'
'▁Dî'
'▁ئۈستىگە'
'▁hamu'
'ፈልገው'
'рира'
'▁냄'
'ဗျ'
'حدود'
'▁tādu'
'▁አምላ'
'▁pakeisti'
'▁exposición'
'人を'
'▁ندار'
'▁बचत'
'▁مېھرىبان'
'ход'
'▁azoko'
'េច'
'лармен'
'▁Septuagint'
'▁suruh'
'▁attu'
'▁pé'
'несу'
'法を'
'▁قىلىۋاتقان'
'al'
'▁ebong'
'▁1918.'
'▁tlwaelegileng'
'▁deiner'
'serbi'
'▁목격'
'▁රෑ'
'▁yoze'
'▁stampa'
'▁vórðu'
'▁arrive'
'▁දවස'
'hwes'
'▁ڇڏيو'
'▁Oe'
'▁aspectes'
'വർത്ത'
'жний'
'▁કેટલીક'
'▁prav'
'▁الل'
'▁gaabwe'
'ppui'
'▁pouvwa'
'▁שטענדיק'
'▁సూ'
'artë'
'▁استقل'
'ၵၼ်'
'▁നിമി'
'miniinta'
'ិបាល'
'▁talafeagai'
'aliste'
'ście'
'மார'
'дној'
'▁FT'
'dess'
'▁lamini'
'▁apart'
'▁अन्तिम'
'▁Jesu'
'▁deste'
'Mul'
'▁kurz'
'▁처음에는'
'ឹត'
'▁માગ'
'▁Marina'
'▁evolusi'
'▁ಹೆಚ್ಚುವರಿ'
'▁αυτούς'
'អ្វីខ្លះ'
'▁рұқсат'
'▁ವಿಭಾಗ'
'▁Epic'
'▁有'
'▁kurow'
'▁1951,'
'▁Espanha'
'rene'
'▁прямо'
'▁भइल'
'itun'
'ű'
'".;'
'лсын'
'▁vostè'
'▁anc'
'▁amakonda'
'hrú'
'▁абсолю'
'▁સામેલ'
'អាយុ'
'▁شہری'
'▁generals'
'▁μας'
'ችሉ'
'▁nandray'
'▁Sheria'
'▁Jihnyan'
'▁זיינע'
'▁joang'
'▁warst'
'▁ствари'
'irayira'
'▁Tingali'
'낀'
'▁Meet'
'▁ipinag'
'▁سقط'
'▁tapno'
'▁wos'
'▁زور'
'hne_Deva'
'ိတ်ဆွေ'
'▁ጴጥሮስ'
'pó'
'▁ਮਿਲੇ'
'स्थिति'
'▁शुरूआत'
'ɖuɖ'
'thyr'
'▁مۆ'
'▁ča'
'▁laakiin'
'િંગ'
'▁Banna'
'▁chwili'
'▁mòr'
'哲'
'▁ịma'
'ậm'
'şy'
'▁कशा'
'▁покла'
'▁should'
'知っている'
'▁lj'
'▁voda'
'▁сая'
'▁votos'
'▁dalį'
'▁ಹಾಗೆ'
'ਕੋ'
'粗'
'▁Jesú'
'Kodiċi'
'ዲህ'
'unguluka'
'▁jide'
'పా'
'ssa'
'istem'
'▁Hm'
'▁1:1,'
'▁போ'
'වැනි'
'▁piyamb'
'पक्ष'
'▁gegenüber'
'▁Her'
'éhna'
'▁zmian'
'ຶ'
'腸'
'▁ጅ'
'jawulo'
'▁dalil'
'▁دىنى'
'йым'
'ymyz'
'ithiau'
'▁galės'
'jep'
'▁karşılaş'
'བར་ན་'
'alansa'
'▁pesu'
'敦'
'▁zru'
'穏'
'▁আদ'
'▁башына'
'▁Pey'
'atilia'
'▁zipatso'
'▁män'
'yika'
'▁عادت'
'ບົດ'
'▁tsap'
'▁예외'
'BBC'
'▁komande'
'▁Beyond'
'▁pielikumā'
'▁sug'
'▁żgurata'
'élites'
'odina'
'▁Rådets'
'▁ಶೈ'
'▁дэлхий'
'▁blá'
'Đ'
'▁ɲin'
'▁manęs'
'▁ለመጀመሪያ'
'▁faoi'
'▁easy'
'▁артыҡ'
'▁rezerv'
'▁dû'
'▁systemu'
'▁malik'
'▁sokat'
'िनि'
'删'
'▁ಯಾ'
'▁menjual'
'тром'
'đuju'
'▁license'
'セックス'
'▁država'
'problemer'
'▁Қай'
'▁وہ'
'▁käyttä'
'▁طل'
'ിക്കൂ'
'▁Slik'
'▁nenyi'
'▁билдир'
'2012'
'лян'
'ගී'
'ຄຸມ'
'▁nc'
'▁يىگىت'
'▁wanda'
'▁altor'
'▁새롭게'
'▁നൂ'
'kɛnɛ'
'▁ikak'
'jelu'
'ώ'
'좇'
'▁panyin'
'puti'
'▁loodud'
'αί'
'▁иштери'
'шеу'
'▁wank'
'チームが'
'▁47'
'▁ချ'
'onot'
'▁aikaa'
'▁සම්පූර්ණ'
'▁књиге'
'ነታት'
'▁έρθ'
'▁működik'
'ubay'
'▁இருக்கு'
'▁ayn'
'▁dunk'
'étude'
'तइ'
'▁nyt'
'ូច'
'▁bidang'
'ĩao'
'▁Ext'
'제로'
'▁Europejskiej'
'▁menonton'
'偵'
'▁10:24,'
'න්ඩ'
'▁بھائی'
'▁1984.'
'▁Yurub'
'▁나이에'
'▁tudtam'
'▁лого'
'▁gare'
'ల్స్'
'ཉ'
'▁Baib'
'▁хэрэггүй'
'plano'
'▁wagt'
'▁boso'
'▁ევროპ'
'hoe'
'naíonn'
'▁بخشنے'
'▁удаан'
'▁кына'
'šenie'
'▁Arbeit'
'▁khutlela'
'▁Еве'
'贝'
'함이'
'୧'
'▁nëpër'
'▁Cập'
'▁президен'
'▁thereof'
'▁hlusta'
'ীর'
'חורי'
'▁anawa'
'etiye'
'erê'
'▁izin'
'opho'
'▁zasad'
'▁zmien'
'▁உம்'
'illante'
'クロ'
'▁അവളുടെ'
'▁поліп'
'▁nG'
'▁Qullan'
'▁tast'
'▁يولا'
'▁אינפֿאָרמאַציע'
'avez'
'▁malpli'
'魂'
'▁Nik'
'▁מקבל'
'तक'
'म्यान'
'▁بهینه'
'▁munsi'
'▁deyin'
'▁велика'
'▁naming'
'bipa'
'▁அழை'
'ספר'
'uş'
'mentos'
'▁هوای'
'▁아시아'
'okhala'
'ڪان'
'▁talaba'
'ଗୁଡିକ'
'ungulo'
'▁Оба'
'▁obdobie'
'▁yfed'
'▁پڑھنے'
'▁začet'
'統計'
'▁bukid'
'▁zvis'
'ایش'
'▁থেকেই'
'▁regerings'
'▁tecnologi'
'▁mts'
'мо'
'vyzd'
'ርሕ'
'▁permiti'
'МА'
'▁thoại'
'Waa'
'usti'
'▁Lyon'
'függ'
'▁लई'
'dať'
'▁gaba'
'▁३'
'▁Onıñ'
'▁Ապ'
'▁oman'
'▁ló'
'逃げ'
'oshanda'
'▁بانه'
'▁ವರ್ಷದ'
'ଷ୍'
'▁친구들과'
'asiyana'
'▁chuymampi'
'▁zahŕ'
'atti'
'ჩნ'
'▁lle'
'▁kujaribu'
'▁பாதிக்க'
'▁neposred'
'▁näky'
'▁ኣኽ'
'▁polj'
'related'
'▁gjithë'
'▁manns'
'▁брат'
'▁Babiloni'
'▁späť'
'halaan'
'すぐに'
'▁сало'
'▁Verfahren'
'Ani'
'నూ'
'▁legs'
'čným'
'quejj'
'보는'
'▁ଯଦି'
'kiler'
'▁kérdés'
'▁gadier'
'oua'
'▁πλή'
'▁Għall'
'反'
'▁neiz'
'rifysgol'
'랙'
'▁저희는'
'▁Minden'
'yama'
'▁shpe'
'чені'
'Dem'
'▁jedan'
'▁ġudizz'
'▁J'
'▁işbir'
'▁kijan'
'▁phuthegong'
'քանչ'
'jesto'
'▁Vinaka'
'▁agt'
'ल्प'
'▁ڤایر'
'ຄືກັນ'
'▁پولی'
'ًّ'
'ዱ'
'ikile'
'Hal'
'▁آء'
'▁representación'
'▁ត្រង់'
'▁VR'
'▁gelief'
'▁kumanya'
'క్షి'
'▁wachten'
'▁Србија'
'▁nizom'
'▁ማየት'
'ined'
'▁izgubili'
'▁aah'
'▁gint'
'▁askan'
'vĩtu'
'ੲ'
'▁낯'
'โซ'
'▁għas'
'▁nghĩ'
'▁μπορώ'
'▁maithe'
'▁кием'
'▁tromp'
'erni'
'▁そうすれば'
'bilitats'
'Hon'
'▁spur'
'▁xoxo'
'▁Rex'
'▁sources'
'▁εγγ'
'ටන්'
'▁εκτε'
'▁heeltemal'
'▁nuod'
'Ub'
'usig'
'xay'
'▁После'
'▁CCTV'
'▁заса'
'ຄື'
'ëtzebu'
'▁γε'
'จะมี'
'ပါသည်။'
'▁(2015)'
'ାଣ୍ଡ'
'▁Too'
'ága'
'▁ಮಹಿಳೆಯ'
'▁dwarore'
'▁επε'
'▁сығып'
'cz'
'ולם'
'▁सिद्धांत'
'▁zao'
'▁wamu'
'ulendo'
'ექტი'
'▁អំពី'
'▁Oriente'
'▁dominante'
'友情'
'▁hoş'
'ibil'
'▁ètò'
'▁nyebut'
'▁алдағы'
'▁ਵਿਰੁੱਧ'
'gog'
'става'
'▁연결되어'
'▁maendeeo'
'gående'
'▁까'
'▁národ'
'ələr'
'inrin'
'▁প্ৰতিটো'
'циите'
'▁voltant'
'бизге'
'從'
'▁ପ୍ରତ୍ୟେକ'
'AI'
'halagahan'
'▁pelajar'
'▁manca'
'īva'
'▁walaupun'
'▁USB'
'▁سے'
'調整'
'ékko'
'▁agira'
'▁mahrum'
'▁nécess'
'▁Carta'
'▁busa'
'▁ngwá'
'▁Line'
'▁모세가'
'▁မွာ'
'ursos'
'▁direttiva'
'▁تاق'
'▁gut'
'▁proposal'
'▁ներառ'
'▁Turn'
'▁surpr'
'vous'
'▁заједни'
'▁lahko'
'▁Ε'
'้น'
'▁PDP'
'ເຊື່ອ'
'burg'
'atakse'
'▁1,2'
'isarema'
'▁diyos'
'ingini'
'itheamh'
'われる'
'▁abboom'
'uruan'
'▁risiko'
'▁dôvodu'
'▁Jang'
'▁équip'
'▁mė'
'▁gaxɔ'
'▁말라고'
'▁nhạy'
'▁Par'
'▁kongregasyon'
'▁εσωτερ'
'▁deara'
'addi'
'▁8,'
'▁циљ'
'toj'
'▁Beng'
'되면'
'▁yɔ'
'▁конечно'
'▁سگهي'
'▁цен'
'ವಲ್ಲ'
'の多くは'
'▁vih'
'▁kailangan'
'舞'
'မျ'
'▁andere'
'▁kiia'
'▁해당'
'▁הלי'
'▁عمران'
'јати'
'ဩ'
'▁पुनः'
'▁ຍ້ອນ'
'યેલા'
'루살렘'
'▁ရရှိ'
'▁Су'
'▁هار'
'ۈش'
'▁développ'
'▁analiz'
'▁emperador'
'多少'
'kasa'
'▁getih'
'▁researchers'
'诡'
'▁abi'
'▁Habak'
'▁инфрақұры'
'▁በሁሉም'
'▁diäk'
'▁ਸਰਕਾਰ'
'fiques'
'▁rupa'
'▁gnanca'
'▁қар'
'egas'
'ostos'
'▁206'
'▁ਸਾਨੂੰ'
'を示'
'कांनी'
'laŋɩyɛ'
'▁Bakit'
'itundu'
'▁ποτέ'
'▁decisions'
'▁mangyari'
'shon'
'▁दुर्घटना'
'▁jiya'
'▁अनुपात'
'적인'
'▁transeurop'
'挂'
'▁përgjigje'
'▁2005'
'▁Gub'
'աբան'
'ukue'
'ਿਲ'
'▁nhluvuko'
'ყოფილი'
'__'
'▁nhwɛ'
'fense'
'وید'
'▁መምር'
'ល្ប'
'▁በደ'
'ήσαμε'
'བཟང་པོ་'
'chaka'
'ində'
'▁kadınlar'
'▁amerikansk'
'گز'
'ène'
'▁rén'
'▁նախկին'
'▁dobry'
'▁ফাইল'
'▁látinú'
'▁Ayah'
'▁patirties'
'▁Korin'
'▁কাহ'
'दछ'
'▁napad'
'ⴷⴷ'
'ствата'
'ysk'
'响'
'彰'
'▁recom'
'iscint'
'▁ngif'
'ondedwa'
'peta'
'▁Тоҷикистон'
'▁যি'
'▁5:19)'
'▁annimali'
'▁kutuambuluisha'
'▁۱۴'
'▁Nit'
'▁Wakat'
'▁utvalg'
'မ်ား'
'ðr'
'ገድ'
'ških'
'▁रूस'
'▁kunwana'
'ြး'
'esnis'
'▁도울'
'▁ngot'
'▁Chor'
'▁фести'
'▁মাজত'
'▁виклю'
'谋'
'▁алынган'
'saim'
'ंदी'
'▁የመጀመሪያው'
'▁kwasiɖa'
'▁ཨ་'
'iapan'
'enes'
'teg'
'▁بز'
'▁ремон'
'λική'
'འཛ'
'▁آموزان'
'▁Syar'
'▁핀'
'▁byly'
'▁kontakte'
'▁ڏسو'
'且'
'рито'
'▁való'
'Ը'
'▁svarīgi'
'ảnh'
'▁آف'
'▁ନିମନ୍ତ'
'amik'
'▁اؤلوم'
'▁బాగా'
'▁הילדים'
'▁siksi'
'gla'
'▁ඔවුන්ට'
'▁yux'
'sr'
'ಶ್ಯಕ'
'▁(28'
'▁acção'
'unan'
'▁diba'
'ⵎⴰⵣⵉ'
'ཡི་ཟེར་'
'チャード'
'요일에'
'効'
'ارم'
'▁אדוני'
'xon'
'▁בדרך'
'▁غا'
'▁ɣemaɣi'
'ئیں'
'ື້ນ'
'വസ'
'▁stara'
'▁खरीद'
'タイプ'
'▁games'
'▁ரி'
'▁оған'
'▁Hilaha'
'▁intelle'
'▁신경'
'қым'
'ຂອງຂ້ອຍ'
'▁מיינט'
'maso'
'▁толькі'
'▁Ҡала'
'aruka'
'▁plod'
'λλη'
'ـــــــــــــــ'
'лорда'
'▁tartó'
'▁bokgoni'
'▁elbet'
'にあった'
'▁తర్'
'▁हिंसा'
'க்கி'
'▁لگا'
'ettuna'
'▁ёсьць'
'▁Aquest'
'▁自分'
'▁mwĩkalĩle'
'দি'
'▁widzi'
'wanaka'
'▁egészen'
'▁ikel'
'▁tɔtrɔ'
'▁25-'
'ಿಕೆಯ'
'ambahkan'
'▁zapo'
'unkum'
'🎁'
'artu'
'▁emend'
'abang'
'▁غە'
'▁Namuhla'
'ısınız'
'▁Renault'
'▁मुद्दा'
'មិនទាន់'
'렙'
'▁ennill'
'คนอื่น'
'▁atanga'
'리로다'
'▁ཐོག་'
'ಣ್ಣ'
'▁viso'
'▁teritori'
'▁tõesti'
'▁mũth'
'▁ہاتھ'
'qon'
'wra'
'▁khahlanong'
'spunk'
'▁hermanu'
'▁10000'
'vici'
'▁roimhe'
'▁معاه'
'知ってる'
'▁গুৰুত্ব'
'▁estaban'
'▁jebkurā'
'市場の'
'ତେ'
'▁punt'
'Var'
'▁مك'
'▁forskere'
'▁پرداخت'
'▁експерти'
'▁បាត់'
'変え'
'▁سلطنت'
'▁Dora'
'▁primera'
'▁ы'
'èyè'
'äder'
'配偶'
'bö'
'▁Jerusalén'
'hïïm'
'▁жұмыстарды'
'zanso'
'▁nang'
'▁wedu'
'▁ಎರಡನೇ'
'▁pienāc'
'čk'
'टिव'
'▁znowu'
'▁ოპთ'
'▁generelt'
'▁พ'
'▁иман'
'walira'
'▁slat'
'ịp'
'öglich'
'▁jäsenval'
'ASH'
'▁fetileng'
'odom'
'▁mahtang'
'▁노력하고'
'токот'
'▁મૂલ્ય'
'▁ਜੋੜ'
'yta'
'vrouw'
'fanafana'
'etele'
'プレ'
'▁Sasa'
'▁fyalo'
'Imaynat'
'رها'
'▁ምርጥ'
'▁resaka'
'▁tlhaloso'
'arian'
'вало'
'▁გს'
'▁caafima'
'▁njena'
'▁информации'
'▁1946,'
'▁иштерди'
'▁տեսել'
'q'
'▁चर'
'▁ajoyib'
'shia'
'myndir'
'pdf'
'▁otomatis'
'ོས་'
'▁көші'
'▁Сөләйман'
'ാദ'
'έ'
'▁창'
'зво'
'弱い'
'▁Wees'
'▁قانداق'
'▁illegal'
'▁এবং'
'ুত'
'▁रु'
'idika'
'dert'
[...]
