'▁procedimiento'
'▁căzut'
'▁nag'
'▁ઠ'
'ლოგი'
'عجز'
'▁żadnych'
'psa'
'dzin'
'ന്നാ'
'▁küçük'
'▁Švent'
'zellen'
'▁سائٹ'
'▁svaki'
'ıcı'
'timiza'
'અર'
'ប្រ'
'Բարձր'
'გალ'
'तून'
'▁murojaat'
'▁الدین'
'試合'
'未成年'
'他表示'
'▁աճ'
'▁diye'
'▁Reve'
'▁Terkini'
'kalau'
'▁المحت'
'瞭'
'yə'
'▁පළාත'
'itteen'
'ירים'
'▁බැංකු'
'▁رسیدگی'
'▁çərçivəsində'
'▁iddynt'
'鎚'
'▁préféré'
'▁порівнянні'
'▁exterior'
'ferð'
'▁nantinya'
'ರಣ'
'strādā'
'▁jahon'
'ራሱ'
'▁ولاړ'
'▁Ай'
'Ύ'
'▁oda'
'ราชการ'
'▁Ең'
'▁જીવન'
'önd'
'وقف'
'▁dłużej'
'┗'
'▁пуст'
'▁önəmli'
'▁Nak'
'联邦'
'▁GMA'
'도를'
'▁Ali'
'▁từ'
'▁Анатоль'
'▁забране'
'▁ഓണ്'
'ėjai'
'▁ذلك'
'마'
'▁Lepo'
'▁നോക്കി'
'ിന'
'大師'
'▁previsioni'
'▁equilibrada'
'这一'
'alumnat'
'目標'
'▁vicino'
'▁դու'
'ništvo'
'▁σημαντικ'
'▁Дзяржаўны'
'▁зрабіць'
'anmälan'
'▁visą'
'κάν'
'▁लड़कियां'
'▁kezdet'
'⤴'
'▁коргоо'
'ᴛ'
'▁उनको'
'помага'
'▁сећа'
'့'
'▁зусилля'
'allowing'
'▁תפריט'
'muusika'
'mailadres'
'▁земельных'
'ဗဟုသုတ'
'▁package'
'▁ਹੱਥ'
'▁בשם'
'▁مهلت'
'▁категорично'
'ενεργ'
'γαλα'
'▁eraikuntza'
'▁കുറേ'
'學生'
'▁migliorare'
'воздушн'
'▁့'
'Euroopa'
'▁Валентин'
'氟'
'▁bura'
'LAS'
'▁അതിനു'
'▁deinen'
'-150'
'チ'
'▁súkromn'
'järnväg'
'馅'
'胛'
'ခဲ့ရ'
'▁حملات'
'мож'
'▁Зараз'
'VAT'
'ფლ'
'▁ዝ'
'▁daň'
'նե'
'▁روی'
'miljö'
'ფიქრ'
'▁libben'
'▁שינויים'
'▁lando'
'▁Мер'
'▁Joe'
'2001'
'▁indsats'
'▁оролцогч'
'ອະດີດ'
'▁shpëtim'
'▁virtute'
'▁دعا'
'▁პროდუქტი'
'▁segundo'
'▁persoal'
'▁ഫോട്ടോ'
'▁சிறை'
'▁megfigyel'
'▁belangrik'
'(6'
'flan'
'▁Около'
'▁ಇಡೀ'
'▁Vázquez'
'籃'
'▁Título'
'ૂલ'
'▁төслийн'
'▁பாலியல்'
'▁在'
'▁coast'
'▁açıklaması'
'▁ukupn'
'▁personaj'
'▁мальчик'
'▁chá'
'▁άλλα'
'▁Comentarii'
'▁samhälls'
'Македо'
'▁rồi'
'▁инспектор'
'▁niej'
'тке'
'ನೇ'
'▁informasjon'
'▁पर्छ'
'▁відкриття'
'▁ඔබට'
'▁vostro'
'▁CT'
'的經驗'
'▁najednou'
'ฟอก'
'▁abs'
'▁Божа'
'เย็ดหี'
'▁olisivat'
'▁מיי'
'▁کچ'
'▁популярност'
'▁emigr'
'▁밝혔다'
'▁usko'
'▁vigente'
'ισμού'
'IZ'
'▁kryss'
'ルー'
'▁døgnet'
'際に'
'▁uporabljamo'
'适用于'
'▁näytti'
'серьёз'
'▁Verbindung'
'ಖಾ'
'▁ആശ്വാസ'
'立刻'
'▁села'
'▁Rent'
'▁утворення'
'▁löydä'
'多くの'
'らず'
'▁Chú'
'▁indicat'
'ріп'
'蹋'
'▁Kaliforni'
'▁Πολιτιστικ'
'▁φοιτητές'
'凍'
'fesz'
'▁olcsó'
'utdelning'
'▁пришлось'
'▁이제'
'▁Investition'
'ดื่ม'
'▁fortalecer'
'▁сабой'
'ເທັກໂນໂລຈີ'
'▁ڏڪاري'
'▁дра'
'▁assortiment'
'▁ځاي'
'▁Ribadeo'
'▁አቅም'
'▁خمینی'
'▁prise'
'▁ਵੱਡੀ'
'▁позиції'
'▁ভিডিও'
'▁Frau'
'▁મળે'
'accordo'
'▁دھو'
'ரு'
'Ο'
'▁នោះ'
'ခန္း'
'▁получа'
'舞台'
'▁Rhein'
'▁බුද්ධි'
'▁సంచిక'
'▁ರಾಮ'
'▁나아가'
'szerzés'
'▁sőt'
'▁nowoczesny'
'▁Helt'
'ච්ච'
'惩罚'
'κε'
'ერი'
'▁भगवान'
'▁представил'
'කල්'
'settelse'
'▁vyznač'
'▁intern'
'▁דאס'
'▁sürüyor'
'POL'
'▁другую'
'▁мільярд'
'▁prachtig'
'▁күнгө'
'▁sektor'
'▁NRK'
'▁challenge'
'▁Pinoy'
'▁লোক'
'▁मिळविण्यासाठी'
'सँग'
'▁zbi'
'▁ნარკო'
'▁Támogat'
'▁ndio'
'▁vēsturi'
'mella'
'▁basketbol'
'šana'
'鶺'
'▁Cố'
'▁sònraichte'
'▁Seçki'
'ANCE'
'รายงาน'
'▁profiel'
'▁генерација'
'▁knygų'
'ehdot'
'▁personuppgifter'
'▁erő'
'▁تعلیم'
'▁ફાયદા'
'нып'
'▁අව'
'жылдан'
'▁հիմնարկ'
'▁tuyển'
'▁prehra'
'▁pintor'
'▁කතාබහ'
'lazak'
'▁evidenzia'
'▁močno'
'mestari'
'▁சண்டை'
'▁20-'
'▁mưu'
'ויות'
'▁pendapat'
'▁Mas'
'▁дүр'
'▁టిప్స్'
'ρού'
'▁supranta'
'▁famosa'
'▁hallitse'
'▁скорость'
'общи'
'▁репрезентатив'
'hne'
'▁научных'
'▁درون'
'ครีม'
'rín'
'▁בהתאם'
'▁εξο'
'▁Experi'
'ື່ອ'
'▁tecken'
'▁പഴ'
'ирање'
'▁bënë'
'▁ډک'
'▁ترجمه'
'čkom'
'▁teismas'
'▁pomp'
'▁Matri'
'▁Florin'
'争'
'ējam'
'▁апошні'
'▁reaction'
'荷物'
'ਾਲ'
'ვნო'
'のまま'
'回到'
'rust'
'▁обавља'
'▁bikaina'
'▁менежмент'
'▁παραγγελία'
'ിയുടെ'
'MK'
'▁Domnului'
'quis'
'▁tə'
'▁yani'
'▁figyelmet'
'تفق'
'▁લોકો'
'거나'
'▁télécharger'
'▁הנוער'
'▁ຮ່ວມ'
'</s>'
'Ệ'
'▁kit'
'▁нарын'
'▁schaut'
'▁గొంతు'
'رىس'
'▁กระเป๋า'
'▁ذ'
'▁أطلق'
'▁tveir'
'▁29'
'Ŕ'
'▁tausta'
'▁hundre'
'ด่วน'
'▁因為'
'ኛ'
'ให้บริการ'
'diena'
'▁घर'
'ਫੈ'
'▁მერია'
'▁universo'
'▁środka'
'勝利'
'▁zamanlar'
'▁figlio'
'▁paqe'
'tolo'
'▁válogat'
'▁ڪ'
'▁vykurova'
'▁sosiale'
'▁häst'
'എന്റെ'
'▁халдвар'
'MES'
'▁สร้าง'
'biji'
'▁italiana'
'ууда'
'▁Mata'
'▁Staaten'
'420'
'▁మొ'
'なくなり'
'▁Maribor'
'▁хвороб'
'λοκ'
'▁finalitat'
'宣言'
'▁lékař'
'▁استخوان'
'▁النصر'
'▁Proyecto'
'kryp'
'ນັກຂ່າວ'
'ваться'
'耗'
'▁নিয়মিত'
'赦'
'məyin'
'▁сістэму'
'▁spetsiaalse'
'oinnista'
'دخل'
'צריך'
'▁Kleidung'
'빨'
'apakah'
'uh'
'ስና'
'▁роблять'
'▁нарийн'
'▁Restauranger'
'▁аймгийн'
'▁Δυστυχώς'
'▁계'
'▁মাদক'
'▁sueño'
'▁protégé'
'giver'
'▁تريد'
'▁išvengti'
'لط'
'▁말하는'
'▁Μπα'
'▁לזה'
'▁agricol'
'ছা'
'婷'
'logitekstit'
'▁après'
'交付'
'pan'
'వాద'
'ციების'
'ливість'
'▁изгледа'
'лымдар'
'▁חומ'
'স্তা'
'▁كامل'
'机器'
'▁bedeuten'
'▁продукції'
'▁нејзиното'
'iin'
'▁göra'
'رې'
'▁firması'
'▁कहते'
'▁neder'
'997'
'▁studenata'
'▁Деяк'
'▁كثير'
'▁sari'
'kra'
'客户端'
'▁organizarea'
'ພັດ'
'에너지'
'▁lebt'
'尽'
'▁yaranması'
'življenjsko'
'毕'
'lingu'
'ಪಡಿಸಿ'
'льц'
'chester'
'消除'
'тылған'
'▁отопление'
'▁الدر'
'함'
'不錯的'
'▁مۇھىت'
'želi'
'tiladi'
'ına'
'訐'
'కే'
'▁Защото'
'▁Fett'
'▁Градск'
'▁મહારાજ'
'▁monumental'
'▁Antoni'
'▁Advanced'
'为例'
'▁కారణమ'
'▁fundamentais'
'▁електричн'
'ീയ'
'▁олигарх'
'▁kasneje'
'▁implementation'
'▁adapté'
'▁slo'
'▁chiqish'
'面积'
'▁آسیا'
'어서'
'SIDE'
'▁ಅಳವಡಿಸ'
'▁میکنه'
'агдсан'
'▁Παγκόσμιο'
'อวัยวะเพศ'
'绎'
'▁ognuno'
'▁reflexion'
'▁başa'
'▁avaldatud'
'▁Balkan'
'нко'
'▁жасалған'
'▁прикордонн'
'ẵ'
'▁обличчя'
'kain'
'▁жұмыстың'
'kä'
'▁చేసుకోవ'
'သတ်'
'▁pridruži'
'▁plakat'
'▁tarjoa'
'▁улыба'
'▁Burn'
'ând'
'▁เธอ'
'▁mənzil'
'rasi'
'छु'
'▁непо'
'▁Stefan'
'▁תוכנית'
'историјско'
'nék'
'пусти'
'ભુ'
'▁arzu'
'▁Kashmir'
'▁vedel'
'▁terorist'
'▁cicle'
'闲'
'▁Министарства'
'AKI'
'允許'
'▁dryck'
'▁eftir'
'▁ਕਿਵੇਂ'
'▁збир'
'▁لهذه'
'ğe'
'▁ದಿನಗಳ'
'▁областях'
'▁historii'
'做得'
'架'
'を考えると'
'▁skoro'
'▁Сочи'
'▁ପହଞ୍ଚି'
'▁fred'
'恣'
'olio'
'▁eco'
'▁велика'
'▁فور'
'▁Pelanggan'
'▁Bili'
'▁uwekezaji'
'▁galvenokārt'
'▁keahlian'
'שבוע'
'▁consent'
'▁Bebek'
'▁doamna'
'점은'
'kle'
'▁móviles'
'师傅'
'🧜'
'▁Sibiu'
'իկայի'
'មិន'
'▁ಸಂಚಾರ'
'▁Универзитетот'
'ਨੂੰ'
'▁gwybod'
'pelajar'
'njakan'
'▁User'
'▁превърне'
'lám'
'მრ'
'▁вредни'
'॔'
'iam'
'▁trygg'
'▁ชื่อ'
'ธี'
'▁vztah'
'ኲ'
'늄'
'▁usmjeren'
'▁korral'
'▁넣어'
'▁Joh'
'▁транс'
'erima'
'niai'
'▁sugan'
'sukan'
'▁cooperativa'
'▁knyg'
'▁Karya'
'餐廳'
'▁titta'
'▁ΠΟΥ'
'제도'
'ფრანგ'
'▁intervju'
'ੱਕ'
'▁व्यवसाय'
'▁мемлекетт'
'▁अत्यन्त'
'▁Ș'
'panel'
'▁организације'
'క్స్'
'▁титул'
'supuesta'
'зай'
'ಲ್ಪಟ್ಟ'
'▁ecclesia'
'веројатно'
'▁테스트'
'會計'
'οειδή'
'▁തിരുവനന്തപുരം'
'▁savukārt'
'▁eivät'
'▁saját'
'▁පිරිස'
'町'
'▁Год'
'▁গরম'
'یج'
'ဓာတ်'
'სვლის'
'怦'
'▁vile'
'瀬'
'壓力'
'NAK'
'▁arhiv'
'ګا'
'▁μονο'
'▁قدم'
'▁მდგომარეობა'
'▁ifanc'
'▁ଅବସରରେ'
'儸'
'punt'
'▁טובה'
'▁kombëtare'
'劾'
'świat'
'وٽو'
'▁ljudsko'
'▁إغلاق'
'TET'
'▁खूप'
'▁бави'
'rag'
'łączyć'
'ුණ'
'▁हाम्रो'
'akit'
'▁Puna'
'▁இத'
'一天'
'▁پہلو'
'halen'
'▁είπε'
'▁gratë'
'▁ኢሳያስ'
'Ă'
'registre'
'▁letto'
'▁Portanto'
'ματική'
'활'
'▁욕실'
'▁пунктів'
'▁mohl'
'▁ಅಭಿಮಾನಿ'
'arit'
'▁침'
'▁снима'
'уулаад'
'▁مكونات'
'エクス'
'▁AY'
'ਇਸ'
'▁tir'
'▁જગત'
'▁trải'
'▁있으므로'
'照護'
'讀者'
'▁krepšinink'
'▁Олимпиада'
'үүнү'
'tarin'
'ښه'
'roc'
'▁Kərimov'
'▁ווייל'
'▁общество'
'▁Marie'
'біль'
'▁ಸೇರಿ'
'▁curs'
'▁شد'
'กก'
'▁retningslinjer'
'▁కోర్టు'
'▁empreendedor'
'一種'
'▁پاڻي'
'TF'
'▁forresten'
'▁Choose'
'▁9001'
'▁ekonomika'
'▁gistingu'
'▁εκπρόσωπος'
'fart'
'▁догоди'
'方式'
'▁ją'
'▁revizi'
'▁الرئيس'
'ЉЕ'
'▁घडामोडी'
'чал'
'▁Təhsil'
'▁arazo'
'▁paredes'
'▁főz'
'▁က်မ'
'▁pakkumist'
'陪'
'▁Visit'
'▁बॅ'
'▁हेर'
'οντάς'
'សិល្បៈ'
'▁periodista'
'通勤'
'▁operación'
'▁desta'
'棒'
'▁bucurie'
'▁dod'
'▁zakup'
'కర్త'
'ению'
'▁Kjærlighet'
'▁вътрешна'
'▁працюють'
'▁дуж'
'▁ସରକାର'
'▁administrativa'
'▁raggi'
'nictví'
'▁rezervēt'
'పర్'
'izing'
'▁poucos'
'▁різні'
'রা'
'▁Anal'
'▁Hacı'
'▁افسران'
'▁movement'
'▁ବର୍ଷ'
'ጠይቅ'
'ច្បាស់'
'س'
'การจัดส่ง'
'▁DEC'
'▁лед'
'▁последовател'
'▁здійснен'
'▁Senarai'
'▁համեմատ'
'മ'
'▁paties'
'נפש'
'ಿಬ್ಬರ'
'klama'
'▁адным'
'▁wasiir'
'▁Muut'
'솜'
'低い'
'فيل'
'▁vedľa'
'▁tón'
'▁egentlig'
'λογο'
'▁země'
'▁ซ'
'▁плаж'
'▁چيئرمين'
'▁ፍጹም'
'▁تعليق'
'▁민간'
'ांसाठी'
'篷'
'▁aikaan'
'▁Của'
'পেন'
'∥'
'▁vaste'
'年来'
'▁사이에'
'▁przyjemne'
'▁deficiência'
'คลอด'
'▁взех'
'▁צילום'
'▁мэдэж'
'▁одинаково'
'▁quatro'
'▁reik'
'国際'
'▁letni'
'▁நாக'
'пин'
'вин'
'▁తెర'
'▁dhow'
'▁paaugstināt'
'▁Ciyaar'
'▁నియోజకవర్గ'
'▁felter'
'▁slapukai'
'▁κάνεις'
'{{'
'▁itselleni'
'▁હાઇ'
'▁filme'
'▁дуб'
'▁видеть'
'Пловдив'
'▁years'
'ಣೆ'
'シェア'
'辦理'
'▁შეს'
'▁деце'
'▁පුරුදු'
'▁դատարանի'
'▁искаш'
'▁Wieder'
'▁ማርያም'
'eten'
'مستشار'
'레인'
'สมบูรณ์'
'▁მარტივი'
'mun'
'▁sentral'
'sele'
'อ้าง'
'alue'
'▁ಗೂಗಲ್'
'▁ခုႏွစ္'
'▁paieškos'
'▁ସାଧାରଣ'
'libet'
'▁viitorul'
'▁புத்தக'
'▁local'
'▁እድሜ'
'ировать'
'▁folle'
'බු'
'▁поголем'
'▁ülkelerde'
'▁katalog'
'▁Integral'
'▁трибунал'
'rány'
'▁taju'
'▁wanneer'
'▁കഴിയാത്ത'
'▁ਡਿਪਟੀ'
'▁انعقاد'
'عيد'
'単位'
'▁DN'
'▁अगला'
'▁добър'
'▁생각해'
'▁sætter'
'▁Dura'
'▁онгоц'
'ˊ'
'ມື'
'有权'
'ፐ'
'▁Օգտագործ'
'ಗತ'
'▁کرپشن'
'கார்'
'▁Pekin'
'▁้'
'ించాడు'
'itats'
'▁preso'
'▁स्वाद'
'ahir'
'▁kebanyakan'
'▁elä'
'▁ऐलान'
'▁Cijena'
'▁kape'
'amh'
'времено'
'▁companiei'
'▁Piškotki'
'▁jinên'
'▁ഇട്ട'
'▁niiden'
'▁прийняття'
'▁потврда'
'àirde'
'կե'
'コマンド'
'抓住'
'▁војска'
'▁وژل'
'▁участники'
'כיל'
'▁valta'
'▁ზვიად'
'ulu'
'▁제공하는'
'試試'
'▁maailmas'
'▁Eritrea'
'▁rungtynes'
'情绪'
'ლენ'
'馭'
'实际上'
'▁වේ'
'ówka'
'५'
'▁erkek'
'inske'
'▁υπόλοιπο'
'▁இர'
'ଳ'
'▁məqam'
'▁საქმიანობის'
'▁પ્રતિભાવ'
'เริ่มต้น'
'▁riserva'
'אלימות'
'ນິວ'
'zék'
'▁സമാധാന'
'薈'
'▁moeilijk'
'▁pennad'
'▁chấm'
'ери'
'десят'
'ପାରେ'
'▁ღვინო'
'வள'
'▁rešitve'
'▁\\\\'
'可見'
'😇'
'▁예를'
'▁πνευματ'
'▁ndonjë'
'UC'
'▁ishtirok'
'ፕሮ'
'▁ким'
'▁pend'
'ΟΚ'
'▁iesaist'
'▁kapható'
'▁జరుగ'
'▁escrito'
'▁ت'
'▁wanafunzi'
'တြင္း'
'ಿಸಲು'
'入住'
'▁Torne'
'▁ефективності'
'▁విభాగం'
'▁حساب'
'▁სამუშაოები'
'ไม่มี'
'▁Рас'
'▁እንደነበር'
'▁organization'
'▁কোন'
'дар'
'HI'
'▁Wor'
'▁altyd'
'ಪ್ರಸಾದ್'
'▁දරුවන්'
'▁clínico'
'ဉ်း'
'▁багато'
'együnk'
'▁3.2'
'▁panga'
'▁Economic'
'▁Első'
'Prakt'
'▁dagaal'
'▁ijro'
'▁حکمت'
'▁oriente'
'▁toto'
'▁najlepszy'
'▁bezañ'
'▁ბედი'
'블'
'▁rapporter'
'στι'
'loģis'
'▁Вероятно'
'aţi'
'лось'
'▁funziona'
'mall'
'▁Mahal'
'୩୫'
'七'
'▁qytetin'
'▁պատճառ'
'čiau'
'▁시리즈'
'▁δράση'
'bekannt'
'▁atkarībā'
'▁кетсек'
'పో'
'▁আগামী'
'▁ਰੋਕ'
'▁zientzia'
'หอย'
'▁સ્ત્રી'
'▁portata'
'תשובה'
'▁പച്ച'
'竭'
'ಕೇ'
'aff'
'▁हम'
'▁ομάδες'
'▁هيو'
'ramento'
'▁సృష్టించ'
'▁Bagaimana'
'▁وڌيڪ'
'▁subsidi'
'▁Ні'
'⊂'
'▁મહિલાઓ'
'▁मानव'
'▁Blo'
'▁Střed'
'électricité'
'▁quản'
'我省'
'▁cute'
'▁කැමැත්ත'
'໌'
'نشین'
'▁szépen'
'▁kooxaha'
'ವಾಗುತ್ತದೆ'
'жет'
'ဓမ္မ'
'▁часам'
'▁Mid'
'成熟的'
'▁ନୂଆ'
'644'
'ləyici'
'▁početak'
'ităţile'
'▁ocijeni'
'сут'
'asin'
'▁bättre'
'▁klop'
'্'
'▁ratio'
'▁ගැටලුව'
'gas'
'窨'
'▁shqiptarë'
'▁spendera'
'ети'
'നെ'
'▁सुरक्षा'
'▁ունեցող'
'▁uzskata'
'워크'
'▁كانت'
'▁cerita'
'guvernamental'
'▁personali'
'▁피해'
'▁ମଣିଷ'
'人も多い'
'▁כוס'
'▁කොහෙ'
'▁Vy'
'▁испытыва'
'trans'
'▁Paw'
'▁பேர்'
'▁షూటింగ్'
'排名'
'▁üsna'
'▁abba'
'公斤'
'গ্'
'▁منا'
'▁interessi'
'▁susţin'
'▁Ži'
'▁banyaknya'
'▁напрям'
'▁окно'
'ို'
'энелер'
'잭'
'פיגוע'
'ाञ्चल'
'▁yazma'
'▁gadsimta'
'ೃತ'
'▁Chàng'
'ज्ञान'
'פית'
'▁Кел'
'▁vagon'
'觀念'
'▁(2004)'
'თქ'
'▁1976'
'▁फ्र'
'▁தெரிந்து'
'ΚΑ'
'ωτών'
'▁incontri'
'▁moto'
'ღა'
'▁gà'
'▁роднай'
'▁completely'
'thyr'
'▁hitz'
'▁పదార్థాల'
'수록'
'ován'
'▁dibuka'
'▁Rijk'
'lämna'
'▁turp'
'再一次'
'▁wonder'
'œ'
'▁uzņēm'
'▁Комисс'
'▁бастау'
'▁जानकार'
'▁դուրս'
'ታችሁ'
'સભા'
'▁írt'
'ແພງ'
'▁ଭସାଇ'
'▁ਸਰਹੱਦ'
'ilta'
'▁TOUR'
'▁Κο'
'蝠'
'▁Herstellung'
'ոլոգ'
'ουτ'
'ピー'
'എല്'
'ලෝක'
'▁ಮಾನಸಿಕ'
'ខ្ញុំ'
'174'
'▁menší'
'だけの'
'UMU'
'డుగు'
'▁Συμ'
'▁הטר'
'下來'
'▁Сэ'
'▁دکوراسیون'
'▁yhdessä'
'▁Στα'
'▁Scu'
'stúpen'
'хий'
'▁сиријск'
'▁ڈپٹ'
'akomillashtirish'
'▁Liên'
'жүргізуші'
'▁foyer'
'▁ਕੀਮਤ'
'▁حوال'
'qo'
'▁speciellt'
'▁әрі'
'▁soovi'
'▁písomn'
'▁quotidienne'
'▁pozostałych'
'▁არასდროს'
'▁nehnuteľnosti'
'ดําเนินการ'
'ခ်ဳိ'
'▁zunanji'
'▁kokybiška'
'▁Idag'
'وله'
'▁tydens'
'▁యూనిట్'
'வாழ்'
'▁૨'
'атори'
'▁ಕುಡಿಯುವ'
'▁되는'
'▁hieronta'
'▁страх'
'▁Prizren'
'ਪੇ'
'▁స్థల'
'▁მსგავსი'
'IUM'
'höfn'
'▁9:30'
'▁qaxooti'
'▁щось'
'▁சென்னையில்'
'▁libër'
'▁posreduje'
'▁változat'
'▁Værelse'
'▁едва'
'▁સમસ્યા'
'▁پڑے'
'Ата'
'▁સમાચારો'
'ЛИЙН'
'频'
'▁புத்தாண்டு'
'▁Services'
'▁କମ୍ପାନୀ'
'▁Maß'
'▁sekä'
'▁पनि'
'ជាការ'
'▁pada'
'ացած'
'▁Änderungen'
'裊'
'రాత్రి'
'ijden'
'▁رسیدن'
'▁ljud'
'▁лютага'
'lene'
'institut'
'ெ'
'FA'
'▁Symptom'
'▁управління'
'▁വച്ച്'
'▁Funny'
'▁bại'
'▁protein'
'ήσουμε'
'阿里'
'▁LEGO'
'▁바랍니다'
'▁Прво'
'owego'
'▁herkullis'
'▁robót'
'▁varsa'
'▁ವಾಣಿಜ್ಯ'
'▁زود'
'offer'
'▁آوا'
'▁крену'
'piac'
'▁පදනම්'
'▁puso'
'▁6-7'
'▁културата'
'ištu'
'▁Bisnis'
'▁crede'
'▁sizin'
'káž'
'▁głowy'
'と言えます'
'riak'
'pte'
'▁സ്വീകരിച്ച'
'▁ndihmo'
'កសាង'
'cie'
'▁zasigurno'
'க்கோ'
'▁износ'
'כמות'
'JANA'
'发展趋势'
'▁dodnes'
'▁៥'
'檢察'
'綵'
'✽'
'認識'
'▁લાભ'
'пост'
'▁ажиллагаа'
'кту'
'▁уряду'
'ที่สุด'
'▁Pas'
'▁चलचित्र'
'▁työllis'
'უდ'
'▁Snabb'
'סוס'
'▁виши'
'汞'
'▁දර්ශන'
'tīm'
'▁पुग्ने'
'▁வேறு'
'visoje'
'掐'
'▁cơ'
'дают'
'ণা'
'룹'
'ですか'
'▁Món'
'▁zaista'
'▁פֿ'
'nutri'
'▁gələn'
'▁örtü'
'▁ਅਜਿਹਾ'
'▁Ond'
'▁finalmente'
'▁Dù'
'▁inspirasjon'
'▁dob'
'iden'
'▁SON'
'はず'
'▁স্বাধীনতা'
'▁მომდევნო'
'mato'
'ief'
'ТЕР'
'kken'
'▁شىركىتى'
'draget'
'نال'
'▁arkay'
'▁reformas'
'▁naozaj'
'ご相談'
'ЫЗ'
'▁sumbangan'
'▁СБУ'
'Ф'
'▁тодорхой'
'kasih'
'ананың'
'都是'
'France'
'▁Kelompok'
'вив'
'lliseen'
'▁аварий'
'▁மக்கள'
'▁अनुमति'
'▁KL'
'▁چن'
'▁Треба'
'▁материально'
'로드'
'▁lost'
'▁vemos'
'ıt'
'▁ohtlik'
'เอา'
'▁обществено'
'योग्य'
'▁fotografi'
'▁treeni'
'之間的'
'▁сонымен'
'KUL'
'ியுள்ளார்'
'▁ежедневно'
'itzen'
'▁verão'
'認同'
'Β'
'vanên'
'շա'
'▁Kajian'
'暴'
'brew'
'穀'
'ходил'
'▁takšnih'
'っている'
'▁പ്രയോജന'
'▁اړيک'
'ುತ್ತಿತ್ತು'
'րո'
'▁टाइप'
'Рас'
'▁үзүүлэх'
'▁uitgebreid'
'▁кетет'
'تعليم'
'撮って'
'▁विकिपिडिया'
'▁siirty'
'▁կատար'
'▁اي'
'速度'
'▁আক'
'ທໍາ'
'▁رزم'
'▁ներքո'
'▁aniversário'
'▁matériaux'
'▁spoiler'
'▁Suzan'
'▁préalable'
'쪼'
'▁විදිහට'
'▁učiteľ'
'▁കുഞ്ഞ'
'▁polîtîk'
'▁Spel'
'▁রু'
'▁Maak'
'▁miliwn'
'经历了'
'▁igénybevétel'
'▁එනම්'
'gyilkos'
'▁ମାସ'
'▁totiž'
'▁stwierdzi'
'▁tingimustel'
'lerle'
'▁printr'
'▁масив'
'נדה'
'▁نقط'
'貞'
'▁inntrykk'
'utilisation'
'東西'
'▁syarat'
'▁запазени'
'▁اسرار'
'▁lẫn'
'▁TAB'
'▁investeeringu'
'▁cidadanía'
'▁puja'
'▁kepadanya'
'▁ប្រចាំ'
'ία'
'▁αεροδρόμιο'
'▁elnök'
'००'
'▁However'
'5,6'
'▁animasiyalar'
'urreko'
'▁liikmete'
'പത്ര'
'▁канца'
'▁детектив'
'▁nende'
'▁proyecto'
'geht'
'▁прадстаў'
'Մխիթար'
'▁νησιά'
'▁Unha'
'▁تطبیق'
'▁brauche'
'▁зямля'
'▁vuxna'
'▁재산'
'▁odio'
'▁tähd'
'prkos'
'▁начало'
'▁πάλι'
'▁жртву'
'view'
'▁prega'
'▁Schlag'
'▁прэм'
'▁סו'
'▁congela'
'▁শুধু'
'ేవారు'
'▁Soros'
'ТЗ'
'▁სახლი'
'▁мистецтва'
'spruch'
'▁informatie'
'verwarming'
'▁nucléaire'
'▁ناول'
'7.00'
'ካ'
'БХ'
'▁הביטחון'
'▁투'
'ल्ला'
'▁എനിക്ക'
'▁põhjust'
'▁tager'
'▁brush'
'▁અમરેલી'
'▁پورا'
'▁Rick'
'▁битка'
'LIA'
'▁Semester'
'▁aizpild'
'▁Västra'
'nitz'
'▁Félag'
'▁Анђел'
'▁мэддэг'
'👬'
'▁ਉੱਤਰ'
'▁ਸੰਸਾਰ'
'▁Сва'
'kultuuri'
'▁vrai'
'▁Kerk'
'hlásenie'
'▁dosiahnuť'
'asca'
'▁investimenti'
'▁reakcij'
'▁реєстрації'
'▁public'
'تشدد'
'▁Міжнародни'
'▁aspettative'
'सारखा'
'▁Beauty'
'raba'
'▁въведе'
'▁komanda'
'安全'
'▁Omegle'
'▁Pieni'
'▁покоління'
'resh'
'▁полягає'
'▁դրանց'
'▁اتنی'
'机遇'
'▁이루어'
'▁փոփոխվել'
'§'
'▁გამოვიდა'
'ପ୍ରାପ୍ତ'
'▁başvur'
'▁Իսպան'
'▁встановлено'
'▁sådant'
'diktatur'
'▁olmalıdır'
'▁Prvi'
'▁افراط'
'عب'
'▁tisoč'
'▁unglaublich'
'▁möta'
'▁Issue'
'▁minimal'
'▁medie'
'▁smješten'
'▁піш'
'▁alvorlig'
'▁мовою'
'ποιαδήποτε'
'▁비판'
'♧'
'▁kalitesi'
'▁Через'
'▁התמונה'
'▁Reprodu'
'▁կարեւոր'
'ಕೊಳ್ಳುವ'
'▁danışma'
'不断地'
'▁bū'
'▁VIỆT'
'▁должности'
'come'
'▁narkotik'
'▁sreće'
'▁భవన'
'circ'
'▁himoya'
'ాన్'
'▁zaručen'
'dør'
'▁състезание'
'▁此外'
'варот'
'eeyay'
'▁الخير'
'▁Compar'
'▁қорғалған'
'▁Doha'
'▁metafor'
'▁jis'
'дія'
'▁існуюч'
'Бат'
'oinnin'
'รอง'
'▁Mé'
'မေတ္တာ'
'เยาวชน'
'▁Møte'
'▁fresk'
'▁دارو'
'▁අනෙක්'
'үүсү'
'▁बारिश'
'샬'
'取締役'
'grave'
'▁그들의'
'pro'
'▁گند'
'لتأكيد'
'Samsung'
'▁கூட்டு'
'化'
'▁centres'
'▁Krom'
'▁trust'
'▁خاور'
'▁Természetesen'
'HIM'
'tzak'
'కలు'
'х'
'▁նախարարության'
'רח'
'ročni'
'▁Topic'
'举'
'▁פורנו'
'ลดราคา'
'elämä'
'yttä'
'ьор'
'tenta'
'▁regije'
'▁mreže'
'▁Jestem'
'▁week'
'▁pravzaprav'
'▁Bybel'
'▁tagja'
'▁banane'
'▁достаточно'
'▁ndodhur'
'▁pas'
'NĐ'
'▁истинско'
'atriði'
'iloj'
'▁ikkje'
'考え'
'তি'
'▁එරෙහිව'
'▁prostriedkov'
'▁mėnesių'
'▁япон'
'▁Afla'
'▁любого'
'▁ሌላ'
'▁foydalanish'
'効果が'
'▁oplevelser'
'▁diyor'
'кового'
'▁πολύ'
'▁нужни'
'▁Además'
'▁frequência'
'▁ഇതിനെ'
'▁വെളിപ്പെടുത്ത'
'▁құны'
'▁establi'
'إعلان'
'▁dažniausiai'
'▁මෙහෙයුම්'
'▁laundry'
'ida'
'and'
'E'
'▁ژانویه'
'▁carpet'
'▁მით'
'銨'
'▁ס'
'▁Κάτι'
'澳门威尼斯人'
'rile'
'▁Fjern'
'тнууд'
'培训机构'
'▁সিলেট'
'İNİ'
'▁افسردگی'
'这两个'
'▁interessieren'
'▁знач'
'▁yaranıb'
'▁მოადგილე'
'▁تنقيد'
'▁ਮਹ'
'สี'
'▁блокад'
'▁rano'
'▁materie'
'▁Paypal'
'শোধ'
'道'
'▁Lied'
'▁rambut'
'▁Ground'
'▁ਖਬਰ'
'ənə'
'▁salam'
'▁komen'
'▁ضرورت'
'▁писател'
'▁अरुण'
'▁ಗಮನಿಸ'
'椅子'
'▁новин'
'征'
'くださって'
'▁የኢ'
'▁manna'
'▁niyə'
'발'
'▁vî'
'στό'
'▁ಸೌಂದರ್ಯ'
'▁officiële'
'ліктер'
'yasa'
'▁kurze'
'▁keep'
'▁Aarhus'
'▁18.30'
'กุม'
'▁neurologi'
'ാസ'
'ϟ'
'▁आफ'
'masis'
'▁britansk'
'▁pomoże'
'▁payer'
'Frank'
'क्षय'
'▁terlibat'
'▁gjy'
'национал'
'▁yaparken'
'▁risolvere'
'lėktuv'
'▁నివేదిక'
'▁kupon'
'▁VII'
'乌'
'▁müayinə'
'และมี'
'▁تبصره'
'▁ସ୍କୁଲ'
'▁ddiwedd'
'3]'
'▁சொல்லு'
'▁conosce'
'местен'
'▁hilsen'
'▁voortdurend'
'▁saka'
'▁zdarza'
'▁zaleca'
'▁själva'
'▁ieftin'
'▁processus'
'▁andere'
'▁ਗਿਆ'
'פרש'
'▁renseignements'
'ため'
'▁Mataró'
'тычных'
'▁pertsona'
'▁firewall'
'▁hepatitis'
'▁fii'
'▁19-'
'▁నన్ను'
'▁Episcopo'
'▁طلاب'
'▁personnalisé'
'▁Met'
'▁maging'
'▁راډیو'
'επιδ'
'▁முழு'
'यः'
'▁årsag'
'蝪'
'玳'
'▁Michezo'
'▁закладу'
'▁kommune'
'מיין'
'รับประทาน'
'▁dużych'
'▁opremo'
'▁गरी'
'▁diferite'
'▁þekkt'
'▁ਜ਼ਿੰਮੇਵਾਰ'
'▁pomiar'
'▁išsaugo'
'ราง'
'▁cận'
'▁Cəfər'
'▁før'
'▁laut'
'▁රෙ'
'▁طلبان'
'▁napetost'
'▁அவனை'
'▁හිටපු'
'▁lintas'
'गळ'
'▁Những'
'▁Dini'
'▁12:00'
'▁রি'
'大多数'
'พอสมควร'
'app'
'▁कायदा'
'▁yksilö'
'ยังไม่มี'
'▁български'
'बध'
'▁номер'
'ensemble'
'▁trận'
'いている'
'▁mengirim'
'段'
'ما'
'쩡'
'▁vadīt'
'▁kupunguza'
'גזר'
'▁dilarang'
'▁готова'
'ماس'
'▁Taarifa'
'▁суреттер'
'橿'
'▁uste'
'клад'
'▁Добри'
'ιέ'
'▁indkøb'
'ທຸກໆ'
'▁Татарстан'
'拎'
'▁reguli'
'▁చట్ట'
'തം'
'▁slimību'
'▁dilengkapi'
'▁tinere'
'egy'
'ແບ່ງ'
'rediger'
'NDE'
'▁Najlepš'
'ಾರ್'
'tha'
'▁cresc'
'▁rozwi'
'▁εφόσον'
'eleganza'
'almente'
'ല്ലേ'
'▁hotels'
'▁magaalada'
'▁Viên'
'▁അപേക്ഷ'
'ସିଂହ'
'▁Muzik'
'▁chemische'
'சர்'
'ikos'
'▁anume'
'▁kufikia'
'పొ'
'▁алкоголь'
'▁nepo'
'▁মাস'
'plaadi'
'▁ስሙ'
'▁ringan'
'ಗಳಾದ'
'▁primátor'
'дин'
'ປິດ'
'翠'
'▁كرده'
'▁slots'
'มุมมอง'
'студ'
'ዘመኑ'
'▁képet'
'有关部门'
'玥'
'žnja'
'▁comunale'
'业'
'posicion'
'ที่ยอดเยี่ยม'
'▁সর্বাধিক'
'瓦'
'▁аховы'
'▁നഷ്ട'
'▁Ĉiuj'
'▁гръб'
'эргээ'
'▁Кост'
'▁odkril'
'▁megint'
'▁irregular'
'merk'
'▁இருந்த'
'tk'
'▁badala'
'eerib'
'▁ಪ್ರಧಾನ'
'▁খু'
'ჵ'
'άμε'
'авање'
'▁slogan'
'▁както'
'▁старонкі'
'▁sens'
'កែវ'
'▁վարույթ'
'രായ'
'vale'
'▁සිදු'
'▁crois'
'▁minuto'
'▁compañeros'
'肯定'
'▁tõhus'
'félagsins'
'язковим'
'▁играть'
'UMP'
'▁mandat'
'▁وعلا'
'redo'
'▁surovin'
'▁마음이'
'bw'
'▁Sekret'
'▁Seattle'
'솎'
'růst'
'▁තබා'
'▁സാധന'
'▁sende'
'xis'
'▁wonten'
'▁trochę'
'ለል'
'▁məğlub'
'Speak'
'癡'
'甯'
'晚上'
'▁turpinās'
'مۇھەببەت'
'▁famandrihana'
'economic'
'▁ଦେବ'
'ティング'
'▁طوفان'
'▁edzino'
'▁venter'
'現實'
'▁ऐतिहासिक'
'beharrezkoa'
'▁اموال'
'▁yleensä'
'إقليم'
'▁sidang'
'▁НЕ'
'▁celebrado'
'▁Hour'
'人才培养'
'▁inceptos'
'ANU'
'▁רוח'
'களையும்'
'ไม่เกิน'
'ຄາ'
'▁საარჩევნო'
'▁пријаве'
'jan'
'იანი'
'ම්ම'
'тігі'
'ແຂວງ'
'▁laugh'
'eacha'
'安全的'
'▁primaria'
'▁điên'
'ულის'
'உ'
'filtr'
'▁aanleiding'
'heder'
'▁wypełni'
'▁astăzi'
'▁pes'
'▁дайында'
'ชอบ'
'▁ಪ್ರೊಫೈಲ್'
'୧୧'
'▁физически'
'▁गर्छ'
'▁והמ'
'ней'
'▁demikian'
'▁stadionu'
'രാജ'
'▁حقيقة'
'kázať'
'▁жыныс'
'티브'
'非常'
'ğun'
'ኤርትራ'
'▁հեղափոխության'
'▁belső'
'▁सिटी'
'▁risc'
'▁අලෙවි'
'เสมือน'
'ಗಿ'
'▁तब्बल'
'▁بلکه'
'▁მართლა'
'▁പ്രിയ'
'▁લખે'
'▁očekuju'
'▁hanya'
'issons'
'▁tiujn'
'▁Ér'
'▁Ihren'
'יקן'
'を取り'
'ļaut'
'▁Stenbolê'
'andri'
'rij'
'▁נע'
'▁איינגעשריבע'
'▁greitai'
'涨'
'▁Civil'
'▁lõpp'
'▁Bah'
'ууга'
'▁කියවන'
'▁sää'
'კერი'
'probleem'
'▁Luonnon'
'യോടു'
'▁reaktor'
'▁pha'
'▁Anime'
'azio'
'▁nøgne'
'▁Sonrakı'
'▁principi'
'ଠାରୁ'
'▁dis'
'lék'
'▁classique'
'▁kutosha'
'美食'
'▁შსს'
'▁gjennom'
'気になる'
'ární'
'ள'
'kas'
'▁തടഞ്ഞ'
'▁erakutsi'
'▁statut'
'▁Aproveite'
'▁yapılır'
'▁would'
'שפה'
'▁الكف'
'▁desejo'
'▁maq'
'▁patrí'
'▁korábban'
'▁չեն'
'▁σωστό'
'▁ତଥ୍ୟ'
'verčia'
'▁ທຸລະກິດ'
'▁видання'
'ستى'
'▁ਸਮਾਂ'
'▁ቅድሚያ'
'▁därefter'
'▁hospitali'
'▁Şer'
'▁Share'
'▁колу'
'審議'
'▁ciljem'
'▁царство'
'▁léamh'
'今回の'
'▁ਪਸੰਦ'
'▁гражданина'
'ሂ'
'▁көрсеткіш'
'▁የኦሮሚያ'
'▁ເງິນ'
'氏'
'▁aliye'
'▁installiert'
'▁þurfi'
'▁baldaŭ'
'েন্স'
'▁učenici'
'▁läuft'
'اع'
'秦'
'▁posteriormente'
'▁bisnis'
'▁prošlog'
'▁స్టైల్'
'お金を'
'▁මෑත'
'▁halla'
'ครบ'
'ليون'
'▁مظاهر'
'▁հատված'
'▁қана'
'▁નિર્ણય'
'▁довольно'
'▁σημερινή'
'▁konsolid'
'▁klippe'
'共识'
'▁общественно'
'▁никако'
'▁प्रत्या'
'▁بیٹھ'
'▁Какво'
'▁СПЦ'
'▁Анан'
'▁ക്ക്'
'ခ်င္း'
'▁verfügt'
'▁Toscana'
'▁الأكبر'
'конкурентоспособ'
'▁Stil'
'ssar'
'ेश'
'▁artması'
'▁теле'
'▁վերցնել'
'вно'
'▁jendea'
'▁relacions'
'▁Կ'
'▁सलाह'
'▁સં'
'▁testament'
'▁सहकार्य'
'▁Катар'
'▁Comentaris'
'▁vám'
'るべき'
'▁निरीक्षण'
'tw'
'▁қызықты'
'▁olmayıb'
'▁giảm'
'ključ'
'▁responsabili'
'意'
'▁भाषे'
'契机'
'敎'
'▁десетина'
'luq'
'▁අවුරුද්ද'
'耿'
'▁tuotteen'
'电话'
'▁реакції'
'ต้ม'
'▁gynllun'
'reje'
'▁pažeidžia'
'▁जनजाति'
'ликова'
'คมนาคม'
'▁eleccións'
'▁Garcinia'
'isenä'
'ឪពុក'
'▁измени'
'▁telenovel'
'に応じて'
'▁نوجوانوں'
'▁اف'
'▁obvesti'
'▁Тепер'
'▁надевам'
'▁Технически'
'schutzerklärung'
'坨'
'amministrazione'
'do'
'പ്രസംഗ'
'ekspert'
'▁convo'
'ถึง'
'уватися'
'кін'
'▁पैसे'
'▁२०१०'
'ᄂ'
'後半'
'komen'
'议员'
'蛤'
'لاش'
'淌'
'▁barve'
'るのか'
'▁مشورت'
'given'
'ቀም'
'許多人'
'olwg'
'hankkeen'
'жол'
'▁kararı'
'▁esercizi'
'▁Государственно'
'▁bezpieczny'
'噪'
'🛑'
'▁звичайно'
'▁සිත'
'▁sånt'
'▁телевизија'
'▁han'
'▁העובדה'
'▁vlastné'
'▁luxus'
'bail'
'▁годината'
'▁deveria'
'▁Novel'
'▁labour'
'▁बातचीत'
'baan'
'▁lagu'
'ittele'
'ຊູ'
'εν'
'斜'
'毬'
'팻'
'桌上'
'▁ተሳትፎ'
'▁države'
'▁Vaasa'
'્ડ'
'買賣'
'▁vadovauja'
'▁veri'
'▁əsərləri'
'▁יבוא'
'▁creatività'
'REK'
'▁연결'
'▁ur'
'▁경험'
'▁Blanche'
'▁conoscenze'
'roz'
'πος'
'▁తన'
'aaa'
'▁හිතුව'
'▁dòigh'
'ឧបករណ៍'
'▁Burundi'
'Ч'
'▁Übersicht'
'ဝက်ဘ်ဆိုက်များ'
'▁zásad'
'▁रिलीज'
'fuso'
'▁수영장'
'▁vond'
'▁hudba'
'阑'
'зер'
'▁टाक'
'▁સહાય'
'▁Celui'
'เคย'
'▁terkait'
'▁මරු'
'▁εκείνο'
'▁લખ્યું'
'遺'
'▁Ĉe'
'ลดน้ําหนัก'
'▁devem'
'▁장소'
'రాఘవ'
'ycznym'
'▁ڇڏي'
'汎'
'▁Drept'
'diq'
'feed'
'▁tal'
'淙'
'▁re'
'大部分'
'▁աշխատում'
'▁außer'
'▁целу'
'▁visibili'
'▁lên'
'▁رکن'
'▁ساختمان'
'ከፍ'
'ଙ୍ଗୁ'
'▁ಪೂಜೆ'
'▁opgenomen'
'늦'
'阿拉伯'
'Card'
'▁açma'
'浜'
'▁problemy'
'▁העולם'
'▁hormone'
'▁التلفزيون'
'▁nhũng'
'დნენ'
'हानी'
'▁lungo'
'рада'
'▁পাই'
'نیوز'
'▁сейф'
'▁서울특별시'
'▁Helsingborg'
'▁lido'
'屏東'
'توسع'
'meyecek'
'▁храната'
'▁Patri'
'▁دوست'
'▁పాటు'
'▁медиум'
'▁okkar'
'▁Rub'
'輛'
'▁ನಿರ್ವಹಿಸ'
'▁curând'
'▁음성'
'διά'
'▁салынат'
'▁Frans'
'ვარი'
'gið'
'▁Viking'
'▁reklaami'
'▁سامان'
'▁ნებისმიერი'
'▁zelišč'
'▁Pengajian'
'▁Hend'
'▁បង្កើត'
'▁zdroje'
'▁Rolex'
'▁대한'
'▁oro'
'▁laboris'
'gesproken'
'▁uskoro'
'숑'
'▁starta'
'▁pärast'
'▁wuxuuna'
'ສິ້ນ'
'▁счета'
'ਰਾਮ'
'▁دید'
'aktif'
'▁செய்திகள்'
'மொழி'
'▁היא'
'▁amaç'
'ülüyor'
'▁سعود'
'▁Hamar'
'로'
'▁TP'
'▁инициатив'
'▁Θεός'
'ƏT'
'▁মাঝে'
'IMIN'
'▁관리자'
'γιο'
'▁আদালত'
'ుతుందని'
'өрдө'
'▁Министр'
'▁szabad'
'▁गोपाल'
'▁prima'
'▁қабылдау'
'ordningen'
'▁Европу'
'▁vyf'
'achais'
'▁अनोख'
'▁miejsc'
'▁vyt'
'▁управување'
'▁მოვლენ'
'نشر'
'▁muncă'
'investissement'
'▁fjór'
'kabel'
'sivät'
'▁достапни'
'▁bőr'
'Оскар'
'уу'
'▁పట్ల'
'▁gasolina'
'▁oktober'
'blá'
'▁gelang'
'▁پزشک'
'▁Maha'
'כבד'
'▁بعض'
'▁MI'
'▁homself'
'▁Tarikh'
'▁betrakta'
'▁مراقبت'
'▁merken'
'▁мінеральн'
'▁ويٺل'
'▁Akt'
'▁نورې'
'쇳'
'▁videlicet'
'ISTE'
'那些'
'▁tampilan'
'▁mayor'
'öhn'
'▁بقیه'
'perspektiv'
'▁ਗੁਣਵੱਤਾ'
'▁beer'
'▁aeroport'
'▁Florence'
'ונים'
'mig'
'▁уче'
'पो'
'ેલ'
'सम'
'මද'
'▁собственик'
'▁kunden'
'▁먹는'
'▁ofta'
'▁болохгүй'
'▁Lim'
'▁finančne'
'▁nakaka'
'▁ermöglichen'
'▁ಅರ್ಧ'
'▁bisogni'
'oku'
'▁actores'
'▁آرزو'
'▁hayata'
'\uf4dd'
'▁цим'
'▁جعل'
'▁lielāko'
'▁지금까지'
'argomento'
'▁Policija'
'沢'
'▁சொன்னார்'
'כור'
'▁знайсці'
'▁ποια'
'məyən'
'▁кажется'
'skatīt'
'ကလည္း'
'炔'
'▁citi'
'Труд'
'時'
'▁නායකයා'
'▁avaliar'
'steb'
'▁conseille'
'қон'
'▁חוקר'
'▁Všetci'
'▁ನಂತರ'
'▁مشروط'
'▁нэмэх'
'▁Էջմիածին'
'▁ಮಾಹಿತಿ'
'म्ब'
'λευ'
'wiec'
'▁почув'
'آخر'
'▁181'
'ຫ້າມ'
'▁Tě'
'▁عاجل'
'ស្ដីពី'
'సంస్కృత'
'▁schlafen'
'רוד'
'▁Japan'
'▁pharetra'
'투자'
'読んで'
'▁Ой'
'▁생성'
'благополуч'
'▁flickor'
'ғанда'
'ьно'
'▁красав'
'▁kemudian'
'Que'
'zweck'
'сни'
'▁Джордж'
'kjer'
'fier'
'▁väčšie'
'▁wêreld'
'مدني'
'▁Производ'
'▁forskere'
'rå'
'▁Національний'
'▁hälso'
'▁ಏರ್'
'▁דיין'
'เราได้'
'▁आए'
'▁høj'
'▁інформацію'
'ндай'
'▁toisin'
'▁बसेको'
'York'
'▁гаранција'
'▁годину'
'톈'
'▁വ്യത്യസ്ത'
'▁bhu'
'▁sest'
'▁කොල්ල'
'▁Napa'
'værker'
'ებიც'
'▁przycisk'
'મુખ'
'▁ווידער'
'ISTA'
'▁finansiell'
'▁القانونية'
'▁завода'
'▁wan'
'्याची'
'▁Jones'
'▁Curabitur'
'μορφ'
'▁χώρας'
'▁lapsen'
'▁메시지'
'ського'
'▁Cik'
'▁šventė'
'▁Impuls'
'▁kënaqësi'
'ล่ม'
'▁віці'
'şen'
'蔣'
'▁افغانان'
'ppy'
'ātā'
'vė'
'▁yaparak'
'▁vlažn'
'▁ض'
'▁najkasneje'
'▁критика'
'çü'
'дра'
'▁испуни'
'登録'
'τυπο'
'▁gesond'
'TIC'
'ಥಿ'
'鰓'
'▁цуврал'
'堶'
'▁असू'
'▁fırın'
'▁때문에'
'▁skelbimai'
'▁സാമ്പത്തിക'
'优良'
'▁ਮਦਦ'
'▁ülkelerin'
'▁بولىدىغان'
'▁jednostavno'
'▁fal'
'ुका'
'ເນ'
'地区的'
'▁emigrant'
'สมุทร'
'нд'
'▁hirmu'
'▁Mind'
'▁situado'
'碾'
'ขยาย'
'▁Ketentuan'
'▁yaxshi'
'▁soul'
'▁secuencia'
'▁conçu'
'লেট'
'▁таком'
'铖'
'woning'
'▁bărbați'
'▁6.2'
'በሬ'
'▁deklaratë'
'ίνεται'
'▁bendr'
'▁fermosa'
'▁lettori'
'▁Материал'
'応援'
'尙'
'▁Distribu'
'▁Индонези'
'Թբիլիսի'
'▁yayin'
'纺织'
'▁masharti'
'▁2,000'
'▁suur'
'▁ټینګار'
'β'
'▁المتاحة'
'ahi'
'▁niektórych'
'秧'
'స్తు'
'270'
'▁autentifica'
'だという'
'詳しい'
'▁Φεστιβάλ'
'▁ਅਨ'
'llen'
'▁procurar'
'▁Nimi'
'▁رہتا'
'知って'
'▁πρακτική'
'▁banal'
'▁kekal'
'堇'
'兩'
'▁21:00'
'ကျောက်'
'▁بیگم'
'▁lots'
'▁ખ'
'▁Հայաստանի'
'▁مكة'
'ngày'
'όπλο'
'▁menghadapi'
'▁clothing'
'▁λεπτά'
'▁хувилбар'
'▁pisang'
'ทําให้เกิด'
'▁stat'
'liches'
'當中'
'條'
'▁లో'
'▁הדבר'
'▁NOTE'
'▁መቼ'
'▁Diqqət'
'▁Quint'
'毎日'
'اتمنى'
'್ಯಾ'
'観光'
'DAV'
'▁April'
'înin'
'ደም'
'▁rob'
'ામાં'
'▁Pine'
'▁تجارت'
'tumika'
'▁سینه'
'▁Prek'
'လွန်'
'滸'
'▁ຫງວຽນຊວນຟຸກ'
'▁kitu'
'ចាប់ពី'
'▁личности'
'usse'
'▁mengetahui'
'૦'
'▁Posledný'
'бот'
'▁трав'
'▁Պետրոս'
'రంగ'
'▁излиза'
'▁szinte'
'ає'
'igung'
'▁koncu'
'▁nesi'
'▁सल्लाहकार'
'▁peshk'
'abileceğiniz'
'▁autó'
'▁sykje'
'▁malý'
'▁prenume'
'▁Live'
'ੂ'
'▁ಕೆ'
'▁τραπεζ'
'▁vurgu'
'Դ'
'▁sözlərinə'
'यी'
'▁kelis'
'ความสัมพันธ์'
'න්දර'
'▁জোর'
'స్తున్నారు'
'▁ଖାଲି'
'歐洲'
'▁PAS'
'▁redusert'
'▁vždy'
'реди'
'нська'
'▁عملیاتو'
'倫敦'
'ВА'
'āp'
'فرد'
'▁helyett'
'▁ولد'
'▁يرى'
'▁Binnen'
'衪'
'▁automobil'
'▁Cugat'
'▁мэдрэ'
'▁magazín'
'統一'
'▁જમીન'
'bic'
'ተናገሩት'
'leikkaus'
'lávesové'
'▁계속'
'恐'
'ঞ'
'▁4.3'
'ात्म'
'▁করলেন'
'▁مرتضی'
'▁ולא'
'▁moč'
'ckt'
'임을'
'ತೆ'
'郢'
'▁vrátiť'
'▁toimiva'
'betingsten'
'▁illness'
'cella'
'▁divin'
'자는'
'▁él'
'ဆုိင္'
'ográf'
'▁jokainen'
'▁දියණිය'
'ປະທານາທິບໍດີ'
'▁comienzo'
'藝術'
'▁Erabiltzaile'
'▁Ystävä'
'会社に'
'kauppa'
'▁portable'
'▁تقوم'
'▁qaran'
'▁κίνδυνο'
'Angebot'
'▁ստանալու'
'▁الاج'
'▁орны'
'把它'
'veszély'
'配信'
'▁вибрати'
'▁អត្ថបទថ្មីៗ'
'▁ബാക്കി'
'▁வழக்கம்'
'香水'
'မတ္'
'▁33%'
'ves'
'目光'
'ላል'
'▁বিনোদন'
'纵'
'喧'
'ੌਲ'
'🔴'
'pion'
'▁experiences'
'▁Schlüssel'
'▁PENDIDIKAN'
'▁ორ'
'ውል'
'ovací'
'▁Populære'
'▁viteve'
'▁ຄວາມ'
'ویں'
'▁ՊՆ'
'▁nuovi'
'▁rəhbərliyi'
'ष्ण'
'▁знали'
'▁خاقان'
'▁svolgimento'
'▁управления'
'▁ler'
'ច្'
'▁삶을'
'▁реакция'
'▁فوټبال'
'自体'
'ष'
'呈'
'εύσεις'
'nove'
'เรื่องราว'
'̅'
'▁ଫେରି'
'▁कहाँ'
'▁TANZANIA'
'ദി'
'▁गाव'
'Tha'
'▁Guillermo'
'▁سعر'
'▁dóna'
'▁compose'
'▁esdeveniments'
'▁рано'
'お願い致します'
'▁инстинкт'
'▁stri'
'▁Верховн'
'▁egz'
'▁bicicleta'
'▁certificado'
'ลัน'
'▁מאיתנו'
'▁aspect'
'ინდო'
'อุบัติเหตุ'
'sano'
'iel'
'▁Автомат'
'ступ'
'▁נוהג'
'2012'
'▁Arme'
'▁Fern'
'▁цілком'
'kal'
'ೂ'
'▁하면'
'လြတ္လပ္'
'▁ម៉ានី'
'özés'
'▁ମାଓବାଦୀ'
'ház'
'▁хурд'
'▁Bateri'
'▁Og'
'င်'
'▁התנהגות'
'▁!!'
'紓'
'▁بک'
'▁चुके'
'▁ديسمبر'
'▁Naruto'
'▁מודע'
'以后'
'▁Gur'
'▁realitzar'
'▁örök'
'▁сочета'
'▁zasięg'
'▁მედია'
'▁Sverige'
'開箱'
'▁grüne'
'灘'
'▁Праўда'
'▁moć'
'62'
'▁արձագանք'
'ődnek'
'▁prensa'
'ボード'
'Ра'
'▁devenit'
'banda'
'▁geschrieben'
'▁teórico'
'יגער'
'ابت'
'▁приватно'
'جون'
'▁Иса'
'ນີ້ແມ່ນ'
'kers'
'awdd'
'▁שהמ'
'▁prominent'
'▁1922'
'▁काँग्रेस'
'▁Deutsch'
'▁niedługo'
'▁Fala'
'▁ditangkap'
'檢測'
'▁slovenska'
'ibh'
'▁Cate'
'ՎԱ'
'ژن'
'▁voulais'
'▁Bieber'
'dición'
'▁własną'
'諮'
'▁Iz'
'賣場'
'あって'
'▁correctamente'
'▁veidošana'
'▁Ziyaret'
'▁საათზე'
'▁ģimeni'
'▁sigara'
'о'
'犇'
'ովի'
'▁ڇاڪاڻ'
'▁effettivamente'
'▁Թուրքիայի'
'▁srednje'
'▁શુ'
'▁сүлжээ'
'алтын'
'▁МЗС'
'ตาม'
'obre'
'▁mobiltelefon'
'▁Лин'
'ឈើ'
'robo'
'ДУ'
'▁Daxili'
'фини'
'▁مسول'
'reo'
'▁хам'
'▁நினைத்து'
'ການເລືອກຕັ້ງ'
'▁riitä'
'నేను'
'▁مقرر'
'▁бийлиги'
'▁оператив'
'▁koselig'
'▁çıkacak'
'▁ଭାରତର'
'▁cãi'
'▁življenju'
'▁शस्त्र'
'▁architekt'
'▁అక్రమ'
'▁Yog'
'ବାଇ'
'▁Akşam'
'▁Jeep'
'▁ئابدۇ'
'▁αμέσως'
'▁سيتم'
'▁พร้อมทั้ง'
'▁Şehit'
'▁ולכן'
'ਿਵ'
'▁നോക്ക'
'▁tegishli'
'рыш'
'лэлт'
'不在'
'▁Platform'
'ፓ'
'კეტი'
'▁мислам'
'ረው'
'ത്തിലും'
'▁consilium'
'▁esperar'
'誥'
'bonne'
'嚴格'
'▁tích'
'▁otázkou'
'▁ymwelwyr'
'ሮ'
'▁debes'
'▁nútíma'
'▁যত'
'▁ნაცვლად'
'tora'
'adon'
'ші'
'век'
'▁вызвать'
'ദാന'
'▁Stáit'
'▁بغاوت'
'▁Max'
'▁तिच्या'
'▁бууруулах'
'▁Έχει'
'▁און'
'▁notranji'
'ωμα'
'▁dětem'
'nő'
'8,5'
'▁компаний'
'▁colla'
'かもしれません'
'ΕΙΣ'
'▁Haziran'
'elnök'
'▁formular'
'▁Alt'
'fr'
'といっても'
'ляти'
'▁Sarà'
'გიჟ'
'▁Ada'
'▁aparılıb'
'▁Bilder'
'▁Презентац'
'▁bawah'
'▁Voraussetzungen'
'▁gerecht'
'nič'
'208'
'▁സഹ'
'▁berikutnya'
'sisi'
'▁ابوبکر'
'▁gazete'
'▁корректиров'
'stille'
'▁հ'
'▁imperativ'
'▁Põllumajandus'
'▁pembesar'
'▁qüvvə'
'▁أثناء'
'▁hauek'
'▁Univers'
'▁фізичної'
'▁నా'
'▁છોકરા'
'塢'
'粒'
'▁запослених'
'▁Працягласць'
'▁پرې'
'▁партия'
'thaí'
'▁mlajši'
'▁płat'
'技能'
'▁झाले'
'▁harika'
'ノウハウ'
'ിറങ്ങിയ'
'წილად'
'である'
'▁существовал'
'κυκλ'
'búnað'
'▁медаль'
'▁сваім'
'ელე'
'接受'
'ერა'
'πεί'
'▁Kvalit'
'faciliteter'
'▁amb'
'աստան'
'▁zdaniem'
'▁donker'
'▁daardoor'
'▁മോള'
'赂'
'▁tuš'
'▁తిరిగి'
'▁beantworten'
'sallad'
'perin'
'▁instructions'
'fobia'
'▁नगद'
'▁systemu'
'梵'
'龟'
'ండి'
'▁છે'
'▁여전히'
'▁ഭരണഘടന'
'▁වුවත්'
'Ụ'
'patia'
'▁Lai'
'齊'
'ง'
'▁ಅದ್ಭುತ'
'▁ಬೇಕ'
'▁melyet'
'▁Косовск'
'čno'
'เกม'
'▁többség'
'τί'
'▁උදව්'
'▁panta'
'weise'
'▁անունով'
'▁Stipendi'
'sign'
'рэ'
'貂'
'ères'
'▁எனக்கு'
'뷴'
'▁1830'
'bord'
'▁досягнення'
'држи'
'▁Anul'
'MIL'
'ÖR'
'Եվրոպա'
'▁gerektiği'
'sime'
'ық'
'▁आठवण'
'object'
'▁bhfad'
'▁provider'
'▁плен'
'▁нескольким'
'ės'
'▁profunda'
'കരമായ'
'פרסום'
'▁కరీంనగర్'
'▁ඉක්මනින්'
'▁ਉ'
'▁Geburt'
'▁مایکروسافت'
'▁இருக்கிறார்'
'افراد'
'▁eğit'
'▁khỏi'
'▁ತೆಗೆದುಕೊಳ್ಳ'
'ಣಾ'
'▁întâlni'
'▁Myynti'
'▁ze'
'▁darparu'
'▁berupa'
'▁Sağ'
'뺐'
'▁කෙටි'
'▁Dijital'
'gation'
'▁Առաջին'
'▁mkataba'
'寘'
'▁പരാമര്'
'▁cenderung'
'▁ਨਵਜੋਤ'
'▁serie'
'โรงแรม'
'▁Florida'
'▁recommendations'
'▁Kyuhyun'
'▁Geheimnis'
'ԻՐ'
'▁አባቶች'
'มอสโก'
'▁güven'
'ພັນທະ'
'▁לקחת'
'▁Nog'
'▁দাবিতে'
'▁правителство'
'Agència'
'▁bear'
'▁Фотограф'
'▁الأسنان'
'▁مأمور'
'▁Ersatz'
'▁պար'
'ၪ'
'▁سورة'
'▁anëtar'
'▁tristique'
'▁accès'
'▁Eibar'
'▁fəaliyyətinə'
'▁Реферат'
'▁ସୁନ୍ଦର'
'▁Setembro'
'▁Leer'
'▁wajar'
'hr'
'▁დე'
'▁epi'
'▁читать'
'▁necessitatibus'
'▁burbur'
'▁chvál'
'♗'
'耸'
'nggèn'
'くれている'
'▁කියලයි'
'клуч'
'ИЧКИ'
'деше'
'အသုံး'
'▁честит'
'▁জন্য'
'▁publicznej'
'▁käes'
'▁Рей'
'fordult'
'gg'
'▁elérés'
'經營'
'......'
'вез'
'▁gwarant'
'▁panjang'
'▁agre'
'tto'
'▁Insider'
'owało'
'▁ਆ'
'▁संकल्प'
'▁ଆନନ୍ଦ'
'เคลื่อนไหว'
'▁Və'
'▁ហើយ'
'▁Från'
'▁geliştirme'
'▁внутренних'
'▁Stát'
'ுவேன்'
'▁hop'
'дава'
'▁digna'
'▁φιλ'
'베르'
'▁Bola'
'▁දන්නා'
'藐'
'ի՞'
'▁амбасадор'
'HZ'
'ఈ'
'amar'
'▁mensaje'
'▁estrella'
'ヒット'
'▁tokį'
'鮭'
'ਊ'
'▁okup'
'বাংলাদেশ'
'電視劇'
'▁хүчирхийл'
'▁تکمیل'
'уды'
'▁ההחלטה'
'▁avêtin'
'▁बाधा'
'▁poziom'
'tății'
'▁గాలి'
'▁കുട്ടികള്'
'▁руководства'
'▁હસ'
'▁справ'
'ண்ண'
'▁өрөө'
'زيم'
'▁xusay'
'▁línia'
'▁കമ്മീഷന്'
'φια'
'തിനാല്'
'▁dyshuar'
'给'
'▁kele'
'十三'
'▁رہی'
'اقتصاد'
'▁აკეთებ'
'▁უცნაური'
'▁गराए'
'га'
'▁പ്രസിദ്ധീകരിക്ക'
'▁заттар'
'പ്രേ'
'لاشتۇرۇپ'
'▁କେମିତି'
'రత్న'
'НОВА'
'sine'
'▁kep'
'▁अजून'
'▁zniža'
'▁ανοιχτ'
'▁ਦਰਸ਼ਨ'
'▁των'
'ковић'
'▁بھوک'
'▁ಕಲ್ಪಿಸ'
'▁починають'
'▁aké'
'děla'
'▁ominais'
'mitta'
'ሞት'
'▁histórico'
'▁நீங்கள்'
'ባህ'
'▁Обама'
'eerida'
'ستراليا'
'出租车'
'ibi'
'▁plusieurs'
'▁Karu'
'有钱'
'顾问'
'▁Однако'
'▁Ψ'
'▁piept'
'⛄'
'活动中'
'▁tehnologija'
'▁Harga'
'riad'
'▁edit'
'▁Rahman'
'▁köçürül'
'▁სექსი'
'kje'
'tsen'
'▁tapahtuu'
'taminen'
'▁comenzar'
'חנו'
'▁mín'
'▁recorda'
'tiedot'
'▁gigante'
'▁ruas'
'Наша'
'președinte'
'▁ET'
'▁Pavlov'
'▁വ്യാ'
'מאַן'
'יבער'
'▁тавих'
'▁άνοιξε'
'▁Ferrol'
'▁miała'
'ამი'
'▁ümumilikdə'
'▁valsts'
'ilmoitus'
'▁تجربہ'
'▁дамытуға'
'▁барем'
'面臨'
'▁제안'
'▁tävla'
'嶗'
'▁ფინ'
'▁آیند'
'▁Нас'
'▁राखेर'
'▁pielii'
'▁ಬೆ'
'▁خزان'
'▁giugno'
'▁análisis'
'▁Енг'
'ЦЬ'
'dynamisk'
'▁فون'
'▁raditi'
'683'
'▁Bigg'
'▁karşıya'
'▁Miks'
'▁flora'
'我的'
'或'
'aus'
'ок'
'▁lọc'
'▁मनाया'
'▁दिनुहोस'
'▁količino'
'▁Seura'
'إش'
'▁баспа'
'▁Beschäftigung'
'ໃນການ'
'▁akar'
'獨'
'▁operativ'
'▁rahva'
'▁سنڌي'
'lice'
'▁ਵਸ'
'▁Amazing'
'▁ਸਾਲਾਂ'
'saidia'
'▁væntanleg'
'▁Mbunge'
'กําหนด'
'▁lámpa'
'▁ως'
'▁ისინი'
'▁olvasó'
'য়োজিত'
'nab'
'стта'
'▁установить'
'▁негиз'
'▁referència'
'▁bless'
'ālis'
'▁bh'
'▁suurim'
'ಿಯನ್'
'ራቸውን'
'▁ئۈ'
'енного'
'წყდა'
'▁rabatter'
'▁sellist'
'▁грошов'
'▁පුර'
'的时代'
'▁teslim'
'ccions'
'ეულ'
'▁Dara'
'▁Кина'
'▁آزار'
'一生'
'畫面'
'▁regulament'
'▁лікарськ'
'▁vozidlo'
'ciler'
'yczny'
'ご利用'
'▁fungere'
'▁ዝግጁ'
'09.'
'▁مخکې'
'▁naprawdę'
'വിധ'
'lamış'
'▁தொலை'
'▁tällaista'
'лыш'
'▁inače'
'สิน'
'▁ating'
'ഘടന'
'▁zezë'
'▁זהו'
'TAM'
'▁Kategoria'
'▁الجوية'
'57)'
'▁все'
'sögn'
'瑜'
'▁सक्द'
'▁drøfte'
'▁س'
'ଯାଇ'
'▁theme'
'▁здрава'
'▁ቢሊዮን'
'▁особі'
'▁कायम'
'adar'
'▁خروج'
'▁powoli'
'▁отстраняване'
'▁início'
'уват'
'▁lära'
'▁маж'
'▁иргэний'
'▁reddit'
'▁പഠിച്ച'
'əsində'
'▁Liike'
'▁ਇ'
'▁1789'
'喇'
'▁pola'
'抽'
'▁metabolismo'
'时候'
'▁বন্ধু'
'贪'
'狗狗'
'▁druga'
'▁කිසියම්'
'▁luat'
'السياح'
'▁називом'
'▁ulang'
'▁jóváhagy'
'▁halk'
'콩'
'▁कष्ट'
'banken'
'▁констат'
'災'
'新北市'
'全ての'
'▁Uno'
'ሙ'
'ažymė'
'▁megváltoztat'
'▁가구'
'▁Спочатку'
'▁తెలుగు'
'回来'
'거든요'
'peita'
'面前'
'葫'
'ยุทธ'
'▁කථා'
'▁झन्ड'
'▁137'
'ТУ'
'zw'
'taneet'
'▁biləcəyi'
'ଭେ'
'氧化'
'ittely'
'▁frig'
'ბილ'
'▁مملکت'
'ወስድ'
'▁erstatte'
'▁άρθρα'
'▁konsument'
'▁اشک'
'▁sincs'
'▁mulki'
'▁시점'
'▁पाण्डे'
'hic'
'களா'
'▁презентация'
'▁modifica'
'أصوات'
'▁النوع'
'▁Sha'
'ລວມ'
'汇'
'▁бүгін'
'▁покупателей'
'ዘው'
'nr'
'ようにしましょう'
'seite'
'▁КО'
'▁pues'
'janja'
'▁ھەق'
'▁Havalimanı'
'УР'
'448'
'▁बाकी'
'▁signifikan'
'▁სპორტის'
'▁дыск'
'▁житлово'
'ਬਾਦ'
'íl'
'机关'
'▁ڀري'
'тас'
'▁tähtaja'
'▁1941'
'▁బ్లాగు'
'▁4.5'
'sila'
'▁ତାରିଖ'
'▁malbon'
'▁محاسبات'
'▁SMA'
'▁avsnitt'
'▁prijazno'
'στρ'
'▁ಶೀಘ್ರ'
'▁učinek'
'▁solat'
'ωρο'
'髑'
'ccia'
'իլ'
'ကိုလည်း'
'▁Credo'
'▁pemb'
'nôm'
'▁ਚੀਜ਼'
'▁бей'
'ሰንደቅ'
'▁ժառանգ'
'▁سیکورٹی'
'▁жел'
'▁значна'
'▁سپتامبر'
'вч'
'▁централно'
'▁Ruth'
'▁болгосон'
'▁vitamin'
'▁столов'
'keta'
'▁svarer'
'▁Athletic'
'皸'
'wel'
'▁бензин'
'privat'
'▁الغرف'
'▁Баба'
'▁hasonló'
'vila'
'决心'
'▁Kementerian'
'ગલ'
'nggal'
'れます'
'ဆန္'
'ிருக்கிறார்'
'▁جیب'
'▁քան'
'وی'
'ገኘው'
'▁hurrengo'
'▁ka'
'▁obro'
'commerce'
'▁kigge'
'▁هدیه'
'▁olmağa'
'▁Linie'
'▁થયેલા'
'▁ago'
'შის'
'ပါပဲ။'
'frut'
'▁wakacje'
'frac'
'▁виникає'
'ნური'
'OSA'
'▁көрсету'
'ړي'
'▁islami'
'▁Mesir'
'KAT'
'▁maska'
'▁частіше'
'▁θύμα'
'▁aba'
'ეთში'
'▁ಗೆದ್ದ'
'▁Hitz'
'▁juntos'
'▁कारवाई'
'仔細'
'▁následne'
'ступили'
'▁saha'
'īšanas'
'éséhez'
'▁σχέση'
'Test'
'▁objavio'
'▁possible'
'▁площади'
'лын'
'.9.'
'▁vinte'
'▁prostřednictvím'
'▁aparut'
'▁nasional'
'▁даље'
'▁କରିଛନ୍ତି'
'▁Սարգսյանի'
'hooldus'
'ព្រឹត្ត'
'▁મારી'
'▁συζήτηση'
'▁sarkan'
'▁Licenc'
'▁комнат'
'jalan'
'รถบรรทุก'
'毗'
'▁경쟁'
'▁ավանդ'
'▁አይደለም።'
'▁მ'
'▁мү'
'▁الشعر'
'涝'
'b'
'аас'
'▁жена'
'place'
'ئەلەيھىسسالام'
'▁ייחוס'
'▁영양'
'↟'
'sump'
'יים'
'침'
'4.3'
'▁Божи'
'▁ارتقا'
'▁നിന്ന്'
'ებიან'
'▁طبیعی'
'▁Нека'
'▁преду'
'▁Gad'
'الرياض'
'คุณค่า'
'▁өлчөмү'
'Энх'
'攸'
'▁carinho'
'▁توڑ'
'გათვალისწინებული'
'▁natin'
'▁erstmal'
'▁고양이'
'してきました'
'درك'
'▁joke'
'ህል'
'เข้ม'
'▁informat'
'સુ'
'▁адзенне'
'hlas'
'722'
'▁Reisen'
'הרג'
'▁verander'
'▁farà'
'金屬'
'മാന്'
'მულ'
'▁రాజమౌళి'
'засновник'
'▁şermezar'
'▁quinto'
'鳶'
'▁بواسطة'
'▁произвол'
'▁Adreça'
'▁ігра'
'▁flotte'
'娛'
'▁ადგილები'
'▁vezes'
'خضع'
'▁climate'
'TARI'
'▁teret'
'▁spektrum'
'成为了'
'▁raised'
'гат'
'▁ماهه'
'▁رونمایی'
'▁பொருட்'
'▁yhteystiedot'
'\uf62d'
'des'
'ιλ'
'▁szolgáltatások'
'▁regidor'
'▁predchádza'
'▁kapalı'
'ICO'
'▁పదవి'
'▁њима'
'658'
'▁mięśni'
'▁zgłosz'
'▁бөлімдер'
'เจ๋ง'
'招待'
'▁Tweet'
'▁ظهر'
'meubel'
'▁alcool'
'▁Arri'
'▁Gees'
'யிடம்'
'▁మీరు'
'כד'
'▁ljudima'
'▁ستا'
'አል'
'▁mộng'
'▁പരീക്ഷണ'
'▁hoogste'
'野'
'人材'
'▁letih'
'▁цвет'
'▁रूपमा'
'▁tudom'
'洞'
'ுங்கள்'
'▁Ла'
'cero'
'▁ਪਿਆਰ'
'▁nyer'
'▁فساد'
'▁kek'
'ైన'
'▁rid'
'▁εφαρμόσ'
'▁האדם'
'▁anmäl'
'▁ochranné'
'նա'
'▁abri'
'▁अधि'
'힐'
'契約'
'▁dona'
'▁SMS'
'▁ארבעט'
'▁baš'
'ут'
'▁ponavadi'
'Է'
'▁Spon'
'▁odpowiednie'
'▁თეო'
'▁будь'
'飮'
'ుతోంది'
'▁понекогаш'
'▁ход'
'▁podobny'
'▁praw'
'සින්'
'ရင်'
'▁ଶିବ'
'ക്കാരുടെ'
'▁zewnętrzne'
'號碼'
'▁najprej'
'▁dostala'
'лка'
'٪'
'▁مدنی'
'▁schéma'
'▁поштов'
'haz'
'φερ'
'▁limita'
'▁jde'
'▁vyema'
'▁טי'
'氲'
'ид'
'tesse'
'olva'
'▁ନଭେମ୍ବର'
'諄'
'kı'
'▁तीव्र'
'▁شىركەت'
'🏻'
'fähig'
'▁zdravotní'
'ब्ल'
'▁anlatıyor'
'പോകുന്ന'
'ണിയ'
'▁gevoel'
'▁nuošird'
'▁Ang'
'clan'
'▁کشورها'
'▁화'
'抜け'
'ę'
'▁Өнеркәсіп'
'▁Gewalt'
'▁бор'
'▁promjenu'
'▁عباس'
'▁among'
'▁variedade'
'▁Mā'
'されており'
'▁25.000'
'Стратег'
'▁bisa'
'▁95%'
'鲜'
'ក៏ដោយ'
'▁yeniden'
'▁chấp'
'▁Đặc'
'័'
'▁Более'
'▁western'
'あっ'
'▁құрастыр'
'▁przedstawiciel'
'енні'
'ග්'
'็อก'
'▁myöhemmin'
'วก'
'▁aufgenommen'
'ຍອດ'
'▁bảng'
'ือ'
'ASAN'
'▁двама'
'ojums'
'▁ዘግ'
'ույց'
'naskiĝis'
'OITUS'
'▁πόνο'
'yum'
'▁funzioni'
'▁۵'
'▁പങ്കെടുക്ക'
'▁околу'
'▁možnosti'
'▁DJ'
'조직'
'რთული'
'▁lehibe'
'▁pintura'
'มือ'
'▁Карађорђе'
'▁Buss'
'▁हॉ'
'nõuete'
'▁Miriam'
'aging'
'ணு'
'▁Indonésia'
'▁오랜'
'▁izcīn'
'meamua'
'▁longer'
'폿'
'▁פרק'
'▁yardımı'
'ƏN'
'зілі'
'▁činjenice'
'名前'
'уулсан'
'ايمەن'
'▁Врховн'
'▁klausimas'
'носта'
'ుంది'
'▁କି'
'delingen'
'jál'
'dění'
'ຊົນ'
'tional'
'▁betrokken'
'当然'
'▁فهل'
'▁танц'
'▁sahiptir'
'рича'
'▁Экономикалық'
'▁кабел'
'▁πόσο'
'빌'
'▁انھیں'
'碍'
'▁λήψη'
'깡'
'etara'
'▁ihnen'
'捶'
'▁xarakter'
'▁Yarış'
'趄'
'▁ключевы'
'ଠ'
'▁נתן'
'▁ресурс'
'▁algunas'
'▁samotný'
'▁آمريڪي'
'▁ගේ'
'▁gratuitamente'
'່ງ'
'laşır'
'TIA'
'▁najdôležitejš'
'▁näinud'
'▁azpimarratu'
'筠'
'▁روزی'
'▁sərnişin'
'▁Ничего'
'▁thinking'
'▁ורק'
'▁районах'
'▁превоз'
'ізацыя'
'이며'
'थे'
'▁fiyatları'
'▁వర్'
'▁почива'
'torna'
'▁the'
'قسام'
'▁fifidianana'
'▁foglalkoz'
'£'
'▁მთავრობა'
'ुत'
'▁συμπεριφορά'
'▁сел'
'แก'
'▁divina'
'▁establish'
'tæki'
'暢'
'▁агенция'
'プライベート'
'▁aklı'
'▁розміщен'
'Arch'
'▁വിപ്ലവ'
'豊かな'
'▁řadě'
'konkurranse'
'▁тэлефон'
'欣慰'
'▁ενα'
'ngaphezu'
'▁недвижими'
'▁Książ'
'▁Ideal'
'▁tjeneste'
'тинг'
'▁ظفر'
'罗马'
'เคลือบ'
'โช'
'জ'
'language'
'ши'
'▁afero'
'трымалі'
'▁Mərkəzində'
'▁വീട്ടിൽ'
'ሃያ'
'▁Maßnahmen'
'▁ڪاب'
'▁הנסיעה'
'▁lepi'
'▁Alert'
'▁друштвене'
'ŋ'
'▁сённяшні'
'▁멤버'
'▁baho'
'▁ರೋಚಕ'
'kast'
'▁Maydoni'
'▁određeno'
'▁drugs'
'▁felismer'
'▁डॉ'
'▁ئاق'
'▁izteikt'
'▁شهزاد'
'▁суурь'
'rico'
'▁इन्'
'▁делегация'
'▁действие'
'▁վավեր'
'នូវ'
'િયા'
'▁ਫ਼ਿਲਮ'
'1]'
'▁дачыненні'
'▁as'
'ละเมิด'
'ခွဲ'
'▁chor'
'▁nimmt'
'▁ваздушн'
'▁душ'
'薇'
'▁veya'
'▁hộ'
'▁չնայած'
'▁velocemente'
'▁ಸೌಲಭ್ಯ'
'▁слике'
'▁საქმის'
'▁vänner'
'▁sexual'
'▁සුර'
'▁Ulug'
'rare'
'এইচ'
'▁parduotuvėje'
'合同'
'▁течност'
'遭'
'▁భయం'
'▁Hạnh'
'vlad'
'▁сообщить'
'яви'
'▁osobních'
'▁GENERAL'
'▁υλοποίηση'
'▁exercicio'
'▁интересу'
'єм'
'▁коюлган'
'▁Suriye'
'hart'
'▁financier'
'▁ਦੇਸ਼'
'塗'
'▁مرو'
'▁રે'
'▁München'
'塑'
'▁ikä'
'utbildad'
'▁oblig'
'▁münasibətlər'
'វិញ'
'▁interesadas'
'的男人'
'滦'
'▁ବିଜେଡି'
'කැ'
'TUAL'
'cát'
'▁Training'
'東方'
'▁vya'
'จุฬา'
'다가'
'jściu'
'▁തുടർന്ന്'
'▁Czy'
'▁ወሬ'
'▁ස්'
'▁Scen'
'▁પુસ્તકો'
'ément'
'▁국회의원'
'موا'
'iisii'
'▁عيد'
'▁habitació'
'▁hlutverk'
'▁فاز'
'▁bituka'
'▁mọi'
'▁какие'
'裝飾'
'▁пр'
'纪律'
'▁વિભાગ'
'▁ඉතාමත්'
'▁előbb'
'▁დავიწყე'
'▁ბოლომდე'
'eòlas'
'▁plictis'
'下手'
'▁पूँजी'
'▁салон'
'▁తెలుసా'
'▁έπειτα'
'रहँदा'
'▁رفته'
'ԵԿ'
'jomis'
'受到'
'▁ഉമ്മ'
'▁Бас'
'▁ಸಾಧಿಸ'
'▁России'
'▁satan'
'高雄'
'วิจารณ์'
'▁konkrétní'
'心理学'
'▁واٽ'
'박람회'
'him'
'เหลี่ยม'
'▁PDK'
'▁incerca'
'պար'
'▁Испании'
'krij'
'▁මොන'
'▁wood'
'三级'
'▁budżet'
'▁ಕೂಡ'
'▁проверка'
'▁գրում'
'▁ڪرپشن'
'істи'
'▁sepatutnya'
'ļo'
'▁misschien'
'ಕ್ಕೆ'
'▁verdens'
'▁ilmselt'
'sgrif'
'▁отсутствии'
'▁देखी'
'፬'
'geleenthede'
'▁həqiqət'
'ادي'
'制度'
'බද'
'▁لافتا'
'แม้ว่า'
'찧'
'▁bliver'
'▁rejt'
'4,4'
'▁اشخاص'
'▁Putin'
'▁የማስ'
'拒絕'
'schluß'
'▁Zwolle'
'▁buyur'
'ತೋಟ'
'存储'
'▁δίσκο'
'ରରେ'
'蔔'
'▁epekto'
'▁опаковка'
'อยู่ใน'
'▁ئېلىپ'
'▁poţi'
'▁komisar'
'ຊ່ຽວຊານ'
'overensstemmelse'
'▁временно'
'▁проверку'
'ዶች'
'▁ഐക്യ'
'蚺'
'ాత్మ'
'▁نشانہ'
'apuram'
'垫'
'夙'
'ሰበ'
'ତେ'
'▁ból'
'ცენტრ'
'▁पवार'
'▁ගත්තේ'
'▁mahdollisimman'
'▁fantasma'
'▁obrazu'
'琨'
'▁Tuttavia'
'oral'
'▁gesehen'
'▁dos'
'పడ్డ'
'▁لمواجهة'
'rilla'
'▁למו'
'▁tabac'
'▁domosdoshme'
'▁crai'
'▁üzü'
'मुनि'
'imo'
'曾經'
'▁források'
'辆'
'autor'
'मेन'
'గ్గ'
'-01-'
'に参加'
'▁regény'
'▁pár'
'▁હા'
'▁желе'
'ý'
'▁пункт'
'▁energijo'
'σκι'
'▁skolan'
'同仁'
'套'
'▁Olimpik'
'ಹಿಡಿಯ'
'滌'
'▁érdekében'
'ყურებ'
'మి'
'শিল্পী'
'▁nehmen'
'▁Change'
'ശാസ്ത്രം'
'▁يەرلىك'
'dico'
'Lajm'
'▁распаўсюд'
'▁Gastro'
'ITY'
'▁الرياضة'
'▁fattig'
'▁elküld'
'ប្រយ័ត្ន'
'гове'
'标准化'
'തിനെ'
'ARGA'
'yzacji'
'嶙'
'▁ਪ੍ਰਾਜੈਕਟ'
'▁ಪ್ರೌಢ'
'▁ותשובות'
'โ'
'▁zweiten'
'δική'
'▁بدأ'
'▁кыргызстандык'
'ivité'
'▁Iisus'
'▁čaro'
'ογράφο'
'▁កា'
'VED'
'▁ზუსტად'
'▁მოსახლეობის'
'▁Católica'
'▁ngokwe'
'雰囲気'
'▁баригч'
'▁meski'
'▁existência'
'▁Timbang'
'在家'
'▁całości'
'▁սկսեց'
'▁chống'
'▁ramas'
'ulması'
'เอาไว้'
'▁عرفان'
'ట్ట'
'▁necessità'
'ຫນາ'
'▁siguranţă'
'▁постигне'
'▁állt'
'▁ມິຖຸນາ'
'▁불러'
'▁airson'
'▁fotografía'
'slev'
'▁опција'
'▁გვერდზე'
'အဆင့်'
'▁pavarur'
'०८'
'▁preventivo'
'▁ලිව්ව'
'232'
'istí'
'▁résultat'
'に触れ'
'▁webu'
'ኢህአዴግ'
'huile'
'መና'
'▁лицу'
'URS'
'▁컨텐츠'
'設計'
'稟'
'赳'
'ဆောင်'
'▁Сепак'
'▁presion'
'▁həyatını'
'▁Βασίλης'
'完成了'
'tyneet'
'▁Rasul'
'▁ndjek'
'μέτρη'
'srapport'
'▁ਚੜ੍ਹ'
'mbok'
'▁pîroz'
'▁Partner'
'▁Д'
'▁учениците'
'▁პლ'
'▁hombres'
'▁подальш'
'▁қол'
'▁무단'
'sprak'
'võlg'
'▁ગઈ'
'ाउने'
'fus'
'▁պողոտա'
'망'
'▁Hav'
'moqda'
'▁ଜଣଙ୍କ'
'▁«'
'ില്ലാത്ത'
'ຂ້າພະເຈົ້າ'
'▁multă'
'▁compétition'
'ន្ត'
'▁landets'
'▁בריאות'
'ycznie'
'▁profesores'
'不斷'
'nang'
'▁Verdens'
'▁Vá'
'▁poeta'
'▁ایٹم'
'▁Хо'
'▁molti'
'▁삶'
'▁gceist'
'▁ज्ञान'
'インストール'
'▁wartawan'
'▁ہیرو'
'▁харилцан'
'▁Undeb'
'क्षक'
'▁chętnie'
'卷'
'▁Ge'
'▁Удружење'
'wek'
'▁اغ'
'PPT'
'вом'
'gången'
'▁ଅଧ'
'▁sinistra'
'gusto'
'▁មនុស្ស'
'▁hjir'
'nęły'
'鄒'
'首席'
'▁lisaks'
'אולי'
'▁यस'
'▁VO'
'ברית'
'成交'
'▁edilmesi'
'第十'
'▁عروس'
'ХҮ'
'त्वात्'
'▁цяжкі'
'▁अपडेट'
'▁मैंने'
'▁गंभीर'
'▁diplom'
'γο'
'öf'
'рят'
'▁Договор'
'▁Зар'
'▁nasza'
'렀'
'▁Ribera'
'▁morebitn'
'▁τελικά'
'rô'
'▁değişim'
'தாம்'
'▁mínu'
'▁hoff'
'▁Χριστούγεννα'
'сіп'
'▁сега'
'▁machen'
'▁መንገዶች'
'微信'
'▁pozor'
'▁sammen'
'砚'
'▁zložen'
'▁කිසිම'
'▁हुनुहुन्छ'
'▁Ярослав'
'▁आपके'
'▁Aika'
'zorg'
'▁इसी'
'beauftragte'
'▁ətraflı'
'yun'
'▁பேச்சு'
'vitra'
'▁opsies'
'ØR'
'лски'
'ट्रा'
'头'
'糯'
'▁інвалід'
'懂'
'ఏ'
'sætte'
'豇'
'▁नष्ट'
'sionele'
'▁ივლისს'
'▁ketakutan'
'▁korting'
'ケア'
'ಾತ್ಮಕ'
'ショッピング'
'▁otroke'
'▁Конгрес'
'▁නමින්'
'▁ideea'
'tajā'
'捉'
'▁mno'
'▁працівника'
'▁sholat'
'ttävä'
'▁наук'
'▁Сыр'
'▁indicato'
'▁televisie'
'▁ڦر'
'美妝'
'▁නිරීක්'
'▁őt'
'▁predstavil'
'▁Município'
'▁paštas'
'▁έρχεται'
'ونها'
'▁باکتری'
'2025'
'占据'
'dėti'
'▁abajo'
'▁রাখ'
'▁cẩn'
'▁operativo'
'▁Jenkins'
'▁умения'
'▁marcia'
'▁व्यापक'
'됬'
'oten'
'關注'
'▁Пенс'
'▁badiiy'
'▁قارچ'
'tea'
'▁výrazně'
'gūst'
'▁buux'
'▁Такие'
'▁conclusi'
'▁Nhất'
'▁ΤΟΝ'
'▁පවත්වාගෙන'
'▁немає'
'▁केसी'
'▁bijuterii'
'ሰጣቸው'
'▁આપણા'
'▁өзүнчө'
'▁потрібні'
'▁ડોલર'
'▁አገዛዝ'
'🍂'
'▁ہوکر'
'▁igen'
'uksia'
'電梯'
'ጉት'
'▁ĝis'
'▁masiv'
'▁Wind'
'▁قوه'
'▁விவாத'
'▁ständig'
'▁oherwydd'
'▁vieš'
'▁průmysl'
'រីក'
'伦敦'
'ырып'
'ώνονται'
'mela'
'▁сферах'
'järve'
'▁дәрі'
'▁ගොඩ'
'▁esnaf'
'íc'
'▁ön'
'uncu'
'▁sov'
'zou'
'▁valsti'
'▁فقال'
'▁Roberts'
'▁پردیس'
'▁дизајн'
'▁rizik'
'baw'
'ိတ်'
'alba'
'▁ور'
'醉'
'▁characters'
'▁دہلی'
'אוו'
'▁lovely'
'▁ഉടമ'
'▁שירותי'
'▁itthon'
'▁mainittu'
'验'
'▁הדג'
'これだけ'
'več'
'▁ostiral'
'deks'
'▁aktiva'
'▁ਪੂਰੀ'
'▁פרשת'
'▁ಸರಣಿ'
'▁క'
'prije'
'▁dhawaa'
'▁há'
'ettava'
'▁покритие'
'aty'
'▁pēdējo'
'▁fej'
'▁Тест'
'々に'
'телефон'
'ዘን'
'▁ખૂબ'
'▁დეკემბერი'
'зда'
'▁Италия'
'▁Gav'
'链'
'▁selvittä'
'▁UN'
'▁못'
'▁Peru'
'譙'
'▁Мастер'
'▁όφελος'
'▁భ'
'▁grønne'
'▁agresi'
'▁לנסות'
'▁فېس'
'▁fabrication'
'▁davr'
'17'
'▁पोलीस'
'调'
'▁Rosen'
'cionit'
'▁Мит'
'बह'
'▁Regler'
'▁քաշ'
'日程'
'▁przez'
'▁гордост'
'▁qaatay'
'▁때는'
'ਆਪ'
'▁yararlan'
'▁festivala'
'ndum'
'Ajuntament'
'▁működés'
'匹'
'പോയ'
'▁ნაკლები'
'▁وه'
'▁Nanging'
'▁घरेलू'
'▁workout'
'ders'
'alma'
'сутнасць'
'muoto'
'stræ'
'▁दिसत'
'กว้าง'
'▁nangangahulugan'
'▁necesaria'
'▁انتهت'
'▁հարյուր'
'деле'
'▁aktiviti'
'に戻'
'▁NFC'
'▁planlagt'
'PEL'
'▁പ്രശ്'
'▁महासचिव'
'hjælp'
'жни'
'▁పేర్కొన్నారు'
'▁прст'
'▁நேர'
'▁kanuni'
'▁திட்ட'
'марк'
'▁kolme'
'▁અંદર'
'▁äußerst'
'vesi'
'ለሁ፡፡'
'▁متفق'
'▁तसे'
'ுகிறது'
'▁उनीहरुको'
'▁regno'
'▁Sûriye'
'▁رمضان'
'▁परमेश्वर'
'▁разы'
'▁hrvatski'
'▁آموزش'
'▁moddiy'
'▁полицаи'
'▁प्रचार'
'ць'
'▁kendi'
'▁zodpovedn'
'մանը'
'▁Ryssland'
'▁حبیب'
'ฅ'
'雑誌'
'▁phép'
'▁التعبير'
'▁Magda'
'▁कसले'
'eline'
'▁ಕಲೆ'
'▁đảng'
'Ан'
'▁Stunde'
'▁mirar'
'یری'
'ชาย'
'(18'
'▁Bölmə'
'▁река'
'▁Република'
'鼻'
'ියාව'
'获悉'
'▁প্রয়োজনীয়'
'見られる'
'▁kaikesta'
'ljene'
'▁fortsette'
'ljev'
'퀴'
'壘'
'▁לכתבה'
'ሒ'
'▁Materialien'
'同士'
'▁descenso'
'▁სასარგებლო'
'▁главу'
'▁פארק'
'▁çəkiliş'
'▁használják'
'ovanju'
'▁seçə'
'▁காரண'
'▁egyben'
'▁çözümü'
'▁පොලිස්පති'
'▁കൊടുത്ത'
'갛'
'كويت'
'▁포함'
'▁Ber'
'▁spletu'
'경영'
'▁ilustra'
'▁necesară'
'▁kresťan'
'ინის'
'▁Exc'
'सारखी'
'lnie'
'▁ਸੰਭਾਲ'
'uudet'
'nosci'
'מוסר'
'▁פרעזידענט'
'▁모르는'
'രിക്ക'
'▁kompatibiln'
'▁Много'
'▁ਅੱਖਾਂ'
'▁Сид'
'▁Gjilan'
'▁۲۰'
'යාවේ'
'▁гурван'
'ат'
'क्स'
'▁عهده'
'▁javë'
'▁kemahiran'
'▁Avengers'
'อุบลราชธานี'
'▁ኖሮ'
'▁абарон'
'แม้จะ'
'▁любой'
'▁ple'
'▁kari'
'▁נייע'
'▁accusantium'
'▁Ferrari'
'prowadzą'
'▁química'
'▁yönetim'
'adii'
'▁erittäin'
'▁നാ'
'打算'
'wasa'
'▁láz'
'予以'
'什么是'
'kį'
'flag'
'▁Lebanon'
'1⁄2'
'מציא'
'nięcie'
'▁partidos'
'▁olemasolu'
'дийн'
'ତା'
'annan'
'不思議'
'▁gydytoja'
'▁administração'
'▁garanti'
'য'
'Krist'
'▁охот'
'▁атрымаў'
'▁Ry'
'▁geçmiş'
'▁bede'
'ке'
'▁wyższy'
'ське'
'▁notar'
'▁Acht'
'??'
'કુલ'
'▁gyakran'
'▁Слободен'
'▁Ireo'
'可供'
'▁Buzz'
'▁տեղակալ'
'▁децу'
'▁వి'
'▁nylon'
'בטיחות'
'少しずつ'
'▁Qanunun'
'▁დაავადებები'
'▁درآمد'
'▁លក់'
'wiedzi'
'搐'
'▁وحشی'
'瓜'
'▁најмалку'
'මී'
'▁توانمند'
'▁გაიხსნა'
'▁BIG'
'քին'
'激励'
'▁Servei'
'▁projekata'
'nemu'
'鏟'
'▁රමය'
'一脸'
'▁Katalog'
'▁tutkimus'
'hand'
'▁valimis'
'▁предложений'
'▁trứng'
'बाह'
'2,00'
'筊'
'▁वेगवेगळ'
'▁decorativ'
'ทัย'
'▁Сед'
'λου'
'옐'
'▁puertas'
'ä'
'▁plaće'
'ГЕН'
'▁ձախ'
'▁არიან'
'▁konzentrieren'
'▁saada'
'133'
'▁Климент'
'كاتب'
'▁свободно'
'▁لما'
'▁πώς'
'hängen'
'መራ'
'▁produir'
'▁специальные'
'▁yılı'
'polo'
'▁instrumentos'
'▁Cá'
'見る'
'▁részlet'
'▁الصغيرة'
'▁kinakailangan'
'▁trening'
'补助'
'сээр'
'▁обед'
'▁kesilapan'
'접'
'▁ଲଗା'
'szony'
'▁בבי'
'をクリック'
'▁മുമ്പ്'
'▁Psycholog'
'▁ПДВ'
'▁prona'
'▁seksual'
'前回の'
'kone'
'▁accompagna'
'győ'
'▁conte'
'モ'
'▁çevresinde'
'ידי'
'▁ტრანს'
'▁общественных'
'▁навед'
'▁analizza'
'CHER'
'▁2016'
'▁વ્યાપ'
'业绩'
'▁Zij'
'2.6'
'▁процеси'
'卸'
'罠'
'sök'
'▁физических'
'▁zavar'
'▁kos'
'▁dostali'
'配'
'árias'
'▁नेते'
'▁armi'
'거야'
'▁перемог'
'▁ಬೇ'
'hrani'
'▁демократия'
'▁ieškoti'
'ቴ'
'▁משמש'
'やり方'
'▁Betriebs'
'▁rechter'
'▁втручання'
'▁Siinä'
'▁derecha'
'爱情'
'十分'
'виробник'
'IBI'
'biguherîne'
'▁jardin'
'▁enviar'
'יישאַן'
'▁comenzó'
'တယ်'
'เห็นว่า'
'▁θεωρούν'
'▁فعلی'
'نيا'
'ਰਾਸ਼ਟਰੀ'
'ում'
'▁critical'
'ayotgan'
'▁дотримання'
'踏实'
'פות'
'▁equal'
'דרג'
'shield'
'▁الوسائل'
'▁సేకరించ'
'љени'
'▁छिटो'
'گرایان'
'▁ആരാധക'
'▁İspaniya'
'ীদের'
'لف'
'▁পর্যন্ত'
'▁مسجد'
'▁ಪರಿಚಯ'
'▁Sonder'
'▁неадекват'
'▁rapi'
'きっかけ'
'ശബ്ദ'
'▁Guill'
'敲'
'တတ်'
'▁мың'
'üldü'
'▁Υόρκη'
'▁role'
'▁kushirikiana'
'▁Sabah'
'▁próf'
'▁Gure'
'▁зориул'
'瑠'
'▁эхэлсэн'
'▁Hesab'
'▁næsta'
'▁জানিয়েছেন'
'▁εμφαν'
'▁დაბადების'
'近所の'
'▁سرور'
'▁ধর্ষণ'
'▁qualunque'
'滑鼠'
'▁සිතා'
'έντα'
'▁kozm'
'▁циљу'
'laştı'
'▁רק'
'▁condicións'
'▁engem'
'▁kādu'
'▁ЦК'
'▁kilometara'
'▁Ľudia'
'▁città'
'겹'
'圍'
'▁repli'
'▁მთავარი'
'batur'
'▁líbí'
'▁pollution'
'▁который'
'▁Вір'
'▁գոյություն'
'▁1967'
'▁ტესტი'
'▁grunt'
'▁mə'
'▁několika'
'▁garçon'
'дах'
'▁aduna'
'dām'
'看到了'
'▁anus'
'▁ਕਰੋ'
'▁മഞ്ജു'
'ዚሁ'
'ářské'
'درس'
'▁процесот'
'兩位'
'▁porém'
'バラ'
'▁తర్వాత'
'allo'
'\u202d'
'▁eneste'
'kuru'
'▁дойде'
'▁salienta'
'▁نومبر'
'γέ'
'▁DS'
'▁dimaksud'
'bedürftig'
'因'
'MMA'
'▁때문이다'
'▁Giám'
'▁kjøpt'
'▁kỹ'
'strup'
'▁එක්ව'
'▁abia'
'दा'
'▁робити'
'▁tampoc'
'▁urna'
'føring'
'panda'
'▁UM'
'▁Jadi'
'ဆယ္'
'▁просто'
'杰'
'▁realizuar'
'▁Chin'
'▁AZADLIQ'
'czas'
'ရရှိ'
'জান'
'gosto'
'ër'
'▁աշակերտ'
'▁ಅಧಿಸೂಚನೆ'
'▁defnyddio'
'▁റഷ്യ'
'▁femei'
'▁қарамастан'
'▁овој'
'▁osnovu'
'地址'
'✘'
'▁Bro'
'餸'
'▁mada'
'▁بصری'
'▁urma'
'▁ತೆರೆ'
'▁إلا'
'▁αίμα'
'▁volume'
'آب'
'▁ცენტრალური'
'▁निज'
'▁ragazze'
'Ҳ'
'▁människor'
'ፋር'
'▁Віль'
'と言われ'
'▁moro'
'很多时候'
'議論'
'culo'
'。'
'嗫'
'▁گفته'
'▁Материалдарды'
'▁გადაწყვიტა'
'cendi'
'▁իրականացվող'
'▁memeriksa'
'▁flyktning'
'▁vál'
'獣'
'ტე'
'ألم'
'ాడ'
'čkih'
'▁tühi'
'▁هدایت'
'墮'
'▁улуттук'
'▁professores'
'▁ideya'
'▁meni'
'zam'
'jét'
'▁الأمور'
'▁pengeluaran'
'YD'
'▁φετιν'
'▁pääosin'
'bac'
'ვნე'
'▁þrátt'
'骛'
'АУ'
'тура'
'▁Zustimmung'
'▁लिखे'
'IN'
'▁willing'
'ού'
'▁participar'
'▁గ్రామ'
'▁മാധ്യമ'
'換え'
'蒐'
'▁fotograf'
'amerikanische'
'tiču'
'▁Butik'
'▁produit'
'ográfico'
'▁المملكة'
'▁África'
'沒什麼'
'スペース'
'водили'
'▁Kur'
'▁فرانسه'
'▁свае'
'▁mõiste'
'▁jangka'
'▁koro'
'hle'
'▁واقعی'
'▁Всъщност'
'តិ'
'▁◆'
'Љ'
'▁എഴുത്തുകാര'
'പറഞ്ഞ'
'▁противоположно'
'▁රශ්නය'
'حقوق'
'อเมริกา'
'▁альтэрнатыва'
'ې'
'▁ostatnich'
'▁următoare'
'▁طا'
'ിക്'
'▁thua'
'срочно'
'▁Hå'
'عمار'
'ផ'
'▁ટ્રા'
'▁kojim'
'▁ہائی'
'▁Dorf'
'▁gyönyörű'
'▁vještine'
'ációs'
'אַל'
'▁type'
'▁fêst'
'ရဲ့'
'▁내부'
'▁Ke'
'に入る'
'ង្'
'▁বেআইনি'
'▁LP'
'şünas'
'外界'
'ଲୋ'
'▁ihneď'
'😤'
'▁Οργαν'
'▁이뤄'
'ējusi'
'▁இன்னொரு'
'▁Јерусалим'
'脍'
'▁ಭಾರತದ'
'▁Barri'
'ວາງ'
'具備'
'▁اکتوبر'
'▁பிரதேச'
'构建'
'toa'
'สนับสนุน'
'务'
'▁않을'
'▁коначно'
'▁ефекти'
'하신'
'▁Régi'
'▁Spirit'
'▁gefnogi'
'joj'
'▁علامت'
'▁ръководител'
'systeem'
'▁Русију'
'ហ្វេសប៊ុក'
'7-1'
'▁tredje'
'▁bazë'
'▁ಪಡೆಯ'
'▁энэ'
'富有'
'的想法'
'▁আধুনিক'
'▁físico'
'▁Başkanlığı'
'琶'
'▁ივნისი'
'▁შესრულება'
'▁izateko'
'▁ئەڭ'
'▁ասած'
'▁විශාල'
'▁сме'
'鍍'
'▁내'
'▁וְ'
'▁tuote'
'▁الدراسي'
'▁тільки'
'▁ځواب'
'▁алуға'
'▁Csatlakoz'
'▁чланак'
'вена'
'▁पारेको'
'nar'
'▁mencapai'
'篇'
'▁वहां'
'▁сајту'
'▁ਆਉਂਦੀ'
'▁VW'
'▁бих'
'▁Lau'
'▁Мектеп'
'▁američko'
'▁katıl'
'พระบาทสมเด็จพระ'
'▁impression'
'論壇'
'▁Москва'
'▁yerlerde'
'изирован'
'LAT'
'▁compliance'
'bendradarbiavimo'
'▁набор'
'▁something'
'ՈՒՐ'
'ໂດຍການ'
'▁zadowoleni'
'▁අහස'
'ਰਕ'
'โฟ'
'或其他'
'▁মতামত'
'ženja'
'▁Käytä'
'▁Alytaus'
'▁fiók'
'िये'
'נב'
'▁hêzên'
'▁પ્રેરણાત્મક'
'▁presentación'
'▁bezpieczne'
'▁سقوط'
'істы'
'▁ზურაბ'
'▁مقاله'
'▁Leo'
'písať'
'▁dilaksanakan'
'▁faktum'
'▁جبکہ'
'抹'
'റേ'
'▁ಟ್ರೆಂಡಿಂಗ್'
'▁succede'
'▁оформления'
'▁Kategory'
'经理'
'▁Wu'
'▁تغییرات'
'ចាប់ខ្លួន'
'▁vajzë'
'ењето'
'▁ڪام'
'cioj'
'▁Allar'
'▁θέλουν'
'▁یکی'
'▁ਨਿਕਲ'
'鐳'
'▁olduğumuz'
'առ'
'kwaliteit'
'▁كۈچ'
'▁jurist'
'▁котрі'
'▁suositella'
'ग्राफ'
'▁zorla'
'សៀវភៅ'
'▁당신'
'વિધ'
'장은'
'όπλων'
'▁палітычных'
'▁አሸ'
'poly'
'dist'
'▁אַ'
'▁Giardia'
'▁nakaraang'
'ция'
'▁consilier'
'ans'
'▁routine'
'▁instante'
'▁тартип'
'擬'
'▁segíteni'
'▁օգնել'
'▁свързано'
'▁tub'
'чө'
'▁راډيو'
'▁припи'
'▁የሚያስችል'
'07.2016'
'ጠብቅ'
'▁vyč'
'ğ'
'våning'
'чни'
'▁bouw'
'还是要'
'മാകുന്ന'
'produkte'
'▁ବିଶ୍ୱାସ'
'▁digwyddiad'
'▁ಬಂಡವಾಳ'
'▁vorig'
'▁관한'
'lup'
'ശാസ്ത്ര'
'▁встановити'
'期刊'
'▁erreichen'
'▁dê'
'કરણ'
'ਦਾਤਾ'
'▁കാര്'
'▁خصوصی'
'▁hovor'
'▁pseudo'
'ဟင္'
'▁out'
'basert'
'▁sinni'
'▁pakalpojuma'
'щеше'
'▁foar'
'▁ਕੋ'
'kən'
'▁سڃاڻپ'
'జా'
'▁यसलाई'
'▁zahvat'
'pression'
'▁экономически'
'▁редовни'
'ոզ'
'▁távoz'
'▁نجی'
'▁यादी'
'▁möchtest'
'▁እንዳለ'
'▁planned'
'▁slim'
'जे'
'▁asian'
'рвен'
'▁mașini'
'ɤ'
'▁complaint'
'▁काठमाडौँ'
'zimmer'
'▁любовь'
'værk'
'ством'
'▁plana'
'逻'
'买了'
'▁wek'
'▁včeraj'
'▁ఆధ్వర్యంలో'
'▁měsíců'
'▁bulma'
'▁ਕੁਝ'
'▁personazh'
'▁općenito'
'Dekho'
'▁yote'
'szélesség'
'▁kodu'
'钦'
'▁þitt'
'▁වෙනම'
'▁sünnipäeva'
'▁ideju'
'▁paldies'
'▁مانند'
'▁længere'
'▁dreng'
'గా'
'桂'
'ріб'
'的基础'
'▁použiť'
'▁sprendimo'
'拿出'
'▁ಅವಕಾಶ'
'▁sinyal'
'囧'
'▁Paĝoj'
'ქორწილ'
'아시아'
'▁kiam'
'▁اليد'
'▁regnum'
'កូរ៉េខាងជើង'
'▁મોડ'
'▁søndag'
'хме'
'▁мистер'
'värd'
'ผู้บริโภค'
'▁calm'
'▁Мис'
'LAH'
'▁etme'
'▁Linn'
'pracoval'
'近几年'
'▁бири'
'lenie'
'ίο'
'დოთ'
'▁mohon'
'▁anat'
'▁ölüb'
'▁prodajo'
'lwytho'
'▁članice'
'ضرورة'
'ක්ක'
'▁Ку'
'▁lesquels'
'▁талаар'
'が出る'
'▁նկարահան'
'▁Skënderbeut'
'▁សេដ្ឋកិច្ច'
'▁ಸುವರ್ಣ'
'מנעול'
'lær'
'ычны'
'▁అబ్బాయి'
'ạc'
'▁ଟ୍ରେନ୍'
'▁tokony'
'▁ತೆರಿಗೆ'
'척'
'▁esemény'
'▁Fjordane'
'▁Управл'
'ዲ'
'▁familii'
'▁σημασία'
'▁("'
'▁responsabile'
'നിന്ന്'
'කාරිය'
'δικο'
'▁oyuncu'
'schwe'
'▁dieťaťa'
'▁దాంతో'
'▁Disse'
'▁नहुने'
'▁पू'
'▁informó'
'▁प्रार्थना'
'jifunza'
'▁سلسلے'
'▁Світ'
'nål'
'▁Вами'
'▁pomáha'
'▁الطعام'
'▁experimenta'
'moji'
'SHOP'
'▁göstərmək'
'лица'
'▁gyfer'
'▁উদ্যোগে'
'▁ଏଣିକ'
'Paul'
'▁празници'
'▁tənqid'
'▁კვლევა'
'▁აღარ'
'▁pamäť'
'▁стремление'
'▁Техник'
'孿'
'▁წყლის'
'ことが多く'
'▁bordo'
'▁surtout'
'▁κυκλοφορία'
'▁świadczenia'
'▁succès'
'地铁'
'▁scri'
'▁benytter'
'的人'
'▁konstatera'
'俳'
'laboratori'
'2%)'
'▁проте'
'小さく'
'▁noudat'
'▁maoni'
'▁ոչ'
'▁maksimal'
'Регион'
'▁Ziarul'
'771'
'Person'
'▁ezagutzeko'
'barn'
'▁домой'
'▁Služb'
'▁asukoha'
'▁Conheça'
'Կատեգորիա'
'လွတ်လပ်'
'σθητ'
'▁pristup'
'▁ranije'
'niu'
'▁أسعار'
'▁Forte'
'▁कौशल'
'つもり'
'답니다'
'არულ'
'ė'
'▁ағза'
'▁pludselig'
'太阳能'
'▁سبک'
'က်င္'
'▁Род'
'कृ'
'ANTI'
'θα'
'▁راهکار'
'πα'
'▁Agenda'
'ņa'
'▁განსაზღვრ'
'▁May'
'▁ווע'
'▁సిబ్బంది'
'▁Viesti'
'▁అద్భుతమైన'
'▁аноним'
'▁посаду'
'よりも'
'ставлять'
'▁beskrevet'
'▁свържете'
'▁والغ'
'▁κινήσεις'
'▁працэдур'
'▁ему'
'▁وق'
'▁включа'
'▁படி'
'▁urtarrilaren'
'▁Saba'
'202'
'攢'
'▁Eu'
'▁minimalist'
'▁қарапайым'
'ဆုံ'
'▁megold'
'▁kiekvieno'
'បងប្អូន'
'▁म्युजिक'
'▁מספק'
'پلو'
'▁tapahtunut'
'אבחון'
'vata'
'蕞'
'▁doplnil'
'🔮'
'▁development'
'АХ'
'▁Sınıf'
'▁üzvü'
'ريز'
'▁उत्कृष्ट'
'▁znanych'
'▁לעומת'
'▁dünyanın'
'gido'
'▁kota'
'▁sərhəd'
'▁मरीज'
'▁ietekmi'
'▁לדעת'
'ा'
'itate'
'ဆိုင္'
'快感'
'癜'
'比分'
'17)'
'▁bulu'
'▁اسيمبلي'
'▁Nähe'
'▁историк'
'▁ನಿರ್ದೇಶಕ'
'БГ'
'▁କମିଶନ'
'▁ஜோதிட'
'▁uiteindelijk'
'▁qaba'
'▁станица'
'盘'
'▁Τσίπρα'
'▁catalán'
'▁Полтавськ'
'▁φιλοσοφία'
'▁процессе'
'▁Чаму'
'ራችሁ'
'▁hêvî'
'▁שליט'
'មាស'
'▁Europoje'
'शृ'
'▁quyidagi'
'▁দিলেন'
'▁faa'
'▁듣는'
'椭'
'élet'
'ത'
'UNAN'
'▁ылайык'
'▁لیا۔'
'▁gebed'
'▁окна'
'▁ነዉ'
'TIV'
'▁мала'
'▁يىلى'
'▁exercer'
'▁conceito'
'લિ'
'▁плажа'
'▁алынып'
'▁ստեղծվել'
'遇到'
'ລູກຄ້າ'
'590'
'▁Meeting'
'▁kuuluva'
'പെട്ട'
'ลิป'
'▁axaftin'
'▁informaciją'
'▁commemora'
'▁රස්සාව'
'видимому'
'더라도'
'နောက်'
'▁جب'
'▁точку'
'es'
'kaista'
'▁përqind'
'▁Aula'
'krzy'
'▁عباسی'
'▁Ministrstvo'
'▁обращает'
'▁Ευρωπαϊκής'
'▁тонн'
'▁реда'
'▁cenaze'
'헉'
'▁қызыл'
'▁ενημέρωση'
'organismo'
'▁binnenkort'
'ਹਾਰ'
'▁hana'
'▁ստանում'
'▁खिलाड़ियों'
'ത്തിനുള്ള'
'▁množic'
'▁reikšming'
'bilder'
'▁다'
'▁özellikleri'
'▁rozhraní'
'▁substituí'
'▁симптом'
'▁pyy'
'著作'
'▁fylke'
'▁Jogos'
'▁السنوي'
'твор'
'▁پام'
'▁ଲାଗିଛି'
'การประเมิน'
'颤'
'▁කොන්'
'antwortung'
'boek'
'rlo'
'▁परी'
'▁країнах'
'ခံရ'
'るもの'
'▁mijloc'
'özlü'
'yg'
'▁табыл'
'ोऽपि'
'▁빌'
'if'
'חול'
'▁или'
'ಗೆ'
'▁milyen'
'ດໍາ'
'▁stare'
'上映'
'▁álbum'
'dzes'
'▁ontstaat'
'▁അറിയിപ്പുകള്'
'▁ଖୋ'
'▁земельного'
'▁lân'
'▁chiffre'
'▁ulici'
'▁दावा'
'έβαλε'
'▁prasībām'
'강좌'
'鴛'
'nenud'
'суз'
'▁tegevuse'
'▁वाले'
'▁ಖಂಡಿತ'
'knut'
'▁हेर्दा'
'▁සඳහා'
'▁вёска'
'▁الإيرانية'
'▁پیشگیری'
'стри'
'▁pulsa'
'גשים'
'▁Energi'
'▁route'
'▁gati'
'加以'
'閲覧'
'એસ'
'रात'
'▁ricerca'
'▁हुनेछ'
'ੀਆਂ'
'ผัก'
'▁Yok'
'▁Všetky'
'▁discrimina'
'▁Mashariki'
'ੁਲ'
'第一個'
'也曾'
'▁modalités'
'▁amerikanë'
'▁pohja'
'▁hónap'
'▁जाणून'
'▁išnaudo'
'ිත'
'▁ជ'
'正しい'
'ಯೋಗ'
'▁նոյեմբերի'
'▁Irak'
'▁Hl'
'▁znal'
'▁reusit'
'▁χρηματ'
'יק'
'db'
'▁marathon'
'▁slabi'
'▁Eso'
'▁හොයා'
'съ'
'▁Praw'
'▁ल्याउन'
'▁வந்தது'
'▁περισσότερες'
'opportunità'
'▁κάποιες'
'UDE'
'isola'
'โดยเฉพาะ'
'nen'
'🐲'
'treiben'
'▁ఉంటే'
'▁njej'
'ionem'
'▁лоши'
'क्षा'
'见证'
'lieferung'
'ЫНДА'
'▁економіки'
'▁goreng'
'▁söng'
'▁avancé'
'▁marcado'
'▁yhteistyö'
'▁گا۔'
'édi'
'▁prostoru'
'BAT'
'▁upravičen'
'ፃ'
'▁protectie'
'ประยุกต์'
'▁საჯარო'
'▁өзүнүн'
'▁একটি'
'บาร์'
'tusega'
'▁приступ'
'▁know'
'揩'
'銑'
'▁தங்கள'
'▁انتظامیہ'
'▁Ikaw'
'▁производа'
'▁personalità'
'▁novaj'
'▁адреса'
'▁નથી'
'▁verkko'
'▁aveți'
'▁aina'
'▁ho'
'ఎం'
'▁consultation'
'▁সুন্দর'
'blon'
'վա'
'▁ciò'
'▁ماري'
'ibus'
'笑'
'歌手'
'▁uji'
'джээ'
'▁spectacle'
'▁quel'
'АНЫ'
'tzaren'
'▁које'
'▁దృష్టి'
'ల్డ్'
'▁Kalyan'
'▁mese'
'▁հակառակորդ'
'▁جاي'
'▁Вид'
'還可以'
'యు'
'steen'
'▁sanitaria'
'▁Kristi'
'ennus'
'▁posla'
'sını'
'▁ля'
'dham'
'▁الاقتصادية'
'▁seis'
'▁السلطان'
'rzeć'
'▁Ρωσία'
'▁pogut'
'跟他'
'▁tēmu'
'▁شکن'
'▁ισ'
'▁Verseny'
'လိုက္ပါ'
'▁구매'
'▁الجميل'
'▁Tentang'
'▁חברי'
'▁Penulis'
'▁Tunggu'
'▁grupy'
'▁ឈ្មោះ'
'▁oliy'
'▁tækifæri'
'▁επαφή'
'▁같'
'▁Monta'
'بحث'
'صغر'
'▁galimybę'
'▁భూమి'
'诱'
'▁primera'
'▁bibliothèque'
'▁მართვის'
'▁دارم'
'▁ашыруу'
'▁සංග'
'թեւ'
'їв'
'▁koszul'
'▁crawl'
'▁يې'
'箔'
'▁emberi'
'\x91'
'▁heu'
'▁Jubbaland'
'▁Nilsson'
'ÿ'
'▁budak'
'┤'
'एम'
'ል፡፡'
'ऋ'
'зов'
'▁odo'
'忤'
'▁Map'
'範囲'
'▁gabim'
'▁titlul'
'▁Může'
'◠'
'čenie'
'▁ବିଜେଡିର'
'энеси'
'▁gisa'
'▁contatta'
'▁برگزار'
'▁ktorú'
'▁tränar'
'▁importantes'
'▁tort'
'紳'
'▁المو'
'▁പരിചയപ്പെടുത്ത'
'▁контрол'
'ాలి'
'▁obrázku'
'▁hatine'
'▁imunitar'
'▁карта'
'ikäinen'
'▁เพื่อ'
'▁mag'
'tuin'
'▁benefit'
'▁ринков'
'▁uporabljajo'
'роо'
'▁gymryd'
'▁പറയ'
'▁scio'
'jsko'
'▁сазна'
'職場'
'▁توګه'
'čanje'
'▁өмүр'
'▁സംസാര'
'kunden'
'▁Kam'
'hee'
'éag'
'३६'
'▁stopinj'
'ખર'
'▁listopadu'
'לון'
'▁matéria'
'▁بطريقة'
'▁mühafizə'
'નમાં'
'Dienst'
'jur'
'ाउँदै'
'▁отримав'
'▁Zákon'
'▁בימי'
'▁изработен'
'▁peab'
'▁consul'
'wald'
'▁රහාරය'
'▁целокупн'
'商標'
'▁Perpustakaan'
'罣'
'jának'
'▁ต่อ'
'▁стотици'
'uksissa'
'我們'
'▁apa'
'▁우'
'163'
'▁december'
'▁સમાવેશ'
'▁nyanyi'
'yahan'
'淡水'
'トイレ'
'یست'
'▁સિંહ'
'▁ние'
'▁kesän'
'culi'
'missa'
'▁pierwszego'
'비용'
'pill'
'▁പ്രിയപ്പെട്ട'
'నీయ'
'τρι'
'▁adabiyoti'
'▁galego'
'▁उदय'
'▁Ethiopian'
'tà'
'▁Є'
'▁semaines'
'▁današnj'
'▁pan'
'▁หลังจากที่'
'▁\u202b'
'▁مرحوم'
'▁Norge'
'海灘'
'▁चयन'
'שחר'
'Õ'
'▁рэ'
'▁Designer'
'▁почетокот'
'▁idir'
'工程師'
'▁Mag'
'ræna'
'鹤'
'▁määrä'
'▁visit'
'单独'
'▁նկար'
'▁лоше'
'▁supposed'
'▁lekár'
'▁Euskal'
'釘'
'▁pubblicazione'
'▁Kah'
'öljy'
'▁የመጽሐፍ'
'vés'
'▁jomā'
'▁மேலே'
';'
'▁laina'
'clip'
'▁корисні'
'तम'
'funkci'
'न्न'
'▁Ulla'
'▁Хор'
'▁पेट'
'depth'
'▁holland'
'▁Jaunā'
'▁Genève'
'tería'
'▁fédéral'
'καλείται'
'▁Bê'
'▁sertifika'
'▁بگیرند'
'各界'
'orient'
'▁von'
'▁kita'
'▁läinud'
'▁પુત્ર'
'▁frå'
'▁donde'
'▁варта'
'løsning'
'▁rahbari'
'حط'
'▁majengo'
'▁කාන්තා'
'Vol'
'пеш'
'▁ପାଖରେ'
'थि'
'▁מלאה'
'▁கவிதை'
'▁древн'
'1.0'
'ഞ്ഞ്'
'▁නැත්ත'
'▁ሰልፍ'
'▁تأثیر'
'▁domeniul'
'▁እስረኞች'
'আ'
'▁kerk'
'▁भो'
'▁нормативных'
'▁چۈنكى'
'▁ikan'
'▁дазваляе'
'▁přišel'
'ብሄረ'
'Axundov'
'▁keçirilməsi'
'cinta'
'▁nghỉ'
'CIJA'
'▁نماینده'
'▁Айчыннай'
'▁vrsto'
'▁Jeg'
'各式'
'▁Jozef'
'▁حیران'
'كوت'
'▁studente'
'zaangażowan'
'▁lisä'
'▁լր'
'▁enda'
'具体的な'
'េង'
'สิว'
'▁pila'
'▁կողմ'
'หมวด'
'нструкцы'
'▁waliokuwa'
'▁കെ'
'block'
'孵化'
'▁menjadi'
'ാര്'
'▁týdnů'
'▁Сыртқы'
'ցել'
'ongeza'
'▁ủng'
'▁벗어나'
'ими'
'▁παρα'
'▁citat'
'▁Că'
'ขาด'
'▁pengajian'
'ୀଙ୍କ'
'▁dobry'
'▁ништо'
'näkymä'
'նային'
'▁камітэт'
'▁birçok'
'▁psiho'
'봉'
'▁Wähle'
'ทั่ว'
'▁ahaatee'
'▁रहेछ'
'▁توضیح'
'▁Τέλος'
'հայ'
'▁Алла'
'▁занятости'
'▁đo'
'▁المنت'
'▁legno'
'▁Bed'
'▁barabara'
'साठी'
'สูบ'
'答应'
'1705'
'▁ເຄື່ອງ'
'▁öffentliche'
'▁üz'
'▁marti'
'▁такому'
'▁میں'
'紉'
'እናንተ'
'еру'
'цэн'
'▁श्यामला'
'ungkol'
'▁odlični'
'▁රදේශය'
'päri'
'สัตว์เลี้ยง'
'▁دستمزد'
'▁सामग्री'
'▁illetve'
'▁faaliyetleri'
'ण्'
'ੱਛ'
'הרצאות'
'▁petunjuk'
'▁Thrones'
'▁તૈયારી'
'кција'
'▁olet'
'▁aceeaşi'
'طة'
'ບາດ'
'▁చాలామంది'
'▁براہ'
'لق'
'▁Εάν'
'▁nGaeilge'
'ilemaan'
'ស្ន'
'▁መጻሕፍት'
'▁ಏಕೆ'
'金額'
'▁újság'
'▁veliko'
'▁शि'
'▁perfformiad'
'▁bois'
'accueil'
'▁silang'
'אַקט'
'▁Baada'
'▁Analdin'
'▁يتحدث'
'▁tərəfdaş'
'▁korrekt'
'▁βήματα'
'▁hliník'
'▁дорогу'
'▁ауданында'
'▁halloween'
'altro'
'师'
'▁работника'
'▁Iglesia'
'▁продолжал'
'▁befolyásol'
'▁vælger'
'▁хөдөл'
'씹'
'১৭'
'ival'
'梦想'
'▁šā'
'▁ცნობილია'
'嚴重'
'▁găsit'
'▁eat'
'▁estilo'
'▁عائد'
'▁सहमति'
'▁నటి'
'▁kazni'
'▁জানতে'
'▁Silk'
'▁miña'
'▁exigent'
'рыць'
'ssica'
'ந்தி'
'▁जन्म'
'▁قانداق'
'苫'
'▁ambasad'
'▁kiinteä'
'ారావు'
'赐'
'▁oportunidad'
'漱'
'תרחש'
'▁Öğretmen'
'▁асабісты'
'▁ehhez'
'▁mena'
'МГ'
'▁Slobo'
'程序'
'ыл'
'▁securi'
'▁উন্নত'
'▁cr'
'णी'
'lal'
'▁Rabbi'
'▁πρώτου'
'▁nr'
'sore'
'ziale'
'▁primeiros'
'▁विसर'
'Chúng'
'dale'
'▁առնելով'
'聆'
'▁медичн'
'▁0,5'
'ที่ผ่านมา'
'▁Всё'
'▁Isabel'
'▁информација'
'పూర్'
'▁İzle'
'▁qachon'
'▁належыць'
'▁අයුරින්'
'最新消息'
'▁правни'
'▁аргагүй'
'▁textil'
'▁ΕΡΤ'
'▁કરશો'
'skipti'
'的信息'
'▁ಮಾತು'
'▁statt'
'▁gaming'
'▁تې'
'实习'
'▁skarb'
'▁sorry'
'▁Olá'
'▁لکيل'
'▁People'
'▁Sicher'
'ความเป็น'
'▁amatőr'
'▁مزیت'
'▁เขา'
'▁Nä'
'semi'
'▁텍스트'
'叨'
'▁redigere'
'▁мұғалімі'
'▁össze'
'ifique'
'▁برعکس'
'▁सके'
'▁hann'
'▁Διά'
'▁yalnızca'
'▁ඕස්ට්'
'▁sidde'
'▁fueron'
'▁zdrowotne'
'nehm'
'▁cowgirl'
'zod'
'dak'
'авіч'
'ghan'
'▁turha'
'▁هنوز'
'▁contribui'
'▁rakan'
'▁varie'
'▁herrscht'
'ଋ'
'építés'
'▁Çay'
'▁Ansonsten'
'իական'
'▁жыць'
'mācība'
'▁hoạt'
'λογ'
'▁مزایای'
'▁gevaarlijk'
'▁климатик'
'▁გამოყენების'
'▁priporočil'
'sąd'
'▁operaci'
'▁சம்பவம்'
'▁IND'
'សកម្ម'
'▁bleiben'
'▁получат'
'▁कार्यक्रममा'
'حضرت'
'ԵԼՈՒ'
'▁दुसरे'
'▁қарағанда'
'магаються'
'toiminnassa'
'▁polityczne'
'謐'
'索'
'▁വെറുതെ'
'▁neboli'
'▁1906'
'珍贵'
'HA'
'▁testi'
'▁lítið'
'▁dib'
'▁нужен'
'誅'
'tam'
'▁चली'
'▁адбылася'
'▁σίγουρα'
'▁שלכם'
'▁посветен'
'ΕΥ'
'ເກມອອນໄລນ໌'
'▁праксе'
'▁počtu'
'▁ٿيندو'
'▁ਨੋਟ'
'▁Bangkok'
'▁bolji'
'▁part'
'▁катастроф'
'▁7.2'
'▁každej'
'たく'
'▁nacionālā'
'לול'
'▁Tô'
'illy'
'▁κριτική'
'мјесто'
'▁Свердлов'
'KY'
'▁படம்'
'▁perda'
'ză'
'STÄ'
'▁Новини'
'▁10000'
'ట్ర'
'ထပ်'
'▁σήμερα'
'▁पद्धत'
'▁교환'
'ılabilir'
'एमए'
'▁polskiego'
'▁óptima'
'▁secondo'
'服務'
'▁dè'
'▁emër'
'▁नीतीश'
'▁Πανεπιστήμιο'
'▁पहल'
'ős'
'kjørt'
'isesta'
'stimmen'
'▁Italia'
'▁ölkəmizdə'
'vetenskaplig'
'▁σελίδες'
'▁rais'
'666'
'▁Muito'
'▁دښمن'
'オリジナル'
'▁Silikon'
'▁நல்ல'
'▁automaticky'
'ລົງທຶນ'
'نظافة'
'▁historic'
'צות'
'▁estus'
'▁xubnaha'
'▁במחיר'
'▁Laŭ'
'▁Պարզ'
'엔터테인먼트'
'၂၀၁၄'
'▁teicneolaíocht'
'▁areas'
'▁ਦਾ'
'▁strength'
'▁Отец'
'▁droits'
'▁ishlar'
'robe'
'ipengele'
'▁tänapäeva'
'▁doprava'
'▁выпадку'
'▁लिन'
'▁Topp'
'▁Glan'
'▁Европейски'
'▁сигурност'
'▁লক্ষ'
'▁رأی'
'▁تەكشۈرۈش'
'▁1945'
'▁шкіри'
'▁łagodn'
'ศิ'
'▁Salva'
'▁ოჯახის'
'▁Drugo'
'اق'
'▁naudoti'
'mıza'
'▁bete'
'▁έρωτα'
'Центр'
'保险公司'
'▁hedh'
'▁оперативни'
'époque'
'津'
'▁අපේක්ෂක'
'▁apsaimnieko'
'▁موثر'
'ok'
'▁ਨਾਮ'
'▁Vijay'
'스쿨'
'▁ጉባዔ'
'▁contratto'
'▁সড়ক'
'▁ಶೋ'
'▁инфраструктурн'
'▁اعضا'
'▁האלה'
'ķa'
'lıkları'
'▁үзэсгэлэн'
'▁секілді'
'▁internationale'
'球员'
'▁Rico'
'様な'
'▁Forbes'
'을'
'ực'
'▁Fina'
'▁مشترك'
'▁قسمتی'
'▁городах'
'▁شخصا'
'▁двигаться'
'▁сұра'
'▁yksin'
'▁joint'
'▁kiemelt'
'▁निम्नलिख'
'▁utmerket'
'▁अज्ञात'
'ín'
'信徒'
'▁നടന്നു'
'▁prevod'
'▁സൗദി'
'郞'
'据悉'
'▁Москві'
'▁капітал'
'▁ას'
'▁ժամանակ'
'▁2.500'
'cij'
'▁награди'
'ինք'
'▁Clwb'
'▁बस्ने'
'▁ፍርድ'
'HK'
'▁Makan'
'ंदी'
'▁गंगा'
'▁ოთახ'
'▁suhtes'
'Tech'
'▁güvenlik'
'▁zaštiti'
'essentiel'
'arázs'
'▁Trịnh'
'කරන'
'▁плаћа'
'▁cảm'
'ზარ'
'zeli'
'▁грамадскі'
'IMG'
'▁дамоў'
'▁чара'
'▁памяці'
'▁неможливо'
'▁спра'
'▁advogado'
'るように'
'▁چهره'
'▁ეკრან'
'▁policies'
'OMS'
'▁Link'
'▁pertanto'
'▁ຈະ'
'rehabilit'
'▁FOTOLAR'
'▁sauber'
'▁kartē'
'▁ఆరు'
'▁حیوانات'
'▁মসজিদ'
'▌'
'государственного'
'pít'
'berri'
'▁କାହିଁକି'
'▁ಬೆಂಕಿ'
'▁materyal'
'▁kosten'
'ndis'
'မယ္'
'endus'
'酒吧'
'茶'
'▁tiste'
'pind'
'ánk'
'▁2.6'
'เค้า'
'чулуун'
'▁tām'
'▁срца'
'aṃ'
'▁διεκδικ'
'ေဇာ္'
'adoption'
'勉強'
'켈'
'ถ่าย'
'家伙'
'▁çalışması'
'▁sipër'
'▁Бан'
'▁parça'
'▁раза'
'▁ئەھۋالى'
'fhág'
'▁ଶିଶୁ'
'▁എന്'
'betegség'
'坑'
'พิพิธภัณฑ์'
'▁plage'
'čih'
'▁Faj'
'tī'
'▁эмес'
'gla'
'▁දුන්න'
'挖掘'
'▁traf'
'▁palu'
'違う'
'ਵਲ'
'姜'
'▁flexibilidad'
'blokk'
'▁երկրպագու'
'▁അദ്ദേഹത്തിന്'
'▁plynu'
'나는'
'▁geçen'
'järg'
'▁mbështes'
'▁chtějí'
'▁താഴ്'
'ہا'
'▁почнал'
'σφαλ'
'▁Эгер'
'▁released'
'kontakt'
'▁mesiac'
'▁добави'
'ıyı'
'的成绩'
'▁peranan'
'hew'
'▁mërkurë'
'▁וועג'
'wriaeth'
'टिन'
'▁previše'
'▁dailės'
'▁Novi'
'婀'
'▁أحمد'
'▁haberleri'
'▁մթնոլորտ'
'▁pieredzi'
'▁haurà'
'▁паслуг'
'ોત્સવ'
'geha'
'▁ыр'
'▁dilay'
'തിനു'
'▁tým'
'xha'
'▁odporúča'
'▁വിജയ'
'іч'
'▁ያህል'
'▁doce'
'kaus'
'EPA'
'▁खूबसूरत'
'▁sce'
'ेका'
'▁সত্য'
'▁забезпечен'
'פחד'
'驥'
'hegtenis'
'▁ուրախ'
'ंबर'
'浐'
'ေယာက္'
'▁jakieś'
'▁знаят'
'stöd'
'▁পবিত্র'
'▁अनंत'
'▁Көк'
'ơ'
'▁búcsú'
'produksjon'
'▁Poetry'
'▁Inn'
'▁чыгып'
'ിക്കാൻ'
'lde'
'▁результатам'
'▁парку'
'買い物'
'čenje'
'[1][2]'
'▁хмар'
'хир'
'▁പ്രവേശന'
'▁წელიწად'
'клон'
'▁felirat'
'▁supraveghere'
'꼿'
'▁interior'
'▁poser'
'▁Азыркы'
'▁co'
'ურის'
'▁265'
'ባሉ'
'宅'
'86)'
'▁състоя'
'惭'
'ಕೋ'
'▁2015.'
'▁تان'
'▁krize'
'▁roślin'
'▁생각'
'▁tuy'
'▁draugu'
'▁போட்ட'
'toris'
'it'
'มิ'
'tieto'
'身份证'
'▁ڌاري'
'▁iniziative'
'ម៉ា'
'maj'
'▁Priprav'
'bart'
'סביבת'
'สุข'
'▁مذکور'
'▁රමාණයක්'
'▁Тақырыбы'
'▁opsigte'
'▁bağlıdır'
'▁гарга'
'▁Oktoba'
'цер'
'▁Wizz'
'Ra'
'แอร์'
'這部'
'▁stanovanj'
'▁danke'
'▁режисьор'
'▁spočíva'
'ಮೂಲ'
'жил'
'▁cabal'
'▁colo'
'▁perioade'
'▁Константин'
'▁yasiyo'
'▁militares'
'▁chtěla'
'▁verfolgen'
'▁үз'
'▁hendi'
'兄'
'▁distribuit'
'▁oprosti'
'侗'
'ဝင်း'
'laitteet'
'加速'
'▁واضح'
'▁emp'
'▁작성'
'▁wert'
'▁poszukiwa'
'▁Nebo'
'ธรรมชาติ'
'▁идти'
'喝酒'
'▁redus'
'▁ላለፉት'
'▁Технологі'
'▁برپا'
'▁Солун'
'▁TVA'
'déjeuner'
'оўваць'
'tatea'
'ström'
'▁മല'
'▁čuva'
'▁później'
'▁Cassi'
'իմաց'
'Chan'
'▁איינ'
'ТРИ'
'cloud'
'▁ülevaade'
'▁budynku'
'▁fredag'
'јата'
'альном'
'▁japansk'
'▁fibre'
'歡樂'
'していない'
'▁Професионал'
'ացրեց'
'▁ನುಡಿ'
'플라'
'▁Θεό'
'▁підписан'
'точно'
'驅動'
'▁നിലപാട്'
'제를'
'▁века'
'▁Rou'
'▁szkół'
'lift'
'▁mbaya'
'▁Aðal'
'▁pasar'
'▁المحلية'
'▁activités'
'▁pequenas'
'▁rekonstrukci'
'iwyd'
'шілік'
'▁pauper'
'▁uygulamaları'
'散步'
'▁(13'
'▁edildiyi'
'▁이용해'
'▁भ्रमणमा'
'KATEGORI'
'ായി'
'▁mengine'
'▁Najbardziej'
'ố'
'▁pagas'
'▁ஜூலை'
'☬'
'▁zeptat'
'▁hozzájárulás'
'యిన'
'▁выкарыстанне'
'▁abitanti'
'▁attacca'
'▁recomendo'
'▁Pirtûk'
'eld'
'▁2010'
'开始'
'αν'
'▁Созда'
'ιστή'
'▁abrazo'
'▁cubilia'
'ಚೆ'
'샾'
'ἰ'
'сел'
'▁ምሽት'
'▁ging'
'公务员'
'▁arís'
'▁२६'
'▁áherslu'
'kter'
'дерін'
'▁theatr'
'▁tốt'
'Інтер'
'▁undgå'
'ុន'
'bez'
'ස්'
'▁ज़रूर'
'▁आरोग्य'
'اتها'
'игра'
'ໂອ'
'▁Հաշվ'
'▁40-'
'บุ'
'▁tulle'
'зависим'
'ନରେ'
'▁iturburu'
'טוי'
'▁hitam'
'▁hviezd'
'▁Kirche'
'▁sağlıyor'
'▁Жил'
'書かれている'
'▁sjúkdóm'
'▁ගැන'
'sopimuksen'
'▁especializado'
'નક'
'▁explora'
'限'
'▁primeiro'
'оли'
'▁okul'
'სიამოვნე'
'▁Telugu'
'чулук'
'▁ան'
'▁Christina'
'▁vaziyat'
'▁Xo'
'▁Ца'
'▁काठमाडाै'
'കുടി'
'hatnak'
'enta'
'▁vi'
'▁обзир'
'ւ'
'VIK'
'сэн'
'▁snad'
'אנה'
'じゃ'
'▁Сар'
'▁англійськ'
'想要的'
'▁upplýsingar'
'▁številko'
'lainsäädäntö'
'แผ่น'
'itelj'
'кон'
'▁gwa'
'ၾကည့္'
'▁kellene'
'Punjab'
'▁zjistí'
'ière'
'▁siyosiy'
'වීම'
'▁kérdések'
'▁lum'
'דם'
'▁professioneel'
'▁сада'
'▁والدین'
'▁pawb'
'▁beyond'
'▁ощущения'
'▁sajtó'
'▁במסגרת'
'▁eina'
'▁postitus'
'▁ਲੂੰਡ'
'ਐੱਸ'
'correndo'
'DT'
'ります'
'ෙකුට'
'▁გრან'
'▁Produktion'
'▁ഇസ്ലാമ'
'まらない'
'▁સમયમાં'
'▁118'
'ვარ'
'▁هورمون'
'▁נשלח'
'স্ত'
'ácie'
'Wi'
'▁martie'
'▁gewesen'
'最高'
'ЖЕ'
'herë'
'▁لږ'
'плата'
'▁tūkstančių'
'інфармацыйны'
'卵'
'▁krijgen'
'ቅል'
'▁Imagini'
'▁მადრიდის'
'ID'
'▁İnsanlar'
'તંત્ર'
'▁қаржылық'
'▁započeo'
'▁تھا'
'▁neue'
'▁తి'
'▁Başûrê'
'\uf131'
'▁Sept'
'▁Heyətinin'
'▁làng'
'▁პლან'
'بعة'
'▁Dissabte'
'צרכים'
'▁buna'
'保濕'
'▁Communi'
'▁meerderheid'
'▁assumir'
'ძლივ'
'▁КДБ'
'▁ዘገባ'
'gewalt'
'Vaikų'
'▁by'
'好評'
'칼럼'
'▁heyəti'
'▁Lle'
'quran'
'rea'
'דיס'
'伽'
'▁metód'
'చ్చు'
'▁Digwyddiadau'
'സഞ്ചാര'
'▁সৌন্দর্য'
'▁löv'
'▁fëmijëve'
'ğımız'
'▁تدبیر'
'▁هشتم'
'prā'
'ღო'
'徹'
'ঃ'
'▁working'
'▁economico'
'▁ନଜର'
'▁अगले'
'浹'
'گرایی'
'▁prošlo'
'▁týždne'
'بمجرد'
'▁uzaklıkta'
'ɛ'
'વિદ્યા'
'▁miljonit'
'▁내리'
'▁isiklik'
'▁Ісус'
'▁කවුද'
'▁ტელეფონი'
'파이'
'apprendre'
'▁скача'
'↭'
'▁ґрунт'
'▁wystarczy'
'▁possíveis'
'્યું'
'▁आहार'
'Же'
'fiets'
'syen'
'▁приятно'
'▁വീടുകള'
'eur'
'▁влияние'
'▁ställa'
'▁није'
'ضمن'
'那種'
'প্ৰ'
'▁апат'
'▁טעלע'
'ുള്ളൂ'
'▁20:00'
'എനിക്ക'
'▁bek'
'もし'
'▁peças'
'▁Lands'
'▁শহর'
'▁Basket'
'▁maalum'
'▁Lingua'
'539'
'▁szakmai'
'▁Jenderal'
'▁עטליכע'
'▁الأخبار'
'▁colazione'
'ឆា'
'▁دهنده'
'儀器'
'▁பிடித்த'
'▁باب'
'▁галерија'
'რკ'
'▁करणाऱ्या'
'▁capaç'
'esnį'
'▁algab'
'Aus'
'▁nosil'
'▁caz'
'▁kommet'
'дзел'
'▁piškotkih'
'pec'
'slúži'
'▁شب'
'പ്പെടുന്ന'
'ेकर'
'▁Američk'
'▁histoire'
'谶'
'▁цензур'
'ότητα'
'▁Pří'
'▁እንደማይ'
'TAY'
'▁מאכט'
'▁waqti'
'牧'
'োজ'
'▁traje'
'▁определи'
'▁адміністрації'
'امات'
'▁надпис'
'▁Spotkanie'
'ซึ่ง'
'ayey'
'▁Bestell'
'▁Long'
'▁lënë'
'▁fragen'
'āko'
'▁۲۳'
'▁ждать'
'▁pojavi'
'تحقق'
'كل'
'▁asiasta'
'▁Българи'
'▁മു'
'affiche'
'OT'
'ပြင်ဆင်ရန်'
'▁접근'
'accoglienza'
'▁ໄປ'
'▁Dušan'
'▁απεργ'
'▁einhverju'
'køb'
'પૂ'
'▁مبينا'
'▁నో'
'經'
'▁ਕੀਤੀ'
'რონ'
'▁فلسف'
'▁zraněn'
'▁plătit'
'▁iliyopo'
'പാത'
'מגרש'
'نار'
'Ma'
'▁σκοπό'
'▁प्रकाशने'
'menneske'
'▁utseende'
'▁бойы'
'▁opdateret'
'▁항상'
'▁kolačići'
'▁yarısı'
'▁katoli'
'ումների'
'lijn'
'դի'
'afrika'
'▁tilgængelig'
'▁Ericsson'
'▁almak'
'vra'
'▁unseres'
'▁ръководство'
'▁mirada'
'କ୍ଟର'
'\uf60e'
'▁راز'
'▁какав'
'▁החדשה'
'மண'
'bungkus'
'▁դասախոս'
'zava'
'ırı'
'දන'
'▁przyczyn'
'媳妇'
'▁adomány'
'Супер'
'▁irány'
'▁oppfordre'
'Hel'
'хоёрдугаар'
'▁வாழ்த்து'
'فوض'
'zón'
'明るい'
'▁számunkra'
'▁Кер'
'▁Yfir'
'ίλα'
'に行きました'
'5,5'
'veel'
'▁Cana'
'▁oba'
'κέφαλο'
'▁Einkommen'
'velle'
'▁zonder'
'merkt'
'▁भई'
'▁каршы'
'disciplin'
'▁Банка'
'嚅'
'交易'
'▁зөвшөөр'
'MINE'
'▁Olsen'
'▁கல்லூரி'
'▁বালিকা'
'▁Чын'
'▁даяр'
'▁naravi'
'▁ráðstefnu'
'▁autora'
'મર'
'▁Dafür'
'▁እድል'
'▁грудь'
'ათვის'
'▁χρήστη'
'fyfyrwyr'
'▁sofern'
'▁százalék'
'▁Ausstellung'
'▁Däremot'
'▁Κώστας'
'▁prakse'
'▁αρμόδι'
'▁មុន'
'▁refugjatë'
'▁ദേവ'
'▁iclası'
'▁மதிப்ப'
'▁необходимые'
'▁फेंक'
'▁नतीज'
'▁כלל'
'对手'
'獒'
'áciách'
'▁payment'
'ائح'
'▁еңбегі'
'▁lipo'
'▁اج'
'θούν'
'▁कर्म'
'▁ಕಾಣ'
'visa'
'▁انواع'
'自助'
'ДЖ'
'იდ'
'▁قرص'
'蝙'
'颓'
'▁svarbi'
'▁Feliratkozás'
'よく'
'▁samkvæmt'
'▁135'
'presión'
'รวบรวม'
'▁Đang'
'TĀ'
'ძვ'
'ອາວຸດ'
'▁ປ'
'▁Aleks'
'▁දක්න'
'▁Rialtas'
'▁despois'
'עוד'
'外'
'不容易'
'ferien'
'حزن'
'▁أبطال'
'義大利'
'ריש'
'พงศ์'
'▁ອິດ'
'▁Myśl'
'▁конвенц'
'깐'
'дык'
'▁létre'
'▁konstrukcji'
'shu'
'▁fushën'
'ଶାସ୍ତ୍ର'
'נגב'
'▁Важлив'
'▁Taş'
'獲利'
'했'
'▁Gu'
'▁alten'
'▁구름'
'▁جەھەت'
'ാണു'
'▁durum'
'munt'
'▁akcije'
'一般'
'▁megnéz'
'▁замест'
'▁књизи'
'▁μάχη'
'cionin'
'▁perhaps'
'կատ'
'КОВ'
'LÍ'
'ίζω'
'korrusel'
'▁உயர்'
'mand'
'tafel'
'iglia'
'▁Dob'
'▁onda'
'miseksi'
'▁ইমেইল'
'▁நோய்'
'▁отпуска'
'▁Pru'
'▁bilgi'
'▁φάση'
'ἡ'
'▁apps'
'▁நிச்சயம்'
'ējot'
'▁දරුවන්ට'
'bris'
'▁아름답'
'▁ďaleko'
'▁forcave'
'▁سوم'
'▁emitir'
'▁شکست'
'▁따라'
'ଯାଏ'
'▁работно'
'▁Gedagte'
'квалитет'
'mbar'
'▁sediul'
'ề'
'拚'
'bescherming'
'▁公司'
'▁అడ'
'튜'
'▁slúži'
'▁နိုင်ငံတကာ'
'▁दस्त'
'reve'
'▁especialista'
'▁অনুষ্ঠিত'
'▁esmalte'
'huyện'
'▁назив'
'▁महिना'
'ណូ'
'ตัดสินใจ'
'▁humans'
'▁столе'
'▁δέν'
'1,6'
'▁රවාදය'
'▁rivier'
'▁zlato'
'ulmuş'
'썽'
'värv'
'ㄈ'
'▁expressão'
'ຈິງ'
'▁කර්මාන්ත'
'▁pabrėžė'
'を読んで'
'▁tapşırıq'
'▁ndaluar'
'កងទ័ព'
'біць'
'chin'
'Bi'
'▁впечатления'
'▁Жұма'
'▁болуу'
'крил'
'▁gelişme'
'▁thanh'
'ACE'
'▁Georgi'
'縴'
'才會'
'▁diri'
'مارس'
'▁PERSON'
'▁गुण'
'▁капитала'
'▁محققان'
'▁Inside'
'🖤'
'badilisha'
'üt'
'▁ആഗ്രഹിക്കുന്ന'
'▁վերջերս'
'▁γύρω'
'கம்'
'▁kvalitný'
'▁ច្បាប់'
'▁ജൂലൈ'
'уул'
'ілуі'
'lôžko'
'▁ಶಾಂತಿ'
'妒'
'▁koľko'
'▁fantastisk'
'にもかかわらず'
'▁FIT'
'是一家'
'เลยครับ'
'▁ansonsten'
'ภายใน'
'▁kissé'
'▁انفرادی'
'ਾਇ'
'жує'
'গ'
'▁ఆర్'
'čítať'
'▁элге'
'▁대체'
'▁родителите'
'กาแฟ'
'തോട്ടം'
'ဟန္'
'▁canlı'
'▁Aq'
'▁чисти'
'▁लिस्ट'
'▁mennä'
'▁zein'
'алі'
'▁tähenda'
'▁Ağa'
'▁babo'
'▁संस्कृत'
'▁primary'
'ದಾಗಿ'
'▁veçantë'
'เชื่อมั่น'
'▁thành'
'▁dəfə'
'小编'
'tuotteita'
'▁tilbake'
'▁तस्'
'1942'
'▁нейкі'
'spel'
'lun'
'ฟัน'
'වු'
'▁kleuren'
'▁Seal'
'膛'
'▁foreign'
'▁υπόθεση'
'▁случилось'
'▁catch'
'▁допуска'
'iers'
'тел'
'чког'
'ឯក'
'▁odottaa'
'▁stevig'
'▁холбогдсон'
'夕'
'▁ਵਿਸ਼ੇ'
'痫'
'櫻花'
'▁എന്നാലും'
'優異'
'▁ढेर'
'strada'
'អាស៊ី'
'黴'
'एक'
'▁članica'
'מיים'
'使われ'
'▁Сначала'
'▁मुद्दे'
'弋'
'▁ತನಿಖೆ'
'▁vetaveta'
'▁сообщает'
'itheoirí'
'▁വടക്ക'
'▁Мырза'
'剜'
'▁арест'
'▁létezik'
'▁африкан'
'▁said'
'清'
'▁сход'
'▁Kristen'
'▁förmodligen'
'▁සිවිල්'
'▁Συρία'
'▁update'
'▁extinde'
'▁meridional'
'▁відпочинок'
'maid'
'▁മെ'
'▁pagpapalaki'
'▁proud'
'pati'
'τας'
'▁кеткен'
'mjólk'
'▁დამცველ'
'มีความ'
'▁αυτός'
'▁Ona'
'ütköz'
'క్త'
'으로'
'▁leşker'
'iseach'
'▁probleemi'
'▁engkau'
'▁तालुक्'
'ザ'
'cara'
'לע'
'мп'
'จะทําให้'
'priser'
'39)'
'▁ร่วมงานกับเรา'
'▁ર'
'▁av'
'▁meneruskan'
'ULAN'
'layın'
'▁pedagogisk'
'▁эцсийн'
'▁probar'
'▁ĵet'
'▁تام'
'▁rastlin'
'▁WAZIRI'
'第六'
'▁podrían'
'▁нефти'
'▁רעד'
'kjes'
'▁ตร'
'▁rue'
'▁MERKEZ'
'▁ljeto'
'▁bagian'
'पा'
'МН'
'▁valitud'
'▁кызматташуу'
'▁నీటి'
'▁প্ৰ'
'▁Norton'
'▁неких'
'▁obyvatel'
'▁předchozí'
'▁Maret'
'を入れて'
'떡'
'▁fand'
'尝'
'▁залежності'
'▁эле'
'回憶'
'申报'
'ολογία'
'▁rekon'
'▁הנח'
'фра'
'▁работни'
'フル'
'▁набагато'
'ロード'
'▁rzeczywistości'
'▁කිරීමෙන්'
'▁2011.'
'γράφεται'
'▁ülevaate'
'ense'
'▁کھلاڑیوں'
'▁aquisição'
'▁სტატისტიკა'
'あれ'
'▁15.000'
'▁kaming'
'ดิจิทัล'
'vér'
'അബ്ദു'
'数十'
'ΛΟΣ'
'היה'
'bira'
'▁užtikrinti'
'ઈટ'
'▁vaheta'
'▁өткен'
'କାରୀ'
'▁Эта'
'ੀ'
'▁sekret'
'食べて'
'▁سگهجي'
'也沒有'
'▁టెక్నాలజీ'
'▁מיין'
'▁Zusatz'
'▁положений'
'രണം'
'ისგან'
'▁डिजिटल'
'观众'
'▁turism'
'OUR'
'▁అతను'
'felé'
'▁olunma'
'和平'
'▁destination'
'ΕΣ'
'hapur'
'▁myötä'
'relativement'
'▁टिकट'
'▁Šiam'
'心的'
'rka'
'oista'
'▁τραυματ'
'▁مسیح'
'▁దగ్గర'
'▁fourni'
'▁пенсионер'
'كتب'
'▁ჟან'
'▁מחלות'
'\uf0aa'
'较'
'▁Mida'
'▁Detail'
'せて'
'を楽しむ'
'▁սկսում'
'▁เล่น'
'▁زمر'
'▁പ്രതികരിക്ക'
'殼'
'▁tiistai'
'这份'
'کال'
'ттер'
'总结'
'тичні'
':13'
'vih'
'▁זאל'
'▁посвећен'
'▁топто'
'▁Pennsylvania'
'▁פונקט'
'▁Təşkilatı'
'▁erősebb'
'9/'
'hüvitis'
'▁MEG'
'▁tuule'
'▁تابستان'
'kaisi'
'▁आफु'
'ဘေး'
'▁клиенти'
'▁iroda'
'▁रघु'
'▁stari'
'▁Hispanio'
'▁BTS'
'▁нэгж'
'▁Francesc'
'ītis'
'မြန်'
'heid'
'▁хоће'
'powiedz'
'▁buss'
'▁інтерес'
'•••'
'ttēlus'
'▁Kak'
'▁bestimmte'
'▁کارگردان'
'▁Вік'
'▁alweer'
'၅၀၀'
'▁holding'
'长期'
'▁وكذا'
'岔'
'▁వేదిక'
'агностик'
'▁Zoek'
'▁mener'
'▁қарсы'
'▁Latvijos'
'▁ασφαλείας'
'▁անհրաժեշտ'
'▁ಸ್ಕ'
'فيد'
'▁Johannes'
'▁Jesteś'
'ANTE'
'▁houdt'
'▁αίτηση'
'ňov'
'▁chaidh'
'zugehen'
'▁ribo'
'▁maggior'
'▁įmanoma'
'▁dicas'
'ानां'
'▁میاشت'
'цы'
'▁یوه'
'▁चरणको'
'▁ھازىرقى'
'▁подготовку'
'▁экендигин'
'▁lacus'
'▁мемлекеттің'
'▁grups'
'oya'
'ಿನಲ್ಲಿ'
'▁orë'
'▁numri'
'▁değer'
'▁stríð'
'▁रखने'
'▁ખાન'
'▁individ'
'brali'
'ሰ'
'ମାର'
'▁obres'
'신입'
'жела'
'кър'
'nivå'
'▁rendelete'
'▁তাদের'
'aethau'
'▁ਸਰਵ'
'▁madini'
'47'
'▁శక్తి'
'▁kytke'
'▁जड़'
'गु'
'▁și'
'visit'
'юль'
'lai'
'▁persiapan'
'စီမံကိန္း'
'под'
'▁Oficina'
'▁세미나'
'Gal'
'kuwepo'
'▁odpowiednio'
'▁గ్రీన్'
'▁verlängert'
'Ỵ'
'▁δημόσιο'
'植'
'▁planeet'
'▁فرودگاه'
'▁nozīme'
'ijn'
'▁Правил'
'حضر'
'▁lekker'
'▁hrdin'
'פרת'
'échec'
'▁judgment'
'▁adversário'
'▁zrozumieć'
'▁Exemplar'
'▁groep'
'يار'
'▁ประเทศ'
'▁전통'
'נשא'
'▁Ekki'
'▁کجا'
'▁obvezni'
'▁qaytar'
'钰'
'茂'
'▁կյանք'
'चित'
'▁aferente'
'▁zár'
'▁Vorstellung'
'ствует'
'ില്ലെന്ന'
'▁nós'
'hlásiť'
'▁sarı'
'▁erschien'
'▁aveti'
'ကွင်း'
'▁Kawasaki'
'ፌዴራል'
'tumėte'
'Ϊ'
'▁Korporat'
'then'
'醐'
'▁tamaşa'
'lacht'
'کرد'
'▁ମୁମ୍ବାଇ'
'▁cursul'
'▁wysoki'
'нички'
'▁الأموال'
'▁تنفيذ'
'ότερη'
'льки'
'▁Մրց'
'▁51'
'▁ດ'
'▁turklāt'
'▁suscita'
'▁φέρνει'
'Observatori'
'▁վիճակ'
'▁→'
'▁اجلاس'
'▁منهنجا'
'▁හිත'
'töltő'
'▁poštov'
'ຮ້ອຍ'
'roman'
'▁dreptate'
'这种情况'
'یش'
'▁симбол'
'▁tamamladı'
'▁آ'
'مايدىغان'
'diplom'
'▁ይቻላል'
'▁អង្គ'
'▁ikävä'
'▁садржај'
'▁ډير'
'▁annet'
'▁Muusika'
'▁jolie'
'▁කම්කරු'
'▁Ambasador'
'อินเทอร์เน็ต'
'тров'
'▁روھى'
'laguntzak'
'▁Toko'
'▁unseren'
'lho'
'▁Oferujemy'
'дэг'
'▁Алесь'
'vahendite'
'▁убакта'
'▁ábrázol'
'▁guvoh'
'▁mbunge'
'värk'
'▁preghiera'
'▁അനുഗ്രഹ'
'▁transporte'
'▁Voi'
'ඇ'
'करण'
'മാക്കി'
'kombin'
'▁выполнение'
'▁parties'
'▁angkat'
'İSİ'
'▁allerlei'
'▁țară'
'▁PERSONAL'
'sė'
'larimiz'
'▁عنصر'
'▁ଦଣ୍ଡ'
'▁вытворча'
'gás'
'នាយកដ្ឋាន'
'頂いた'
'યાત્રા'
'▁ಪ್ರತಿಷ್ಠ'
'валась'
'一段'
'▁heddiw'
'▁Arvo'
'▁گردش'
'▁lleva'
'▁jihad'
'▁философия'
'нас'
'potent'
'ענ'
'맹'
'ongezeka'
'▁معمول'
'协定'
'७९'
'ెన్స్'
'ಮನ'
'klokke'
'▁7.5'
'お話'
'ીન'
'▁tò'
'▁δυνατή'
'▁inmigrantes'
'吁'
'▁всього'
'▁הגר'
'有限责任公司'
'▁Χ'
'▁ځینې'
'ಂಚ'
'▁සම්බන්ධ'
'IPA'
'퐁'
'ោះ'
'лат'
'৮৭'
'▁naturligtvis'
'άλε'
'▁Бакиев'
'▁patrocina'
'▁olduğuna'
'▁programmu'
'കളായ'
'▁राज्यात'
'それに'
'▁Крај'
'▁पुर्'
'▁annoncer'
'▁nef'
'▁Lär'
'▁Über'
'літератур'
'▁نزول'
'ફ'
'ເຊິ່ງ'
'สํานัก'
'▁öppen'
'ėjimų'
'▁इंडिया'
'화'
'អ្នក'
'▁Roche'
'▁résultats'
'▁смањи'
'släpp'
'狠'
'▁pratici'
'询'
'quez'
'श्र'
'▁Keďže'
'แย่'
'eyjar'
'▁wieloletni'
'▁Դ'
'▁растение'
'▁związek'
'颜色'
'▁Seguro'
'▁Pejabat'
'考核'
'▁Αναρτήθηκε'
'▁سجاد'
'♻'
'خل'
'nina'
'▁ruo'
'capa'
'▁Betracht'
'أمر'
'การลงทุน'
'მუ'
'นาย'
'▁reglement'
'▁Ndër'
'летний'
'蛋'
'慎'
'кредит'
'▁болго'
'▁čime'
'▁Shinyanga'
'ေနရ'
'Dodatkow'
'ños'
'2000'
'ացնի'
'▁ప్రవేశపెట్ట'
'▁sold'
'ב'
'▁täis'
'╮'
'▁чыгарма'
'▁hæg'
'▁қалалар'
'ین'
'▁எஸ்'
'席'
'绿'
'हिं'
'▁vajadusel'
'ȋ'
'▁Verantwortung'
'▁свободни'
'ቁ'
'▁तहको'
'┱'
'▁laver'
'೦'
'ajánló'
'▁빠'
'▁wakiwa'
'▁ऋषि'
'лагане'
'坚定'
'스타그램'
'▁soomaali'
'▁packaging'
'หน้าที่'
'▁မှ'
'▁sayı'
'我自己'
'▁SV'
'▁ancha'
'▁ሃላፊ'
'▁സംഭാവന'
'▁चल'
'▁hazırlanan'
'茎'
'cyjną'
'▁hamda'
'tuot'
'▁прояви'
'HUR'
'ചരിത്ര'
'tetés'
'dıqları'
'▁132'
'▁exemple'
'▁ቢሮ'
'▁vyksta'
'▁فأ'
'فائ'
'egykori'
'▁სწრაფი'
'▁бачити'
'▁informação'
'▁እውነተኛ'
'▁stanna'
'user'
'▁සටහන'
'▁точнее'
'▁استقبال'
'▁индикатор'
'virta'
'灞'
'Europa'
'▁diskrimin'
'▁૧૦'
'▁шаруашылық'
'▁Hingga'
'▁намайг'
'▁مدعی'
'sztás'
'nței'
'本科'
'âr'
'▁তার'
'▁състояние'
'▁rụng'
'▁Ву'
'▁මහන්සි'
'ଓ୍ଵା'
'▁спонсор'
'璃'
'▁그런'
'näs'
'▁NOT'
'വുമില്ല'
'▁skirting'
'▁Йе'
'ləndirilməsi'
'▁Инф'
'▁keçirmək'
'▁κτλ'
'▁Forsíða'
'ires'
'▁Ballkanit'
'▁slimming'
'LGBT'
'▁קו'
'▁placer'
'djon'
'الن'
'▁tālruni'
'▁जातो'
'▁problēma'
'λαν'
'bäck'
'▁hair'
'ການຕ່າງປະເທດ'
'ئى'
'▁آمادگی'
'▁نیشنل'
'▁cyfeiriad'
'周刊'
'ŝt'
'▁전환'
'پرانے'
'र्य'
'怎樣'
'▁посто'
'៌'
'▁uk'
'5.9'
'▁ក្នុង'
'▁sonuç'
'▁kada'
'ശത്രു'
'National'
'сей'
'聿'
'▁شاگرد'
'貿'
'viiko'
'ається'
'▁Qualität'
'▁אידישע'
'▁popri'
'ştî'
'ulla'
'ਰਜ'
'▁ലാല്'
'▁эрүүл'
'▁دبي'
'▁shiga'
'をし'
'伤'
'She'
'گې'
'▁BAY'
'ଡିଆ'
'▁programy'
'▁vermittelt'
'▁intalnire'
'rılma'
'▁السوق'
'▁mảnh'
'▁παραγωγής'
'▁אפל'
'▁карт'
'▁kaupunki'
'▁Rúa'
'▁기본'
'▁Πηγή'
'脈'
'▁Vester'
'ових'
'▁einige'
'▁utan'
'▁Јо'
'google'
'ньому'
'cant'
'1.9'
'進め'
'活动'
'맬'
'学習'
'рач'
'▁เพลง'
'▁ນີ້'
'▁కలెక్షన్'
'にとっては'
'▁gaji'
'▁않을까'
'ข้อเสนอ'
'បង្រៀន'
'valmennus'
'▁абсталява'
'家電'
'▁verde'
'畜'
'izuar'
'빔'
'▁kras'
'▁kamēr'
'▁გაე'
'▁cuir'
'orgoglio'
'▁Стратегия'
'✒'
'▁직원들'
'▁полиције'
'▁گوناگون'
'▁króna'
'цврст'
'▁منبع'
'▁nalgún'
'▁zgornje'
'▁छोटे'
'▁błąd'
'▁сделан'
'▁penjajah'
'▁تج'
'▁arbres'
'πρακτικ'
'复合'
'▁hember'
'வரி'
'▁Мак'
'zenia'
'▁ცნობილი'
'▁മാറി'
'▁өргөн'
'▁världen'
'▁★'
'▁Ĉar'
'▁Europene'
'▁ဘယ္လို'
'▁ہل'
'纳入'
'▁ríkisins'
'decembrī'
'▁بكثير'
'介面'
'▁ushahidi'
'▁अवधारणा'
'塹'
'▁প্রশাসন'
'hage'
'▁roti'
'▁uyğun'
'▁ماضی'
'▁casta'
'▁gaude'
'▁ନୀତି'
'▁déposé'
'参加者'
'験'
'▁napis'
'▁ఫేస్'
'▁длительно'
'▁қарау'
'▁приносит'
'ීමෙන්'
'diskut'
'volo'
'▁فلم'
'▁възрастни'
'ár'
'▁sympati'
'▁функцій'
'▁хуулийн'
'▁ಆಸೆ'
'▁palautetta'
'▁bla'
'วิล'
'ဥ'
'▁aktor'
'▁ສຫລ'
'-03-'
'곳'
'▁KÉPVISELŐ'
'▁проведення'
'▁घेऊ'
'ທີ່ຖືກ'
'עמ'
'▁TAN'
'▁Mukh'
'คํานวณ'
'▁գյուղատնտես'
'กล่าวว่า'
'▁постига'
'ιακά'
'▁прашања'
'▁யார்'
'▁Ŝ'
'CER'
'▁taybetî'
'▁Katarina'
'kuba'
'JU'
'蛊'
'▁qon'
'▁sözleşme'
'▁архе'
'лесно'
'▁ajaks'
'▁પો'
'겠죠'
'nai'
'▁محکمې'
'▁north'
'▁最近'
'ILL'
'▁történt'
'▁Nhi'
'▁Média'
'▁bewaar'
'▁Macron'
'▁chào'
'▁Viimase'
'Қазақстан'
'▁caalamka'
'इन'
'▁мақал'
'ਡੀ'
'▁волі'
'▁Tự'
'▁بېلابېلو'
'ଫି'
'▁යවස්ථාව'
'▁වර්ග'
'▁العمال'
'▁останатите'
'▁Fiyat'
'▁afar'
'▁meenu'
'נטן'
'▁მერიის'
'▁દેખાવ'
'▁Banc'
'▁голов'
'ply'
'▁vigtigste'
'▁body'
'ያዊ'
'▁angin'
'▁odloči'
'▁Maurice'
'▁организация'
'彼得'
'ລະບົບ'
'▁دقیق'
'▁કંપનીઓ'
'▁ოპერაცი'
'▁Španěl'
'▁жылдың'
'ینه'
'▁Runde'
'莹'
'▁dus'
'▁дейінгі'
'▁իջ'
'амі'
'しか'
'▁ໂຈມ'
'▁достовірн'
'▁आहे'
'▁आग'
'當時'
'▁dyna'
'Şİ'
'▁akuntansi'
'사회'
'▁ପ୍ରମୁଖ'
'▁1952'
'▁българска'
'▁shilingi'
'▁Price'
'▁zīm'
'▁mərkəzi'
'圈'
'▁trouwens'
'weka'
'\uf60a'
'פתרונות'
'▁blæ'
'▁kiriku'
'▁letech'
'ιτ'
'▁моля'
'躯'
'▁offer'
'🐦'
'東京'
'施術'
'▁sebep'
'▁suerte'
'ගැ'
'▁engelli'
'епидеми'
'▁Biało'
'就此'
'ास'
'ekî'
'sszük'
'ջան'
'▁προσεκτικ'
'▁нөгөө'
'▁dô'
'๑'
'dhu'
'▁направили'
'▁средни'
'▁András'
'▁страните'
'кір'
'的發展'
'άννα'
'▁योग्य'
'profil'
'▁критикува'
'▁pieteikumu'
'▁հաստատություն'
'ржав'
'▁Bobby'
'▁Hinweise'
'subiri'
'▁инсан'
'▁그룹'
'▁ઉજવણી'
'\uf602'
'verge'
'▁inden'
'▁vij'
'▁ඉදිරියට'
'▁THPT'
'▁łącz'
'▁व्हिडिओ'
'▁pnevmatik'
'▁някъде'
'▁pokoje'
'▁Zato'
'Defnydd'
'讨'
'▁vặt'
'สรรค์'
'нуўся'
'င်္'
'맙'
'▁целост'
'paz'
'Sun'
'認め'
'ಂಕ್'
'ሰል'
'ていく'
'▁айынан'
'▁همچنان'
'larımızın'
'▁Cloud'
'▁ઉપરાંત'
'អភិវឌ្ឍន៍'
'YE'
'▁dövlət'
'ഭൂമി'
'▁Formula'
'▁helikopter'
'िर्'
'tila'
'▁doboz'
'▁tillbaka'
'▁العملات'
'▁шеф'
'팠'
'▁Jornada'
'▁சம்பவ'
'▁výsledek'
'▁hålla'
'▁ضروری'
'akkan'
'▁직'
'ವನ್ನೂ'
'▁unlimited'
'▁λόγω'
'▁legit'
'ЛОГ'
'pesi'
'树立'
'iúna'
'ສະພາ'
'ENDER'
'puud'
'▁diligent'
'▁aprovar'
'▁wrong'
'cki'
'ჩვეულებრივ'
'▁maintain'
'▁vizibil'
'▁gekom'
'▁användning'
'ଭଳି'
'▁زو'
'变更'
'ઓએ'
'ific'
'альны'
'▁ОШ'
'▁hromad'
'▁মতবিনিময়'
'เชื่อมต่อ'
'stelling'
'jmë'
'ंदा'
'▁hacen'
'फ'
'▁veikti'
'▁gamitin'
'▁ful'
'▁Justice'
'ngwa'
'▁მხრიდან'
'▁looga'
'▁дэ'
'▁morda'
'cú'
'füllen'
'яни'
'qətlə'
'Þ'
'▁inquietud'
'ированию'
'▁zevk'
'▁básicas'
'用于'
'▁Ontvang'
'▁Абай'
'ታቸው'
'▁mësim'
'ənin'
'▁februar'
'nding'
'▁Свето'
'측'
'▁Privacitat'
'▁клуба'
'▁megfogalmaz'
'meðferð'
'bánya'
'80,000'
'▁Episod'
'৭৭'
'荐'
'編'
'▁knjige'
'زد'
'全面的'
'▁Ishte'
'ள்'
'RIT'
'▁lắm'
'▁пис'
'▁מקצוע'
'▁klientu'
'一家'
'ul'
'▁cothrom'
'▁ISLAM'
'natarajia'
'▁verwachten'
'▁europejskie'
'íme'
'▁sint'
'▁obrázok'
'▁зогсоо'
'的精神'
'ベ'
'▁չէր'
'ເຂົ້າຮ່ວມ'
'▁části'
'▁preços'
'▁paseo'
'▁Онда'
'▁usted'
'▁զբաղ'
'▁menyumbang'
'▁അല്ലാഹുവ'
'▁VAN'
'▁پھول'
'▁የለም።'
'▁ಕ್ಯಾಮೆರಾ'
'Ґ'
'▁хтось'
'ราว'
'▁počinje'
'ဇူ'
'▁outra'
'▁कम्युनिस्ट'
'piece'
'▁piesaistīt'
'▁экономической'
'หม้อ'
'▁الطرف'
'ового'
'▁웹사이트'
'▁වෙනව'
'▁catedral'
'▁холбогдолтой'
'ମୋ'
'▁piłki'
'▁Protagonist'
'hitung'
'चोक'
'▁вътрешни'
'ește'
'▁станал'
'ಂಟಿ'
'配備'
'۰۸'
'ນິຍົມ'
'▁ஆதரவு'
'▁İnformasiya'
'▁powinniśmy'
'രിപ്പ'
'▁Mutta'
'▁dowladda'
'ligheten'
'liha'
'ピ'
'▁Simon'
'ָא'
'rija'
'ந்த'
'▁эмчилгээ'
'▁Leistungs'
'▁kult'
'▁රි'
'浦'
'▁Život'
'▁edasta'
'▁church'
'▁כנגד'
'▁трансфер'
'▁соответствие'
'▁өнім'
'▁xiquet'
'▁semua'
'jeti'
'ává'
'▁डट'
'▁klassische'
'▁мрежи'
'વાઈ'
'▁rodič'
'▁ഓഫീസ'
'▁accessori'
'strict'
'വചന'
'ക്കാല'
'OJA'
'▁arşiv'
'▁Arra'
'දීම'
'エル'
'▁calitate'
'受付'
'▁साझेदारी'
'ရုပ္ရွင္'
'▁hoe'
'စုံ'
'▁предел'
'一笔'
'▁sad'
'▁stały'
'863'
'вшегося'
'▁ఆధ్యాత్మిక'
'▁soutěže'
'▁মোরগ'
'▁determine'
'▁sih'
'संघ'
'ന്ന'
'▁людзі'
'▁preciso'
'▁жителите'
'▁password'
'punct'
'▁ፀ'
'▁redacción'
'मान्'
'▁ongelmia'
'💎'
'ล้วน'
'▁ബ്ലോഗ്'
'▁елдің'
'▁ಮೂಡಿಸ'
'▁1880'
'▁simplemente'
'▁වත්'
'▁publike'
'总额'
'▁społeczności'
'▁kesên'
'pers'
'Ca'
'▁רלוונטי'
'tım'
'▁Bhatt'
'▁vizion'
'▁Ingenieur'
'▁esgota'
'▁සම්මත'
'▁дејство'
'▁তেল'
'2018-04-0'
'ໍ'
'▁Главни'
'▁Komentar'
'▁деятельности'
'▁реа'
'▁мій'
'▁diñeiro'
'▁Joachim'
'▁холестерол'
'▁συνθήκες'
'ження'
'▁୨୦୧୭'
'▁најдобрите'
'▁Lạt'
'▁ap'
'▁Fælles'
'▁Bildschirm'
'만큼'
'нт'
'ndab'
'▁숙박'
'▁syge'
'▁партиясы'
'Chef'
'▁රා'
'▁prawdopodobnie'
'▁സഭാ'
'ວນ'
'▁toodud'
'▁Cold'
'姵'
'ან'
'▁sỹ'
'▁ætti'
'ganitong'
'机械'
'▁මෙතෙක්'
'रासस'
'▁ආදරය'
'▁Svein'
'▁lũ'
'ند'
'▁octombrie'
'▁eindig'
'▁anasema'
'▁nuolat'
'▁Սեպտեմբերի'
'▁lamenta'
'這裡'
'▁etdirilməsi'
'▁kujenga'
'sson'
'🔍'
'▁कुरु'
'▁Portal'
'▁înainte'
'လွ်'
'▁ਵਿਧਾਇਕ'
'▁idarəetmə'
'▁ร่วม'
'றி'
'▁ತಾಣ'
'Қазақ'
'▁უბრალოდ'
'▁заједнички'
'▁ସେବା'
'▁өндіру'
'▁üht'
'▁консультації'
'▁Пир'
'▁ස්තුතියි'
'ujúcich'
'▁поперед'
'kaasu'
'▁ਮਈ'
'▁gambar'
'▁Vino'
'▁Fusion'
'▁ಬಂದಿದೆ'
'ល្បឿន'
'▁դեպ'
'▁тем'
'▁تهیه'
'▁plafond'
'뗐'
'▁cukup'
'▁Body'
'ㄤ'
'uch'
'▁арыгінал'
'▁କରାଯାଉଛି'
'êre'
'remo'
'▁פתוח'
'▁bonnes'
'▁मिर्च'
'▁retail'
'▁genitori'
'▁Koro'
'▁creu'
'油'
'▁rikt'
'▁wszystko'
'▁mutlu'
'▁igenom'
'Mini'
'ਕਾਰ'
'▁φόβο'
'ನೋ'
'nām'
'▁swap'
'▁razini'
'ūta'
'▁పరిశ్రమ'
'▁სანამ'
'▁Darwin'
'▁якісно'
'▁ejer'
'▁ചടങ്ങ'
'▁என்னைப்'
'▁والا'
'▁될'
'▁Fun'
'▁het'
'限量'
'▁байхгүй'
'ទ្រ'
'▁୨୦'
'▁Մաս'
'later'
'tram'
'▁akhbar'
'▁ұлы'
'▁mha'
'▁Sains'
'▁ziemi'
'▁الكبرى'
'▁හුඟක්'
'▁Цей'
'▁ഗുണ'
'Χ'
'▁Institut'
'▁bore'
'▁klíč'
'salg'
'▁ომის'
'▁Арсен'
'▁äntligen'
'▁ಕಲ್ಯಾಣ'
'로운'
'▁بوجھ'
'毎月'
'▁حصول'
'電影'
'ຈັດ'
'▁önümüzdeki'
'▁laiko'
'բե'
'▁مەھ'
'▁शायद'
'▁árinu'
'Người'
'但她'
'▁considerare'
'▁практики'
'▁lîst'
'▁обмеж'
'▁tänka'
'บกพร่อง'
'chter'
'an'
'▁sebahagian'
'್ಯೂ'
'▁ortamda'
'▁sara'
'▁متعدد'
'▁phr'
'▁ՏՏ'
'▁baze'
'▁xəstə'
'▁ceva'
'▁kiti'
'▁önkormányzat'
'▁مولانا'
'を示し'
'▁በዚህም'
'▁pożar'
'пи'
'보고'
'▁लक्ष्मी'
'плачу'
'▁불법'
'▁υπήρχε'
'▁Balti'
'▁государственно'
'▁ಮಾದರಿ'
'▁म'
'▁mielikuvi'
'ാഴ്ച'
'フード'
'▁жизнь'
'siden'
'लग'
'hetnek'
'ბერი'
'tekelezwa'
'施設'
'▁Tribun'
'▁eesmärgi'
'▁zusätzlich'
'▁Cùng'
'▁rritje'
'▁شہریوں'
'긱'
'▁կազմում'
'▁अपेक्षा'
'接触'
'▁kert'
'rovi'
'▁πρωί'
'▁Qaar'
'▁einigen'
'âld'
'▁Registracija'
'▁istoriją'
'▁invito'
'▁vypl'
'ickým'
'▁распространение'
'▁And'
'▁چڪي'
'ΜΑΤΑ'
'▁else'
'ūs'
'ミス'
'▁ქალბატონ'
'▁senzor'
'▁subjek'
'▁መጽሔት'
'▁aktuální'
'▁обращения'
'▁þessa'
'▁thánh'
'鐺'
'▁ekskl'
'详情'
'▁Latin'
'មិនទាន់'
'▁숫자'
'شهد'
'kanalen'
'ဖို့'
'الوحيد'
'▁איך'
'ڊا'
'▁régulier'
'舀'
'▁1961'
'▁ਐਲਾਨ'
'▁ενημερω'
'▁грати'
'落在'
'씽'
'▁مرت'
'▁పాల'
'▁öykü'
'펴'
'▁первого'
'铜'
'▁konstigt'
'ydd'
'▁Loo'
'▁فرانسوی'
'▁Bij'
'aí'
'▁champignon'
'琉'
'▁deadline'
'▁პეტრე'
'▁gustaría'
'▁genu'
'▁toprak'
'▁pidi'
'▁zentrale'
'▁пъ'
'g'
'爺'
'▁COR'
'絶対に'
'▁alter'
'īvā'
'プレイ'
'មូលដ្ឋាន'
'▁Komplet'
'рука'
'తున్న'
'անյան'
'▁oude'
'▁ooit'
'▁oíche'
'▁insomma'
'▁System'
'盛'
'▁ΤΟΥ'
'▁kolon'
'▁טעות'
'ဖ'
'ాలో'
'▁наступні'
'▁membri'
'▁WIFI'
'▁optimist'
'▁Loh'
'栄養'
'英語'
'▁lojë'
'تعليق'
'タ'
'▁Konseyi'
'▁έκφραση'
'▁równo'
'▁cymryd'
'▁утре'
'δή'
'▁reyndar'
'eedka'
'事物'
'▁tampon'
'Lock'
'欧元'
'▁հաճելի'
'▁ନିକଟ'
'Itàlia'
'▁dök'
'▁ማክሰኞ'
'▁თქვენს'
'▁doktora'
'▁Hopkins'
'▁ellátás'
'▁vaiko'
'▁hänen'
'番組'
'isée'
'▁tekita'
'▁sprawiają'
'▁blandit'
'δέχεται'
'▁உடனடியாக'
'▁Lieb'
'▁Ključne'
'▁kötelező'
'מם'
'▁నచ్చిన'
'▁utili'
'▁zmarł'
'følgende'
'▁соба'
'▁ключови'
'kwam'
'▁পায়ুসংক্রান্ত'
'皆'
'▁орган'
'▁stopniu'
'баярын'
'▁неке'
'▁racist'
'講述'
'bf'
'▁திகதி'
'▁minister'
'týr'
'ми'
'▁पटेल'
'▁Марс'
'▁landsbygd'
'▁ತಲೆ'
'п'
'▁қабілетті'
'▁палітыкі'
'έτη'
'រណ'
'ियत'
'▁βοηθά'
'прошу'
'多种'
'▁merce'
'▁nádherný'
'مەملىكەت'
'▁naszych'
'▁тро'
'▁causes'
'▁земля'
'▁hỗ'
'▁hüküm'
'▁mB'
'рви'
'▁икона'
'▁hotărât'
'۵۶'
'រិទ្ធ'
'សូត្រ'
'▁wafanyakazi'
'▁kidogo'
'▁mulai'
'သင္တန္း'
'▁daļas'
'▁Romantic'
'骞'
'▁Urte'
'▁ціни'
'เรียบ'
'▁Gedimin'
'ись'
'▁Gui'
'̑'
'▁kaasa'
'ווע'
'фі'
'▁ചുറ്റ'
'արկում'
'▁przedstawi'
'蝋'
'▁rejse'
'▁recol'
'▁delega'
'örf'
'▁Gòn'
'▁gewoon'
'▁grāmat'
'▁થતા'
'פין'
'▁ضروري'
'▁munkavállaló'
'▁Germany'
'building'
'▁takich'
'▁έδρα'
'塘'
'▁forestal'
'կ'
'▁minutter'
'▁टक्कर'
'▁ਖ਼ਾਲਸਾ'
'▁ವಿವಿಧ'
'▁मोबाइल'
'苦'
'逐步'
'▁здравља'
'▁gratuït'
'▁viết'
'脾'
'겜'
'▁있으니'
'τές'
'言うと'
'▁моз'
'▁többet'
'▁revue'
'▁hierdie'
'▁ciento'
'엷'
'vic'
'のように'
'৫৫'
'▁situasi'
'רכישה'
'▁مث'
'▁నిర్మించ'
'▁procedur'
'管理者'
'લેન્ડ'
'▁پنهنجا'
'▁스페인'
'pub'
'▁достатъчно'
'▁көмек'
'▁acompaña'
'люб'
'▁-2'
'▁Inmiddels'
'▁အခု'
'▁mövqe'
'מזון'
'▁edukacji'
'▁el'
'▁bayramı'
'OON'
'▁japonesa'
'▁velika'
'ಯೊಬ್ಬ'
'▁αναφορές'
'坚'
'▁Сама'
'leiter'
'▁ተግባር'
'▁millón'
'攝'
'▁дагы'
'▁živel'
'▁przyczep'
'▁terasa'
'ගත්තා'
'liśmy'
'▁variedad'
'رست'
'▁Історія'
'▁olulist'
'蕁'
'▁שהו'
'▁Рэспублікі'
'▁להכין'
'▁obiect'
'▁wnaeth'
'▁ç'
'աղբյուր'
'▁Pap'
'▁ພາກ'
'▁زند'
'▁മെഡിക്കല്'
'изация'
'▁drug'
'▁vielä'
'p'
'UN'
'▁сөйле'
'▁coin'
'▁Budějovic'
'仿佛'
'邊'
'▁sartu'
'▁казано'
'短期'
'структур'
'▁државне'
'skriuw'
'▁Catalan'
'▁ني'
'джер'
'▁lloj'
'ătoare'
'ՆԵՐԻ'
'结'
'▁veik'
'ԱՄ'
'gadu'
'▁datorită'
'▁tercers'
'뜯'
'▁konten'
'▁ville'
'▁Itaque'
'▁приход'
'▁siglo'
'ხმარ'
'測量'
'گز'
'▁उनीहरुले'
'▁ҮЧҮН'
'▁takový'
'ંત'
'房價'
'▁emocional'
'▁അദ്ദേഹം'
'чөйрө'
'▁अभिभावक'
'▁Նախարար'
'▁malfacile'
'▁väder'
'来自'
'▁Jou'
'▁тыс'
'ДН'
'तिहा'
'▁istifa'
'▁ngokuba'
'▁локал'
'▁истата'
'▁Lietotāj'
'atzeko'
'逅'
'▁Kaikki'
'ВЧ'
'ios'
'▁Strategi'
'实力'
'▁Class'
'▁hemmelig'
'▁Eagle'
'▁Legii'
'▁Tiến'
'▁κυνηγ'
'▁ලබා'
'▁pehme'
'▁системи'
'תוספת'
'▁chod'
'ใช้งานได้'
'очка'
'▁مایوس'
'尸'
'▁신앙'
'诮'
'▁zostaną'
'▁educatie'
'▁магистрал'
'▁సమంత'
'▁άρθρο'
'▁pazienti'
'▁studio'
'▁kiinni'
'城市的'
'ሰጥ'
'tronic'
'骥'
'strum'
'▁перегляд'
'يەت'
'▁հրամանատար'
'ायो'
'▁miluje'
'乜'
'▁sem'
'▁החיים'
'▁verabschiedet'
'▁հայտնի'
'ឆ'
'莢'
'จับ'
'▁Toimitus'
'▁представи'
'▁życia'
'▁ማየት'
'▁padahal'
'▁ਹੋਏ'
'daran'
'▁Einheit'
'钠'
'쁨'
'▁Microsoft'
'▁ଦୁର୍'
'പ്പോ'
'лэгдсэн'
'▁gewoonlik'
'▁izmed'
'▁guddi'
'▁penulis'
'▁باشیم'
'▁ଭଦ୍ରକ'
'បាញ់'
'වි'
'革'
'▁eredeti'
'୭'
'▁ಸುತ್ತ'
'▁نظيفة'
'▁діяльність'
'▁בלא'
'нета'
'▁strict'
'▁часопис'
'▁გასა'
'▁پيپلز'
'▁Хүүхэд'
'全程'
'▁тры'
'▁mutlak'
'▁способ'
'▁Гройсман'
'▁velük'
'▁Hakim'
'具體'
'▁mengu'
'▁ατμόσφαιρα'
'дре'
'▁Profesional'
'▁pateikia'
'▁блогер'
'▁주최'
'▁امنیتی'
'ပါဝင်'
'▁територия'
'▁toutes'
'mət'
'▁būklės'
'▁behoorlijk'
'▁యొక్క'
'正好'
'▁tasa'
'▁priporoča'
'щиеся'
'▁୧୧'
'ცოცხ'
'▁ნიკო'
'包'
'天堂'
'CK'
'▁in'
'lovchi'
'▁oppure'
'▁подразумева'
'▁برسد'
'өп'
'▁Leidenschaft'
'▁kræver'
'▁सङ्'
'-08'
'▁Demokrasi'
'▁سىرت'
'▁Энэтхэг'
'▁هیأت'
'640'
'ڏا'
'layır'
'event'
'▁penya'
'اقل'
'stit'
'▁nastupa'
'2500'
'▁બંને'
'ΜΑ'
'لىشىپ'
'▁fyr'
'ថ្មី'
'▁୧୦୦'
'身旁'
'자의'
'▁güvenilir'
'职位'
'ВКонтакте'
'▁რჩევა'
'▁بزيارة'
'▁ricca'
'▁Faculdade'
'▁më'
'▁상'
'ично'
'Watch'
'▁Хятад'
'▁spill'
'Mac'
'▁δεύτερο'
'-2012'
'ಿಸಿಕೊಂಡ'
'כנ'
'▁αποστολή'
'▁dossier'
'ທອງ'
'▁memandu'
'law'
'▁جبل'
'▁pravo'
'就像'
'奋斗'
'▁төс'
'と呼ばれ'
'▁පිරිසිදු'
'蘋果'
'emon'
'лю'
'ώστε'
'▁한계'
'▁pühapäev'
'เห'
'ogaeth'
'▁Тек'
'▁électrique'
'▁kolēģi'
'▁kalp'
'貧'
'௦'
'рын'
'步伐'
'▁reguleeri'
'▁edilib'
'ဆိပ္'
'▁কর্মকর্তা'
'▁attribui'
'➚'
'▁праходзіць'
'ዎቻቸው'
'▁ಬಂಧನ'
'▁hicieron'
'▁জাতির'
'ევი'
'▁કપૂર'
'▁દરમિયાન'
'▁Loch'
'▁želji'
'▁იმას'
'തരം'
'▁Sigma'
'▁brasileiros'
'ოზ'
'462'
'试验'
'▁rakenne'
'ذ'
'▁फार्म'
'▁guulays'
'▁Lahore'
'▁XVI'
'▁ਦਾਖਲ'
'ሽ'
'▁qərar'
'▁υλοποι'
'ей'
'▁РЕ'
'▁locului'
'▁toplantı'
'dzą'
'يكي'
'▁Hawk'
'▁lähellä'
'▁싶은'
'алтыг'
'▁చేసిన'
'好多'
'▁különböz'
'▁Cámara'
'▁ମିଛ'
'撤'
'こともできます'
'எம்'
'hæ'
'міст'
'▁comentariu'
'▁Ngô'
'▁पीडित'
'▁Japanese'
'▁الزام'
'roso'
'▁strijd'
'▁ಅಧಿಕಾರ'
'価値'
'▁ገብረ'
'▁සෙල්ලම්'
'ศาสนา'
'▁ianao'
'▁논란'
'▁Franc'
'oituksen'
'▁Wirtschafts'
'▁Вам'
'上一'
'▁लाइफ'
'邹'
'▁потърси'
'▁wol'
'▁مست'
'▁راولپنڈی'
'▁కేంద్రం'
'▁උදේ'
'漏'
'▁bestilling'
'▁գործը'
'习近平主席'
'違って'
'▁βήμα'
'▁aktivitātes'
'▁ёсць'
'骼'
'▁relacionadas'
'▁gwarantuje'
'▁haiwan'
'ላለ'
'сіць'
'▁хода'
'▁mēr'
'▁nervos'
'рку'
'▁horumar'
'▁дамуына'
'ḩ'
'肢'
'网上'
'▁GPS'
'岵'
'▁basta'
'ዶይቸ'
'▁බැඳුම්කර'
'▁kova'
'制定'
'▁femeie'
'▁ਚਾਹੁੰਦੇ'
'▁akun'
'▁Vār'
'ിനുള്ള'
'రని'
'▁همکارۍ'
'韩国'
'ющее'
'▁הכבוד'
'▁kupić'
'▁рашэнне'
'▁þróa'
'əmə'
'▁γνωρίσ'
'▁ቀርቶ'
'▁δρόμο'
'차가'
'▁ātrāk'
'▁آيل'
'▁नगर'
'▁ला'
'▁ekip'
'▁étoiles'
'ଲ'
'▁Ubytovanie'
'▁පවත්වන'
'織'
'diğiniz'
'▁여유'
'qad'
'🌳'
'▁střed'
'ந்திர'
'▁eğilim'
'▁ditujukan'
'訟'
'瞬间'
'▁mawaziri'
'ရှာဖွေ'
'베이'
'▁offre'
'▁Gyermek'
'▁здатність'
'라이'
'مة'
'▁تڏهن'
'▁ਹਸਪਤਾਲ'
'ებს'
'▁ნაბიჯი'
'▁አቋ'
'连接'
'供'
'▁Oklahoma'
'▁dolore'
'▁المساعدة'
'▁عاجز'
'▁clàraichte'
'📬'
'▁වි'
'▁betrokke'
'▁Distrito'
'حمل'
'啷'
'▁замаар'
'▁reduc'
'▁Щ'
'సే'
'▁əhatə'
'houder'
'▁представника'
'▁surrounding'
'舆论'
'ilma'
'esercizio'
'Green'
'▁використанні'
'▁պարտավոր'
'▁Semalt'
'▁منذ'
'▁Holz'
'▁предпазва'
'▁Румен'
'▁চুক্তি'
'▁Դրան'
'▁Stamp'
'▁sevišķi'
'ാവസ്ഥ'
'會有'
'均可'
'▁powodują'
'▁destinacij'
'▁chceli'
'/25'
'DJ'
'▁eventuele'
'ακ'
'角色'
'▁კომპანიის'
'▁ЗМІ'
'สมาคม'
'▁खराब'
'íčka'
'▁hyväksyt'
'▁યુવક'
'หนังโป๊'
'▁pomyśl'
'ရွိတဲ့'
'बी'
'▁sales'
'▁ääre'
'▁plures'
'нди'
'▁Է'
'▁کیوں'
'נדע'
'▁viisa'
'▁지속'
'žný'
'▁greu'
'▁이스라엘'
'ән'
'▁reeks'
'▁hát'
'▁ارب'
'▁127'
'▁않'
'▁ٹرمپ'
'aankii'
'▁sound'
'ије'
'рэння'
'▁singolo'
'тую'
'過了'
'▁sadece'
'▁móvil'
'▁രാജ്യത്തെ'
'▁ယေန႔'
'žių'
'でも'
'▁Christen'
'гээс'
'▁వ్యాధి'
'कार्य'
'\ue02d'
'Next'
'▁egyaránt'
'alni'
'▁gedachten'
'▁ατόμων'
'▁ręką'
'אָנ'
'▁möchte'
'计'
'▁کیلومتر'
'trukket'
'▁nevoit'
'▁total'
'cināt'
'▁vratiti'
'ហ្'
'属于'
'▁prestación'
'fuck'
'▁Жал'
'▁sababta'
'▁કશું'
'ꨀ'
'▁მადლი'
'הדפס'
'▁செய்து'
'▁éléments'
'▁vjerovatno'
'▁post'
'▁хугацаанд'
'▁Brot'
'fiziert'
'▁лорд'
'ጋ'
'2004'
'▁Aceste'
'▁bejelentett'
'ቈ'
'的选择'
'▁HDD'
'▁cuprinde'
'fű'
'រចនា'
'▁kişilerin'
'▁посети'
'▁μάτια'
'▁المسجد'
'▁bhf'
'▁אלף'
'ˇ'
'▁peal'
'分野'
'▁kendt'
'▁hár'
'▁ơn'
'зг'
'▁спрем'
'レンタル'
'▁ඉතා'
'▁halb'
'▁funcionamento'
'▁popieri'
'ហេ'
'▁karne'
'▁ይሄን'
'ԵՐԻ'
'voormalige'
'▁देवेंद्र'
'képesség'
'生成'
'eros'
'הא'
'ผัด'
'运动'
'שיח'
'▁Katedr'
'庶'
'ministeriö'
'▁በኢትዮጵያ'
'сацыя'
'▁ایرنا'
'▁pretek'
'tävling'
'▁מחפשים'
'▁أسابيع'
'▁වෙයි'
'सारख्या'
'▁contributi'
'▁castra'
'observa'
'▁Bạn'
'감'
'ପାରିବେ'
'ँ'
'▁होणार'
'▁Говори'
'▁kaya'
'กรุ๊ป'
'▁Panevėžio'
'▁በማለት'
'▁ڪوشش'
'перед'
'sib'
'▁Cele'
'licitud'
'瀏覽器'
'▁pievieno'
'▁origjinal'
'PP'
'▁DENGAN'
'ològic'
'อายุ'
'אוס'
'▁Diri'
'▁ajili'
'▁બોલ'
'▁ଯେ'
'поминает'
'扩'
'▁Konferens'
'▁socialist'
'קח'
'ოდეს'
'沈'
'זכר'
'▁Mipango'
'▁корм'
'▁ଦୁଃଖ'
'례'
'▁sogno'
'vallen'
'▁expira'
'▁прекрасна'
'佻'
'▁ancora'
'យុត្តិធម៌'
'▁nyílik'
'给予'
'iņš'
'سليم'
'jë'
'▁ciuda'
'▁1.2.'
'▁leuk'
'▁ψυχή'
'trą'
'▁Podle'
'▁kokku'
'يقة'
'▁artikolo'
'nskega'
'angebot'
'▁үнэгүй'
'▁conferenza'
'▁cikin'
'economia'
'▁museu'
'▁Adapt'
'驴'
'▁Perlu'
'▁ใกล้'
'▁ավելի'
'▁Uči'
'▁мораль'
'륭'
'▁Voici'
'▁adelante'
'▁Formålet'
'▁susu'
'▁مۇلازىمەت'
'▁18'
'▁zejména'
'ชั้น'
'ങ്ങനെ'
'▁खाद्य'
'عطي'
'高速'
'odi'
'连续'
'កិច្ចប្រជុំ'
'ía'
'ਜੋ'
'ඩර්'
'케'
'عتمد'
'▁leren'
'▁неком'
'▁bajêr'
'စဉ်'
'▁جیت'
'▁באינטרנט'
'▁tudják'
'ατ'
'▁וס'
'▁imkanları'
'▁Terri'
'▁moteris'
'पार्श्व'
'▁karapatan'
'▁දකින'
'תשע'
'▁метра'
'▁pateicoties'
'േട്ടന്'
'▁hujum'
'കാരന്'
'进取'
'▁belas'
'▁объекты'
'kwenza'
'▁pils'
'ገላ'
'▁pirtûk'
'▁نوفمبر'
'▁знал'
'▁Pasukan'
'▁স্বত্বাধিকার'
'пла'
'▁hum'
'▁эсэх'
'▁장'
'nuo'
'▁терапии'
'킥'
'माध्यम'
'lge'
'▁동작'
'▁lantaran'
'ध्या'
'ціон'
'gewoon'
'去'
'▁općina'
'▁ökad'
'▁Arbeitsplatz'
'▁সম'
'▁ရေ'
'十三五'
'▁работилница'
'▁жубайы'
'빕'
'ană'
'wyneb'
'लक'
'▁නැහැ'
'▁മേനോന്'
'▁своју'
'▁عواقب'
'ማግኘት'
'▁מה'
'Bu'
'▁ରି'
'▁rzadko'
'▁nisem'
'▁городе'
'▁gerekir'
'▁Parte'
'텍'
'▁앞두고'
'▁עובדי'
'stärk'
'▁Harvard'
'नाश'
'čné'
'▁Respublikasi'
'▁війни'
'▁തോ'
'ວິດ'
'з'
'▁semnificativ'
'▁alkalmazott'
'▁convaincu'
'▁поднесе'
'▁{\\\\'
'中国特色社会主义'
'▁المهندس'
'▁możliwość'
'▁двух'
'gcwele'
'▁nostre'
'ยา'
'fanyiwa'
'waar'
'▁cillum'
'▁കുറ്റ'
'▁Antall'
'▁සමස්ත'
'▁بتایا'
'fold'
'▁луч'
'▁ადვილი'
'▁atvinnulíf'
'گردان'
'▁πρώτα'
'▁Trav'
'ແອັຟ'
'ιακό'
'▁taktik'
'▁Augustin'
'▁აღმოჩნდა'
'▁geçirdiği'
'▁priv'
'▁Şü'
'▁lenger'
'ケーブル'
'GOS'
'▁मुक्त'
'ডাউনলোড'
'▁διαφορετική'
'▁لبخند'
'▁క్'
'ил'
'▁Një'
'▁Animal'
'▁Například'
'▁βράδυ'
'ваме'
'▁아직'
'▁ಸೇವೆ'
'▁أجل'
'▁verkossa'
'▁symptoms'
'▁всъщност'
'▁ஒளி'
'▁političar'
'▁Som'
'▁rendimiento'
'▁adicional'
'▁kehtesta'
'▁doza'
'▁бутлуур'
'ennoù'
'下了'
'ဖွင့်'
'▁44'
'деген'
'▁عبور'
'额'
'▁Fira'
'▁මම'
'ອອກ'
'▁haya'
'פון'
'▁bergan'
'▁interpret'
'▁cirk'
'▁evde'
'▁Grey'
'▁নির্বাচনী'
'▁cầm'
'苞'
'쏟'
'▁шугам'
'▁uztur'
'▁ಪ್ರಕಾಶ್'
'очакван'
'ໂນ'
'▁قان'
'▁pérdida'
'▁सचेत'
'▁directamente'
'▁Neidio'
'▁Վերջին'
'jpeg'
'▁പ്രഖ്യാപിക്ക'
'การชําระเงิน'
'សាធារណៈ'
'▁postopka'
'▁єдиного'
'▁gücünü'
'▁stát'
'œuf'
'▁kiujn'
'▁əks'
'▁درصدی'
'▁высокой'
'▁неће'
'▁prospekt'
'ພິ'
'螳'
'▁jembatan'
'▁notification'
'▁prani'
'▁ბაზარზე'
'▁volunteer'
'▁பாதிப்பு'
'၂၃'
'▁അയാള്'
'▁konserva'
'▁ଯେଉଁ'
'▁၀'
'▁Советот'
'▁Odličn'
'▁alberga'
'▁kakršne'
'▁convince'
'▁Roda'
'▁ችግር'
'内的'
'▁зацікавлен'
'২১'
'▁suất'
'▁արվեստի'
'▁بازرگانی'
'▁dafür'
'ซา'
'▁రాష్ట్రంలో'
'ሀገሪቱ'
'▁कम्युनिष्ट'
'▁καθημεριν'
'ยังสามารถ'
'▁შეცვლა'
'Ju'
'▁feste'
'obligatoriu'
'007'
'▁Pertemuan'
'ସଂଖ୍ୟ'
'▁રાખે'
'▁ನಿಟ್ಟಿನಲ್ಲಿ'
'▁قياس'
'▁રીત'
'ลอย'
'▁एवम्'
'টো'
'പിന്ന'
'ခဲ႕'
'▁permanece'
'kseni'
'stvom'
'▁निर्देशन'
'▁Земле'
'cok'
'ՔԱՂԱՔ'
'▁فرص'
'ყ'
'mono'
'▁άλλη'
'▁Española'
'աչափ'
'ਓ'
'▁oblikoval'
'▁кількох'
'▁pegar'
'▁krooni'
'cél'
'▁красота'
'khoz'
'მზად'
'राष्ट्र'
'▁bror'
'▁રાશિ'
'▁bize'
'▁ووڈ'
'▁Порт'
'ស្រាប់'
'▁Gemeente'
'▁raffredda'
'んだ'
'▁ኢትዮጵያውያን'
'▁عامر'
'▁mkoa'
'โซน'
'sztott'
'нда'
'▁Schleswig'
'▁Авганистан'
'war'
'ገረ'
'▁Bur'
'ημένο'
'▁ప్రభావం'
'▁Võib'
'▁એવું'
'▁graves'
'ئۇيغۇر'
'unun'
'▁Nutzer'
'▁पंचायत'
'▁Zweifel'
'▁noen'
'▁اح'
'▁atbalstu'
'淑'
'▁18-'
'▁dňa'
'▁asigură'
'▁Perniagaan'
'▁ئىچى'
'vojaĝ'
'▁પેટ'
'いただけ'
'Вер'
'▁thao'
'▁burada'
'אפשר'
'ափ'
'ANC'
'▁Arroyo'
'▁նշանակում'
'▁Baju'
'ής'
'▁راتلونکو'
'▁βρέθηκε'
'▁epok'
'▁aeternum'
'▁חיובי'
'▁prezidanto'
'▁Raf'
'ከፍተኛ'
'▁обеспечивает'
'▁വെളുത്ത'
'▁Uważa'
'现在已经'
'▁kahve'
'▁،\u202c'
'▁Basilica'
'lektion'
'▁arkadaşlar'
'▁Русија'
'stories'
'жаттығу'
'रे'
'▁tekintetében'
'缙'
'▁staðreynd'
'▁otwarty'
'fera'
'▁सुवर्ण'
'▁어느'
'တဦး'
'▁zanîn'
'自己在'
'▁Ää'
'▁изисквания'
'▁القرن'
'臨床'
'▁күчтүү'
'▁מפר'
'▁አህመድ'
'▁سپریم'
'▁दिल्ली'
'陸地區'
'▁حس'
'▁qaror'
'math'
'ambient'
'ulur'
'ţelor'
'▁Riječ'
'▁með'
'照明'
'▁NBA'
'▁zamówienie'
'DAG'
'诟'
'▁музея'
'▁ахвяр'
'▁కోర'
'ற'
'stærk'
'ลาน'
'人の'
'▁ସହର'
'തീവ്ര'
'▁oldum'
'නීය'
'tuhan'
'▁Neteweyê'
'▁Більшість'
'תחום'
'▁руко'
'的现象'
'▁белгиленген'
'feest'
'▁rupiah'
'▁trùng'
'оўцы'
'▁σύγχρονη'
'йма'
'▁Numa'
'mü'
'▁elején'
'▁marito'
'▁Iedereen'
'▁bæjar'
'中国的'
'Amministrazione'
'▁deltage'
'ілген'
'▁PÅ'
'യാണ്'
'パスワード'
'ರತ್ನ'
'▁ТУХАЙ'
'▁ਸਿਮਰ'
'▁bhun'
'ruan'
'▁había'
'연구소'
'▁categorías'
'zung'
'學期'
'шната'
'▁požár'
'▁Politi'
'▁uydu'
'▁Amatør'
'福岡'
'עניינו'
'質'
'蛛'
'▁najpoznatij'
'涟'
'icí'
'▁اختر'
'ire'
'▁አለብን'
'▁Образова'
'မူ'
'▁початок'
'▁Egg'
'▁رحیم'
'ワイン'
'ТГ'
'▁Ωστόσο'
'▁begleiten'
'បម្រើ'
'තිලක'
'▁Перша'
'▁הענ'
'айыр'
'ည်း'
'▁gross'
'Ỏ'
'少しでも'
'▁Τι'
'lediği'
'▁micro'
'▁umuntu'
'balik'
'▁ಫೋನ್'
'▁22-'
'▁Xan'
'▁Majd'
'▁şehrin'
'▁આત્મા'
'▁hiểm'
'▁kali'
'กลับ'
'ուղ'
'▁ስት'
'▁dóibh'
'5.0'
'▁Hd'
'itatem'
'▁autovehicul'
'▁корупција'
'▁fiu'
'▁valmistatud'
'▁Швед'
'greifen'
'ОГА'
'▁опрос'
'доброто'
'IČ'
'wit'
'ემსახურე'
'▁magazyn'
'ुक'
'பிள்'
'ወርቅ'
'▁liberi'
'▁Sura'
'창업'
'▁obiecte'
'▁ለመ'
'▁центра'
'▁шарттар'
'પુરુષ'
'▁වසා'
'피'
'▁yeah'
'ուռ'
'▁дүгнэлт'
'▁asesoramiento'
'▁الحالية'
'燙'
'↩'
'bolo'
'▁gulvet'
'જ્ઞ'
'▁så'
'tehnika'
'▁gas'
'▁ഹി'
'ють'
'▁opinia'
'េត'
'▁játék'
'▁învăţ'
'▁escapar'
'▁Gençlik'
'pecah'
'janak'
'File'
'jau'
'ጋዜጠኛ'
'▁halos'
'ຊັ້ນ'
'▁Engenharia'
'뜰'
'橄'
'撮り'
'▁heitir'
'▁sudjelovati'
'tünk'
'▁सरकारको'
'▁Roland'
'▁abbiano'
'▁මතු'
'ရံုး'
'prire'
'▁kare'
'▁Agro'
'dají'
'▁kandydat'
'▁완성'
'⚽'
'ntia'
'อุปกรณ์'
'skolan'
'▁décidé'
'▁dauki'
'ت'
'狹'
'▁광고'
'▁Друштво'
'DIRI'
'ινγκ'
'ze'
'ລັດ'
'▁efekt'
'mässig'
'▁straipsnį'
'▁richiama'
'샥'
'▁עובר'
'▁ചരിത്ര'
'дайте'
'▁Тэр'
'▁Karel'
'▁ყოველი'
'▁خویش'
'▁propos'
'نظ'
'့ကို'
'▁Receita'
'हाल'
'▁Bilet'
'Urgell'
'▁አዳ'
'ເກີນ'
'▁járt'
'bygger'
'ből'
'▁Asker'
'▁Andreea'
'▁एच'
'▁potensi'
'ስት'
'▁Sarkozy'
'▁göteborg'
'КОЙ'
'ѳ'
'za'
'się'
'▁considerada'
'▁жер'
'sindi'
'▁Cég'
'罂'
'йно'
'▁gesamten'
'공학'
'tanggung'
'mme'
'ിനി'
'ပေါ်'
'▁abril'
'▁dzimt'
'ан'
'▁ste'
'▁nûçeya'
'▁addysg'
'mäßig'
'▁उस'
'▁добио'
'ضطر'
'біг'
'▁administración'
'▁bilik'
'▁Fyll'
'rétt'
'⛰'
'▁నాకు'
'júce'
'▁դատական'
'▁आवश्यक'
'▁länder'
'▁बृह'
'▁szőke'
'▁साल'
'▁Lulzim'
'▁pelajaran'
'▁específico'
'तरी'
'იძ'
'▁বিতরণ'
'▁tycka'
'▁використан'
'▁Kopenhag'
'▁thân'
'vie'
'▁കൂള്'
'▁රියාමාර්ග'
'документ'
'▁सर्वोच्च'
'▁buka'
'▁Ndugu'
'▁місцевого'
'▁pewne'
'▁mišljenje'
'▁танхим'
'▁fizika'
'▁доллар'
'▁viib'
'▁कॉमन्स'
'▁aufge'
'▁Տավուշի'
'▁ziedo'
'▁gamma'
'▁fornito'
'▁සවස'
'▁gestalten'
'brat'
'▁clásica'
'dot'
'▁utforske'
'ทู'
'▁firmie'
'▁aturan'
'מוסד'
'▁activitate'
'▁pris'
'▁Mhic'
'suunnitelmi'
'ਚੇ'
'▁Kitap'
'▁బా'
'ကြော'
'ключ'
'▁கேரளா'
'▁egyéni'
'▁Caerdydd'
'怄'
'▁חינוך'
'ಹಾ'
'▁muuqaal'
'▁seguire'
'▁سنگ'
'▁දෙ'
'▁થઈ'
'▁smuk'
'▁தெ'
'▁poniedziałek'
'▁мощ'
'▁سۈرەت'
'繽'
'івська'
'▁lëndë'
'▁తీసుకు'
'▁ጭ'
'▁noskaidro'
'▁atlygin'
'▁modernizac'
'שבע'
'日まで'
'▁բջջային'
'🏼'
'ヶ'
'▁visuomet'
'▁उमेदवार'
'▁condutor'
'ኁ'
'起こ'
'▁заңнамасы'
'ຄອບຄົວ'
'മില്ലാത്ത'
'▁objective'
'तत्'
'čte'
'▁daardie'
'▁unterschiedlich'
'▁직원'
'دست'
'▁sociálnych'
'▁המכ'
'桌'
'漢'
'▁įrašai'
'▁Горан'
'▁øl'
'ījies'
'పోయారు'
'▁accept'
'ROM'
'▁Συνεχ'
'轻'
'▁пікір'
'▁മുന്നോട്ട്'
'anos'
'ສູງສຸດ'
'▁mögött'
'යුතු'
'▁تتم'
'▁innovativ'
'▁Amniga'
'▁либерал'
'▁USB'
'专题'
'абслугоўва'
'▁lawr'
'paikan'
'▁sänk'
'▁reparto'
'▁Gabon'
'▁allanol'
'เลื่อน'
'困难'
'▁taxi'
'▁ліцензії'
'▁الخبر'
'▁evt'
'ించాలి'
'▁накоплен'
'▁travers'
'月に'
'အောက်'
'▁պակաս'
'▁آڻڻ'
'▁Nafarroako'
'▁th'
'▁მხარს'
'▁მამუკა'
'ון'
'▁lăsa'
'ainkat'
'▁heimsókn'
'LÉ'
'▁হাসিনার'
'యి'
'蛰'
'42'
'▁බැරි'
'▁다녀'
'ird'
'▁vigyáz'
'髅'
'दिप'
'▁IT'
'▁యాక్షన్'
'ೊಂದಿಗೆ'
'ван'
'แอล'
'tinio'
'▁হাসপাতালে'
'▁දෙනා'
'yrityksi'
'▁postul'
'مرد'
'▁צוריק'
'▁ठुलो'
'২৬'
'▁attorno'
'IBA'
'MV'
'▁filmy'
'bas'
'trabaho'
'▁청소년'
'በብ'
'▁paljude'
'လမ်း'
'▁священник'
'▁deməkdir'
'钜'
'xaad'
'ဌ'
'▁উইকেট'
'▁sabiedriskā'
'響'
'lności'
'▁순'
'ILAN'
'▁נורא'
'▁приключва'
'▁vatandaşlar'
'▁åpen'
'▁recebeu'
'狩'
'▁féachaint'
'▁VISA'
'ෙමින්'
'lähtö'
'▁անունը'
'化的'
'เ'
'සන'
'纱'
'ጉዳዩ'
'வினை'
'▁tanıtım'
'▁основных'
'▁പൊതു'
'▁documentazione'
'▁사진'
'وط'
'▁mengontrol'
'▁yek'
'▁არ'
'▁Tə'
'წინ'
'▁Website'
'▁भ्रष्ट'
'рж'
'เซ็น'
'▁aceeași'
'annonser'
'▁представляє'
'▁considerato'
'сенбі'
'▁jämfört'
'▁izdelek'
'▁Meksiko'
'貼'
'gebiet'
'jamā'
'▁ekanligini'
'▁मा'
'▁ગયું'
'▁Benefici'
'产生了'
'▁कि'
'จนถึง'
'экономикалық'
'lägenhet'
'▁बिजली'
'ულების'
'▁одговорности'
'是有'
'▁njegovog'
'▁прэміі'
'▁Community'
'▁awam'
'▁Operasi'
'▁kontekst'
'▁det'
'ВІ'
'晴'
'ົງ'
'▁motivation'
'▁ważna'
'ጫ'
'ући'
'▁ຫາ'
'▁corta'
'крат'
'▁tü'
'▁requereix'
'άκι'
'▁стріл'
'lisema'
'כו'
'▁TRANSPORT'
'▁qanun'
'▁세계'
'▁merci'
'▁байхыг'
'បាត់បង់'
'ὠ'
'АО'
'ລາດ'
'帶給'
'সাধারণ'
'த்த'
'▁namesto'
'▁kennslu'
'▁ਹਰੀ'
'▁vērst'
'▁Ovviamente'
'▁Tanah'
'▁لنکا'
'▁tuntui'
'▁stille'
'▁koto'
'ღამ'
'קפה'
'▁apskritai'
'▁ایئر'
'▁ପସନ୍ଦ'
'▁питање'
'▁İmam'
'酋'
'▁voqea'
'▁samej'
'▁**'
'生きて'
'▁verib'
'▁drammen'
'▁Cumhuriyeti'
'▁विश्वविद्यालय'
'▁rahatlıkla'
'▁reiciendis'
'▁skv'
'▁achten'
'▁allons'
'▁arbetsgivare'
'▁pozície'
'▁necessitat'
'sys'
'ピング'
'وت'
'bec'
'▁ಲಭ್ಯ'
'▁ગ્રે'
'ဝင်'
'ויה'
'▁ڪيترا'
'▁Laut'
'コンピュータ'
'共产党'
'Archiv'
'▁اوضاع'
'▁مدريد'
'▁chicken'
'▁Coordinadora'
'дий'
'近い'
'▁rolle'
'▁Atlantik'
'▁tat'
'ుడైన'
'ാണ'
'▁응용'
'▁vaše'
'▁किरण'
'▁praedic'
'రె'
'occupe'
'▁kullandı'
'▁abuur'
'▁bought'
'◥'
'▁መግለጫ'
'▁Carlos'
'▁gospodin'
'▁Pagrindinė'
'▁вуліц'
'sprosess'
'▁sin'
'▁پلس'
'▁hissəni'
'strecke'
'▁snarare'
'▁vrata'
'vaiku'
'▁efterhånden'
'▁fu'
'▁mémoire'
'▁asperiores'
'nging'
'▁আজ'
'▁Viešbučiai'
'▁AF'
'129'
'уча'
'นิติ'
'udu'
'ដែលអ្នក'
'ウェ'
'eg'
'▁Tällöin'
'▁ходи'
'殯'
'感動'
'▁көше'
'mesema'
'▁уместо'
'яд'
'дэ'
'▁oddech'
'▁مطالبہ'
'unde'
'▁දෙනෙක්'
'▁ತಿಳಿಸಿ'
'ומם'
'▁Яго'
'وان'
'▁נר'
'யில்லை'
'▁ablak'
'▁చదివా'
'▁সময়ের'
'▁vole'
'▁يوازې'
'արդար'
'▁искусство'
'▁συνεχ'
'räum'
'梯'
'▁சர்'
'cind'
'▁липсва'
'▁ಅಂಗಡಿ'
'▁משמעותית'
'gagawa'
'ở'
'▁ਉਚਾਰਨ'
'▁рекламы'
'▁שאינ'
'▁සැලක'
'▁πατ'
'несување'
'▁دؤر'
'ovna'
'luvu'
'▁چيز'
'群众'
'น่ารัก'
'▁bantuan'
'▁Handlung'
'▁επαγγελματικ'
'▁1868'
'▁guanyador'
'▁കൊന്ന'
'▁mūž'
'ָר'
'▁المرة'
'▁Nguyệt'
'▁finansowe'
'オリンピック'
'▁wspólne'
'▁spy'
'άει'
'▁Nos'
'▁நீர்'
'驶'
'很清楚'
'▁वीर्य'
'ىدىكەن'
'เนอร์'
'išču'
'حرق'
'▁координат'
'طرح'
'▁ପରୀକ୍ଷା'
'Sloven'
'ვალე'
'▁противодействи'
'广播'
'нај'
'危'
'▁Kalam'
'ಮರ್'
'▁Båt'
'kû'
'▁للأ'
'▁valu'
'▁إطلاق'
'▁साता'
'▁domein'
'▁kosmos'
'ىرىپ'
'▁விமர்சனம்'
'▁úsek'
'▁Руб'
'有一'
'▁нутгаар'
'▁तहमा'
'ാണെങ്കില്'
'▁perfecto'
'▁Dự'
'▁зависимост'
'▁رياست'
'▁Komunës'
'▁zaključi'
'วุฒิ'
'▁dikir'
'ատան'
'▁Popular'
'▁indique'
'▁pasou'
'чилж'
'▁Ez'
'ЭЛ'
'▁çdo'
'▁Черн'
'▁শরীর'
'▁verejne'
'▁חם'
'▁pomaže'
'▁দিনে'
'钝'
'слеп'
'▁وأشار'
'▁krokodil'
'Consult'
'▁kvitt'
'іка'
'▁bernama'
'▁gef'
'αϊκή'
'▁قاتار'
'拍摄'
'▁życiu'
'וועסט'
'▁լարված'
'▁Yun'
'▁инсулин'
'оград'
'そのような'
'계약'
'号线'
'▁केही'
'▁całej'
'▁ప్రమాద'
'▁ғалым'
'▁Baj'
'▁نباشید'
'مناطق'
'▁kütüphane'
'긁'
'▁ไม่ว่าจะเป็น'
'cidi'
'▁prywatne'
'▁meil'
'▁වේදනාව'
'▁hadir'
'▁നബി'
'повнити'
'itaj'
'▁праз'
'بيل'
'▁ಸೆಟ್'
'▁esperança'
'▁menduar'
'гын'
'ာ'
'▁possibilità'
'▁Valde'
'▁magisk'
'▁ongelooflik'
'▁profili'
'▁සත්'
'chilik'
'ئل'
'▁проводиться'
'▁detailed'
'▁Sesuai'
'MY'
'▁କେବେ'
'▁Μο'
'▁තිබුනේ'
'▁بالاضافة'
'▁ምንድነው'
'ინი'
'▁individuo'
'െടുത്ത്'
'ંબ'
'▁ομιλ'
'▁‡'
'▁огцруулах'
'▁Way'
'məsinə'
'▁Първо'
'يسر'
'คอย'
'▁параграф'
'▁uveljavlja'
'▁iedzīvotājiem'
'▁οικονομικών'
'▁авиона'
'▁تشویق'
'gitt'
'περ'
'▁브라우저'
'蓓'
'zug'
'▁päähän'
'▁ਆਪਣੀ'
'▁perchè'
'▁விகடன்'
'▁ଗଠନ'
'året'
'னை'
'▁yillar'
'▁ಆನಂದ'
'oszlop'
'ዛ'
'NOV'
'▁करिब'
'க்கலாம்'
'ట్ల'
'▁fronte'
'▁larga'
'მანი'
'▁razboi'
'▁είμαι'
'ացույց'
'活力'
'▁Itália'
'珮'
'▁soupeř'
'▁ຫົວຫນ້າ'
'圩'
'▁mutu'
'をかけて'
'ats'
'элдэг'
'oiden'
'▁Ευ'
'▁luci'
'▁ხომ'
'▁тэрбум'
'▁împlini'
'▁pož'
'蜜'
'▁računalni'
'弱'
'vidék'
'ಗರ'
'BUD'
'gehên'
'central'
'▁삭제'
'▁конкуренция'
'κιν'
'▁sm'
'ਫ਼'
'▁случаев'
'▁spesso'
'чдын'
'▁лятото'
'র্'
'▁വിവരങ്ങൾ'
'▁தொ'
'▁နိုင်ငံ'
'▁PSG'
'▁ಮಗು'
'rassen'
'COS'
'▁ਸਰਕਾਰ'
'就算是'
'konduk'
'ਬਿਊਰੋ'
'▁videregående'
'思い出'
'▁часова'
'▁repede'
'▁السعر'
'▁proces'
'▁Suudi'
'zungumzia'
'יפ'
'▁不过'
'▁Nivîs'
'▁walang'
'MIT'
'▁terhindar'
'▁ay'
'▁Үйл'
'▁zamieszczon'
'▁ويمكن'
'▁कानून'
'▁ייתכן'
'▁kirjutas'
'▁הקודש'
'සං'
'▁οδηγεί'
'▁ಟಿಪ್ಸ್'
'▁communi'
'▁segítségével'
'▁lahendus'
'ჯან'
'lawan'
'▁Предложе'
'▁Bizi'
'טכנולוגי'
'▁vásárol'
'desk'
'▁ቤተ'
'▁ensiklopedie'
'▁proxecto'
'lah'
'▁komma'
'▁KUR'
'差し'
'ဒေါ'
'nosťou'
'[29]'
'▁illi'
'бој'
'amat'
'▁najlepší'
'▁понятие'
'▁Woj'
'▁클라우드'
'▁સંચાલિત'
'▁Giêsu'
'▁hjerte'
'▁تستخدم'
'▁societat'
'▁necessária'
'▁Aktiv'
'▁манай'
'approvazione'
'▁Küçük'
'劳'
'造成'
'▁pianist'
'▁কি'
'विरोधात'
'ჷ'
'▁vist'
'결'
'nika'
'▁Gir'
'▁բերել'
'▁PowerPoint'
'▁हास्य'
'▁پادىشاھ'
'▁tegu'
'▁victòria'
'▁Constanţa'
'▁ІІІ'
'▁tudod'
'▁Fig'
'▁المناسبة'
'▁Camping'
'▁խաղալ'
'્ચર'
'▁flood'
'▁नेपालले'
'之類的'
'▁müsste'
'強大的'
'▁πρό'
'▁***'
'▁real'
'▁Mirror'
'utul'
'▁pont'
'tüüp'
'▁populaci'
'istika'
'เดี๋ยว'
'▁relacionats'
'▁gloss'
'▁Odpo'
'▁Община'
'▁Zach'
'СА'
'▁ئەۋلاد'
'изира'
'Аб'
'▁fungi'
'搥'
'▁dug'
'▁Rodríguez'
'▁dignidade'
'▁போகிற'
'▁ทําให้'
'▁náš'
'▁existente'
'▁shaqeeya'
'刪除'
'▁делает'
'▁müsahibə'
'▁үкімет'
'▁Plusieur'
'лу'
'▁लागते'
'vægt'
'▁kahvaltı'
'▁μέρη'
'ђи'
'同'
'வளை'
'чил'
'▁capaz'
'▁phúc'
'▁zlepšení'
'καθ'
'▁לאחר'
'ੋਨ'
'tervező'
'oittamaan'
'▁सवारी'
'▁rydde'
'▁increíble'
'עני'
'▁گڏجي'
'zame'
'兗'
'ፖለቲካ'
'ggan'
'▁wejść'
'▁Koo'
'▁kodėl'
'▁കടന്നു'
'الحيوان'
'py'
'▁waarschijnlijk'
'▁Tian'
'552'
'редне'
'▁өөрсдийн'
'▁വിദ്യാർത്ഥി'
'剁'
'▁სტუმარი'
'▁något'
'▁гэту'
'▁സംരംഭ'
'▁पद'
'▁প্রদর্শন'
'енце'
'▁ուրեմն'
'で'
'▁glo'
'▁lokalne'
'▁športov'
'ledning'
'ization'
'ութ'
'▁вигляді'
'ooni'
'▁komisyon'
'▁këtu'
'joties'
'▁Ngoài'
'▁αναμέτρηση'
'▁aŭto'
'▁ĵus'
'ထားေသာ'
'を使った'
'旋'
'▁контейнер'
'▁многа'
'▁kuasa'
'囤'
'Ти'
'kah'
'切れ'
'▁kohteen'
'ገዝ'
'▁Пят'
'▁σεβασμό'
'▁الأعضاء'
'▁rencana'
'▁сим'
'вав'
'▁kaufen'
'▁secuestr'
'▁növény'
'▁můžu'
'▁포장'
'簿'
'▁Δε'
'▁مرسي'
'▁земја'
'ходящ'
'▁ֆեյսբուքյան'
'ത്തോളം'
'▁bilder'
'▁rû'
'▁severe'
'▁ऊर्जा'
'តេ'
'▁Ustaz'
'▁фотографии'
'GV'
'▁تحقیق'
'▁foot'
'ышат'
'iter'
'▁अपहरण'
'▁بحق'
'▁biserica'
'▁तक'
'▁žmogaus'
'கிறேன்'
'▁இன்றைய'
'▁beschikt'
'▁ውጭ'
'▁πιστεύω'
'잤'
'▁ਪ੍ਰਧਾਨ'
'ุ่ม'
'假如'
'▁контракт'
'▁Agoda'
'▁megelőző'
'▁ಅಧಿಕೃತ'
'▁Tarik'
'ဆိုး'
'▁چل'
'utus'
'▁specjalistów'
'▁budidaya'
'füg'
'▁મારું'
'pastā'
'作'
'▁Buka'
'▁گاهی'
'▁հանձնաժողով'
'▁酒店位於'
'▁վատ'
'機器'
'▁beteende'
'▁מיוחד'
'ຂໍ້'
'▁liiku'
'კონტაქტ'
'▁வந்து'
'ติน'
'▁imper'
'▁nástroj'
'▁turvallise'
'▁informaţii'
'▁atrodas'
'량이'
'▁불구하고'
'поряд'
'δοξο'
'▁شيئا'
'řit'
'алиев'
'▁borcu'
'হি'
'▁فرمائی'
'▁ვცდილობ'
'▁مرسته'
'ῖ'
'放假'
'▁predpis'
'أجهزة'
'etu'
'奎'
'myn'
'ший'
'▁hoppe'
'عدل'
'駛'
'▁रू'
'ണ്ട്'
'vissa'
'▁livres'
'päivää'
'မုိး'
'ॆ'
'luş'
'▁состојки'
'梠'
'▁généralement'
'▁resurse'
'▁Himmel'
'opleiding'
'▁κάποιον'
'พะเยา'
'是一'
'دھی'
'ลูก'
'▁mánaða'
'▁Spaans'
'kkum'
'தெல்லாம்'
'ကုိ'
'Union'
'▁személyes'
'▁ग्लोबल'
'tavo'
'▁كۆك'
'មុខងារ'
'▁қамты'
'▁Esi'
'قاف'
'▁వెళ్త'
'▁прах'
'Κ'
'abhängig'
'ที่ได้รับ'
'▁ଆହୁରି'
'대구'
'▁негира'
'랄'
'▁görög'
'▁ಪ್ರತ್ಯೇಕ'
'强大'
'▁පැරණි'
'🗓'
'東京都'
'우리'
'กอง'
'ਧਾਰ'
'▁నిపుణుల'
'▁ਅਧਿਕਾਰੀਆਂ'
'▁tecnico'
'סדר'
'▁desplaza'
'▁подготвува'
'あらゆる'
'▁ausdrücklich'
'acquisizione'
'▁Kahjuks'
'▁패턴'
'▁دیں'
'▁perniagaan'
'▁නංගි'
'▁(19'
'▁වූයේ'
'料'
'▁daugiausia'
'▁niha'
'认'
'▁zouden'
'▁understanding'
'▁1,000'
'▁videók'
'▁의무'
'ありがたい'
'▁Sekali'
'ლო'
'▁burde'
'▁الناس'
'▁Analytics'
'▁hållbar'
'სიტყვ'
'യിലൂടെ'
'▁затвора'
'▁европска'
'▁විම'
'бах'
'▁ھا'
'წყნარ'
'λείψ'
'▁prezid'
'ЩИ'
'▁orde'
'▁Արամ'
'소'
'▁αποδ'
'▁recrea'
'▁reći'
'▁But'
'▁προορισμό'
'ούμενη'
'▁בכל'
'▁پانی'
'▁Groen'
'âm'
'▁ಮೈಸೂರು'
'▁cliché'
'ंद्र'
'びっくり'
'technisch'
'ಲೋಕ'
'nīca'
'輥'
'hui'
'▁گزینه'
'▁นาที'
'▁izkušnja'
'▁ተግባራዊ'
'dále'
'színű'
'▁atmosfera'
'瘸'
'▁Stol'
'▁അടച്ച'
'ىن'
'▁kostum'
'▁mnogi'
'▁reclamo'
'当サイト'
'▁uniform'
'▁गुनासो'
'未必'
'ുകൊണ്ട്'
'▁ouvir'
'▁lön'
'▁افيئر'
'аться'
'▁sınavı'
'▁mať'
'▁barruan'
'▁gak'
'▁വിശേഷങ്ങളുമായി'
'▁säännö'
'▁байжээ'
'BIL'
'筈'
'▁comp'
'▁ຂອງ'
'τζ'
'▁Abonner'
'姻'
'▁nuova'
'▁پوچھ'
'Карпат'
'▁Federa'
'▁ပြင်ပ'
'飾'
'▁tələb'
'kant'
'刘'
'▁സോ'
'७१'
'mässä'
'▁government'
'▁lääkäri'
'▁knows'
'▁sprzyja'
'▁ngon'
'▁Dastuurka'
'▁стоји'
'▁ಮಾಧ್ಯಮ'
'罪'
'▁temporal'
'iet'
'26)'
'▁ਖੁਦ'
'ían'
'▁ФК'
'▁اجاره'
'▁संबोधित'
'▁эрдэм'
'בנית'
'▁кожни'
'▁ပင်မစာမျက်နှာ'
'ለት'
'▁teist'
'listen'
'нија'
'нү'
'နု'
'▁यू'
'цького'
'ист'
'▁situationer'
'▁බලපෑම්'
'쎄'
'▁абал'
'▁Jenis'
'様子'
'▁भरतपुर'
'▁старонка'
'▁સાત'
'nka'
'njuje'
'▁triều'
'▁mnogo'
'nomina'
'નું'
'▁แต่ถ้า'
'EKA'
'▁Auswahl'
'▁бөлімі'
'▁Bhojpuri'
'trzyma'
'▁посао'
'лиги'
'▁καθαρ'
'▁Äripäev'
'gredi'
'දෙන'
'▁ہاں'
'ဟဲ'
'▁minggu'
'▁szeroki'
'▁рішення'
'▁wil'
'▁ਕਾ'
'▁qat'
'▁зав'
'hh'
'ਰੂ'
'▁frio'
'తీ'
'▁Gestão'
'▁teratur'
'▁accumula'
'▁yolunu'
'dzo'
'▁cuales'
'लेली'
'▁mjesečno'
'▁더욱'
'ú'
'▁بشه'
'▁новорічн'
'▁löy'
'▁tržni'
'graff'
'арын'
'Mail'
'▁अंक'
'▁موسوی'
'▁yola'
'すっかり'
'▁اللهم'
'▁биелүүл'
'fett'
'নেট'
'▁നൽകുന്ന'
'▁ülkenin'
'▁pracuje'
'▁klass'
'▁ئاغرى'
'▁câmera'
'▁ምርት'
'▁అరుణ'
'▁хоногт'
'▁ਜ਼'
'▁Øst'
'赌场'
'koihin'
'▁vuoteen'
'▁koji'
'яр'
'ulit'
'▁fantazi'
'▁Peugeot'
'▁заштиту'
'inscription'
'▁종료'
'▁apibrėž'
'균'
'ika'
'▁мигранти'
'Господ'
'▁difficultés'
'ゴール'
'▁Mitsubishi'
'▁FSX'
'ศตวรรษ'
'▁pequeño'
'▁displej'
'▁khoáng'
'ődött'
'▁оқиғалар'
'▁πα'
'▁ત્યાં'
'▁njalo'
'▁tradizionali'
'▁tőle'
'▁ଶ୍ରମିକ'
'▁Enter'
'❮'
'clu'
'ဗ်ာ။'
'▁ከተ'
'▁podjetnik'
'▁nagpapa'
'суштинск'
'▁hejm'
'▁වෙනස'
'▁بد'
'▁sviluppa'
'啶'
'▁тө'
'nicy'
'▁viza'
'▁лінії'
'▁திருத்த'
'▁ਮੁਤਾਬਕ'
'▁ඉ'
'▁ਮੌਜੂਦ'
'▁nello'
'▁vervoer'
'▁zpřístupň'
'demo'
'stran'
'▁čiji'
'▁Гърция'
'▁trúng'
'▁התלמידים'
'зар'
'▁ymgyrch'
'нувшись'
'▁ሳይንስ'
'▁riquesa'
'نئ'
'▁wagonjwa'
'▁ពួក'
'▁dhi'
'▁Елена'
'▁విడుద'
'▁świat'
'▁वर्षीया'
'เช่นกัน'
'▁регламент'
'哲學'
'भो'
'▁설립'
'▁Голем'
'▁ayaa'
'▁தொடர்பாக'
'▁miel'
'▁sertifikat'
'▁SPECIAL'
'စိုက္'
'▁фокусира'
'▁parfois'
'ذه'
'▁társaság'
'▁kwestia'
'▁nessuna'
'▁испуњава'
'▁kesuksesan'
'▁Оқыту'
'ương'
'ば'
'yttää'
'▁alivyo'
'▁unul'
'▁trata'
'▁medya'
'кал'
'🌾'
'▁изображение'
'פיות'
'▁ກຸມພາ'
'▁რეჟისორი'
'▁କାର୍ଯ୍ୟ'
'▁oružje'
'▁déanamh'
'▁мекеме'
'▁mitandao'
'蘋'
'▁ଶେଷ'
'▁giữ'
'▁וח'
'▁palvel'
'פי'
'dec'
'ตระกูล'
'▁raggiunto'
'▁ανοικτ'
'▁Метод'
'▁kursu'
'/02'
'৪৫'
'▁riamh'
'วิทยาศาสตร์'
'quest'
'Nov'
'క్కడ'
'▁돈을'
'▁Қоғамдық'
'▁tetejére'
'老人'
'▁Э'
'▁guztia'
'លើក'
'čně'
'▁ideje'
'▁عدن'
'▁syvä'
'꺼'
'▁իրար'
'−'
'▁Эс'
'▁Antik'
'რიკ'
'▁conocido'
'▁JOHN'
'ków'
'дже'
'최'
'▁изменение'
'κρό'
'▁colleghi'
'стигну'
'▁confe'
'▁zákaz'
'Škol'
'▁Čia'
'▁обязанности'
'▁400'
'▁відбувся'
'▁وحشت'
'חיפוש'
'сөзсүз'
'▁Perkahwinan'
'▁Научете'
'ຯ'
'▁ಲವ್'
'தம்'
'▁যুবক'
'▁vatandaşı'
'▁siūly'
'▁κληρονομ'
'▁kommande'
'▁Và'
'▁альтернатив'
'▁only'
'▁IB'
'▁груб'
'mayacağı'
'usten'
'ចុះ'
'閣'
'术'
'▁funkcija'
'▁nép'
'▁Есть'
'ใช้เวลา'
'halu'
'▁mnogim'
'▁ആഴ്ച'
'θεωρ'
'▁Palembang'
'▁կա'
'▁cupiditate'
'تەربىي'
'ంద్ర'
'▁харж'
'аза'
'jab'
'▁cih'
'羌'
'ેજ'
'ىت'
'実'
'▁מיידי'
'▁meklēt'
'▁ברוכים'
'▁magistratura'
'θέτουμε'
'网页'
'воспит'
'ого'
'aidh'
'▁puut'
'▁markt'
'SUUNNITELMA'
'듄'
'▁berxwedan'
'▁Catalunya'
'▁ΣΤΟ'
'▁problematiche'
'返済'
'érés'
'▁innrømme'
'ізація'
'▁рынку'
'▁nedeni'
'▁προς'
'▁هواپیما'
'▁ഉത്'
'▁presentació'
'▁доверие'
'▁större'
'▁Hora'
'▁संसाधन'
'зах'
'суди'
'▁Pad'
'bla'
'▁pengiriman'
'▁novým'
'跤'
'▁праша'
'طال'
'▁stel'
'▁bendruomenė'
'▁sdílet'
'▁používať'
'북'
'▁aula'
'▁എനിക്കു'
'ぺ'
'これまで'
'tingu'
'▁saņemt'
'▁asemel'
'▁материалдар'
'▁ropa'
'▁ļauj'
'▁있었다'
'▁स्नातक'
'▁ਲੁੱਟ'
'▁pejuang'
'tono'
'▁tvrtke'
'▁тил'
'▁പത്മ'
'ריס'
'▁Au'
'▁Hope'
'▁vanemate'
'▁చిత్ర'
'獲得'
'ovqat'
'▁neli'
'▁poskytnúť'
'▁шлях'
'▁അറിയ'
'▁Educación'
'▁репортаж'
'▁americani'
'ลิงค์'
'▁villa'
'▁Natuur'
'ulet'
'矛'
'റാം'
'▁Beş'
'เรียน'
'▁dəniz'
'forretning'
'房子'
'႐ို'
'▁काम'
'▁олімпіад'
'ខេ'
'▁додатно'
'▁최'
'्यः'
'標'
'▁نوع'
'▁കൊ'
'▁తల్లి'
'▁despacho'
'weight'
'▁نگار'
'ΠΟ'
'▁Shp'
'含有'
'▁हमारी'
'Звезд'
'▁Carol'
'▁իրականացնելու'
'AO'
'ۈم'
'▁zat'
'▁shpall'
'▁sərf'
'▁eleifend'
'▁καταστάσεις'
'▁பெண்ண'
'▁edilməsi'
'▁स्वास्थ्य'
'spezifische'
'▁Domenica'
'▁infants'
'▁କରାଯାଏ'
'▁έναρξη'
'▁도움'
'▁HỌC'
'▁dianjurkan'
'巡视'
'▁მოღვაწე'
'▁كەلگەن'
'▁somos'
'खण्ड'
'▁makro'
'▁фірм'
'▁typen'
'设定'
'▁न्यूनतम'
'蹲'
'▁нямецкі'
'darbi'
'▁стану'
'▁rendelkezik'
'▁رامنځته'
'trek'
'▁tại'
'kosa'
'▁bener'
'▁caffè'
'委屈'
'ેડ'
'чого'
'奕'
'afodd'
'▁মহা'
'▁ਸ਼ਕਤੀ'
'хали'
'▁concerto'
'▁vs'
'▁प्रिय'
'▁Zur'
'▁rekrut'
'▁калк'
'LEY'
'▁فرمود'
'▁bru'
'▁Facebook'
'▁sebab'
'▁ارت'
'廢'
'▁جيدة'
'▁tuttu'
'ぜひ'
'▁Revolution'
'ряжен'
'ેલું'
'▁ئىنسان'
'▁año'
'▁ස්ථානය'
'gelt'
'▁mehan'
'▁експрес'
'まったく'
'▁ഒന്നു'
'▁front'
'▁діл'
'маил'
'▁رها'
'ᴗ'
'▁paso'
'▁політику'
'effet'
'κοπή'
'▁απώλεια'
'菲律賓'
'▁مقدمات'
'▁regra'
'▁weekend'
'▁židovsk'
'▁Yine'
'-11-'
'▁посад'
'▁Drei'
'▁עורך'
'▁ühendust'
'▁dando'
'▁Ewropayê'
'▁возникновения'
'Роз'
'▁mãi'
'্যে'
'▁образовании'
'▁Faarax'
'▁memperjuangkan'
'殚'
'▁przygotowania'
'▁формула'
'ระบบ'
'▁Assembleia'
'▁uchaf'
'▁рэгістрацыі'
'▁чувствува'
'▁waar'
'cidit'
'▁ohjelma'
'▁епи'
'ဏ'
'▁ülkeler'
'హ'
'▁ارض'
'▁Majalisar'
'▁alanında'
'▁грамадства'
'ினால்'
'▁fossi'
'ٹنگ'
'▁berkuasa'
'גיא'
'พึง'
'▁პირობებში'
'▁mural'
'全台'
'哈佛'
'▁Maschinen'
'orang'
'▁τιμές'
'ány'
'视野'
'▁договорот'
'השקעות'
'▁ала'
'▁শেষে'
'▁farita'
'▁memproduksi'
'▁եզր'
'▁thuis'
'▁Əl'
'將'
'ix'
'▁pogreš'
'SSE'
'在全球'
'▁наменет'
'▁pjekur'
'とお'
'▁ھال'
'嘩'
'نۇ'
'椰'
'ক্ষা'
'▁składniki'
'▁ઘણી'
'هم'
'▁dingen'
'ۋا'
'dingen'
'ตรงข้าม'
'▁minūtes'
'▁सुभाष'
'เปรี้ยว'
'▁периода'
'▁weinig'
'▁տեսք'
'மன்'
'▁dl'
'▁سایت'
'▁ba'
'անքներ'
'ion'
'సి'
'▁drži'
'ดูหนัง'
'▁jongste'
'▁ٹاؤن'
'▁জরুরি'
'▁ਕੰਮ'
'ハイ'
'▁Via'
'▁अमित'
'▁провал'
'▁άνω'
'réttindi'
'▁pārtrauk'
'▁сегодняшний'
'▁ყველა'
'龌'
'Now'
'вя'
'ungan'
'▁obrigado'
'🍫'
'▁kampuni'
'▁venga'
'ijske'
'фоб'
'أغراض'
'▁بوس'
'惆'
'▁सौ'
'عج'
'▁සැල'
'▁väri'
'▁Ring'
'▁podróż'
'▁NCHINI'
'▁disposizioni'
'▁എഴുത'
'▁daitezke'
'▁เช่น'
'فضل'
'▁يوسف'
'loch'
'▁narys'
'▁mv'
'შვ'
'джи'
'▁пролет'
'▁registrar'
'▁шығындар'
'▁specifik'
'▁оплати'
'fašist'
'▁tēr'
'ളു'
'ाना'
'▁користење'
'▁qaabilsan'
'ণ্ড'
'REN'
'▁Gio'
'▁skifte'
'ेयर'
'▁Hehehe'
'▁sød'
'▁esperant'
'▁promocji'
'eejuures'
'▁2017-2018'
'▁Friday'
'прави'
'▁හැඳි'
'▁lời'
'▁сарадње'
'▁оригінальн'
'צרפת'
'▁namorado'
'▁tergolong'
'ρίν'
'▁concedi'
'▁talált'
'όρα'
'▁نگاه'
'▁Tampere'
'▁Gdańsk'
'vajanje'
'▁γενική'
'អាសយដ្ឋាន'
'▁métier'
'▁צורך'
'flutning'
'stanie'
'拆'
'ியது'
'学者'
'איחוד'
'▁boulot'
'▁하지만'
'▁vivere'
'παρα'
'ously'
'▁Heizung'
'▁bohatý'
'ໂຮມ'
'▁өдрөөс'
'ொரு'
'טע'
'▁ამის'
'ဟူ'
'▁præ'
'▁alakul'
'▁въпроси'
'OHJE'
'ꨁ'
'▁reševanje'
'▁taky'
'▁kwento'
'▁बहु'
'▁moeite'
'▁Febroary'
'▁тарап'
'พร้อมกัน'
'工作者'
'▁વિકલ્પ'
'wany'
'dziej'
'▁ຊາດ'
'▁garam'
'▁vyz'
'恕'
'நாள்'
'山區'
'멱'
'▁στοιχείο'
'機関'
'▁pangkat'
'▁szívesen'
'▁warm'
'▁Mikael'
'▁keluar'
'വെച്ച'
'▁устав'
'▁особливостей'
'vurdering'
'ходзяць'
'▁ህብረት'
'▁Museu'
'▁بيشتر'
'▁اشغال'
'▁שירות'
'▁статистик'
'眼镜'
'▁počasi'
'ចា'
'tetett'
'▁budžet'
'▁обърне'
'VP'
'▁неожиданно'
'▁Ուկրաինայի'
'جميع'
'▁tidak'
'▁ಈಗ'
'▁oprogramowania'
'▁sled'
'▁будем'
'▁rök'
'ācī'
'▁አለ።'
'▁تەكلىپ'
'▁berharga'
'▁especializada'
'▁phán'
'분석'
'▁اړیکه'
'▁እሁድ'
'▁lahir'
'禧'
'▁ดี'
'▁боја'
'ouche'
'续'
'▁pleť'
'▁Irina'
'안타'
'▁కాలేజీ'
'▁demokrati'
'っていない'
'▁آپ'
'▁միջոցառումներ'
'ገል'
'▁trolig'
'▁Bunlardan'
'▁uskalta'
'▁reunió'
'ბურ'
'▁ZAIDI'
'TÜ'
'▁реч'
'▁jedinečný'
'▁пережива'
'意识到'
'▁захід'
'▁Het'
'▁Учени'
'▁తరహా'
'▁orlofsleig'
'▁الج'
'▁prošlosti'
'▁रिश्ते'
'▁വിവിധ'
'▁Essential'
'ሰው'
'▁yliopisto'
'lietu'
'▁regiji'
'ฟื้นฟู'
'ビデオ'
'ரல்'
'▁ուսանողների'
'▁Anita'
'▁ਮਹਿ'
'▁ఒక్క'
'फ़ी'
'▁ulertzen'
'ですよ'
'▁Virtu'
'鈴'
'▁Isto'
'▁общественной'
'ушка'
'sona'
'▁haha'
'ទាំងអស់'
'نىڭ'
'▁chudai'
'▁기획'
'舞'
'▁tühja'
'公立'
'▁მცენარე'
'人'
'갑'
'ຊົມ'
'▁Ә'
'▁дүйнө'
'▁സർക്കാര'
'បេ'
'▁vardag'
'thin'
'▁װ'
'ft'
'βου'
'▁chiuso'
'▁මුණ'
'▁foran'
'▁đốt'
'▁người'
'▁thủ'
'▁percuma'
'▁көшесі'
'▁1.5'
'▁politi'
'▁افتد'
'▁vim'
'▁Неговата'
'▁स्पेशल'
'▁pidada'
'▁cardiovascular'
'لاشتۇرۇش'
'▁медици'
'CRA'
'▁pekerja'
'вшие'
'▁Xeber'
'▁Forever'
'ປະມານ'
'▁डे'
'▁යක්ෂ'
'媚'
'بہ'
'▁4.0'
'▁artiklar'
'アクション'
'Pre'
'▁έλεγχο'
'▁Singh'
'▁крал'
'▁(24'
'నాథ్'
'학기'
'▁Militär'
'▁malfermi'
'клик'
'ධර්ම'
'▁проговорил'
'▁forbedre'
'▁passando'
'아래와'
'▁אותם'
'\x92'
'▁ତା'
'▁Chỉ'
'ናዊ'
'▁יכולים'
'▁അവള്'
'おすすめ'
'得很'
'▁vaikutus'
'▁пачалі'
'▁Medium'
'컥'
'▁Στέ'
'▁короле'
'▁Ն'
'▁šiol'
'āḥ'
'▁Rif'
'工廠'
'▁Могу'
'Журнал'
'unuzu'
'▁մեղադրանք'
'▁sofa'
'▁සටන්'
'▁آگیا'
'స్థానం'
'▁közöl'
'រដ្ឋមន្រ្តី'
'ferenc'
'▁μικρές'
'imiz'
'▁ყ'
'▁bishii'
'担当'
'▁kasutatud'
'▁συμβ'
'▁vereinbaren'
'▁vinh'
'▁wall'
'▁vises'
'▁entlang'
'▁روشنی'
'禅'
'▁operaciones'
'toj'
'▁дыя'
'okkal'
'▁יחסית'
'▁ditutup'
'▁Mazingira'
'positivo'
'▁pohjalta'
'▁הבעיה'
'געלייגט'
'▁davant'
'▁Kedves'
'▁додава'
'▁მათი'
'წავ'
'▁Pakistan'
'▁věcí'
'ಯನ್ನು'
'▁Bate'
'ウム'
'某个'
'▁없음'
'полі'
'薹'
'的東西'
'ភ្លៀង'
'▁Marathi'
'슷'
'▁nuestros'
'前所未有的'
'▁pleasant'
'ارية'
'zan'
'▁tänker'
'ؾ'
'ອ່ານ'
'▁Eksekutif'
'▁আমি'
'實'
'▁2018)'
'▁ontvangen'
'▁ጉዞ'
'архитектур'
'▁родитељ'
'✫'
'ահայտ'
'▁азаматтар'
'nego'
'▁qilindi'
'ديمقراطية'
'ಗಾಗಿ'
'老鼠'
'aalaha'
'▁зробив'
'▁FRANC'
'တူ'
'605'
'עַ'
'▁arogan'
'▁ተብለው'
'▁kenyér'
'ଦାର'
'изма'
'▁зарцуул'
'▁اظہار'
'▁vähi'
'▁ضلعو'
'▁স্টাইল'
'▁කාර්යාලය'
'sť'
'atie'
'jual'
'月中旬'
'인가'
'▁хүрээнд'
'▁όλοι'
'brik'
'ว่ามี'
'აო'
'本地'
'kiekko'
'▁Legge'
'▁amo'
'ম্প'
'▁hôtel'
'শীল'
'▁rejäl'
'或是'
'▁Sot'
'▁ရှိ'
'打击'
'▁Granada'
'▁අවධාරණය'
'▁знања'
'▁Peshku'
'ējiem'
'ន្'
'▁साहित्य'
'抗'
'stov'
'ახალი'
'ДЕР'
'▁እንዲ'
'▁денови'
'▁sisaldu'
'▁sait'
'ኦ'
'สป'
'опол'
'▁nivå'
'▁his'
'서는'
'▁ఇక'
'▁gawa'
'▁Button'
'日本で'
'▁177'
'▁పట్టు'
'▁გრი'
'把'
'▁बड़ी'
'あと'
'ほど'
'▁мэдээллийг'
'▁потребе'
'▁mú'
'โดยใช้'
'▁трёх'
'ΣΤΑ'
'▁tantas'
'▁Симптоми'
'▁Mensch'
'▁Ошондуктан'
'▁Беларусь'
'ttää'
'போது'
'▁Мос'
'▁laboratorium'
'▁przyszłość'
'▁अंतरराष्ट्रीय'
'魁'
'▁каз'
'▁pagalbos'
'などは'
'지않'
'▁ಸಿನಿಮಾ'
'▁kábel'
'තිස්ස'
'▁sorter'
'ક્'
'verta'
'ΙΕΣ'
'▁Əhalinin'
'VİDEO'
'kja'
'▁되고'
'▁අත්දැකීම්'
'竖'
'ვნებ'
'នេះ។'
'▁پاڪستان'
'ético'
'ml'
'▁נחמד'
'▁consecu'
'▁ജീവിതം'
'ίτη'
'▁مہم'
'▁парите'
'▁objavi'
'▁Anto'
'uvi'
'▁caused'
'▁dana'
'▁அடையாள'
'▁müddəti'
'▁சாதாரண'
'▁banjir'
'á'
'▁planifica'
'õl'
'▁арасындағы'
'лека'
'▁Pinterest'
'▁цркви'
'▁vast'
'▁després'
'▁Chatroulette'
'▁बिल'
'สงขลา'
'▁ভালো'
'cık'
'▁نجات'
'cynnau'
'VET'
'▁wa'
'支部'
'▁morate'
'▁too'
'цэ'
'▁funkcjonowania'
'új'
'下次'
'▁valstu'
'▁kaal'
'▁મી'
'▁පන්දු'
'市の'
'▁ಹಿನ್ನೆಲೆಯಲ್ಲಿ'
'除'
'▁assim'
'smijeh'
'▁Reich'
'▁Undervisning'
'夺冠'
'▁rekao'
'▁басма'
'▁alþjóðleg'
'angarap'
'▁creste'
'▁Kana'
'ிருக்க'
'▁lëviz'
'kecuali'
'▁Will'
'▁Jennifer'
'▁рол'
'СВ'
'▁దు'
'▁সমস্ত'
'▁ипотеки'
'▁ch'
'▁título'
'▁časom'
'医院'
'▁βασικά'
'rizo'
'▁зголемување'
'耋'
'TAN'
'▁سياح'
'vrij'
'▁teisę'
'**'
'▁Layout'
'▁chorób'
'▁winst'
'เทศ'
'▁அழகு'
'jou'
'▁दर्जन'
'▁fugit'
'МИА'
'▁پرتله'
'▁ஜூன்'
'▁kampanya'
'▁ಸಂದರ್ಭದಲ್ಲಿ'
'招募'
'▁nagrad'
'▁metà'
'▁פּאַ'
'МП'
'۪'
'▁ake'
'▁називається'
'ილი'
'▁ຂ'
'009'
'▁ενημέρωσης'
'▁Tanggal'
'▁opatření'
'▁மாற்ற'
'ngga'
'▁కొత్త'
'區域'
'▁iritzi'
'▁నేను'
'▁zichzelf'
'▁ધર્મ'
'▁музиката'
'▁dastuurka'
'由此'
'cles'
'гол'
'▁1910'
'▁ampliar'
'▁Hum'
'kių'
'قاد'
'effectue'
'Het'
'▁formát'
'▁datorren'
'▁පමන'
'αλλά'
'▁Kors'
'▁తిరుగు'
'έρχεται'
'eiden'
'▁தரும்'
'▁embætti'
'▁שפּיל'
'utu'
'όντι'
'▁способов'
'▁թողարկ'
'▁massage'
'▁ademáis'
'관'
'▁উপজেলা'
'応'
'金正恩'
'สื่อ'
'▁انتظامی'
'▁සියලු'
'ñado'
'▁sankt'
'▁věku'
'▁lagunak'
'ılacağı'
'▁Mot'
'▁Гэвч'
'ڙيون'
'▁হলেও'
'▁koncentrál'
'▁तिनीहरू'
'▁lärare'
'ësojnë'
'可能な'
'▁құзырет'
'▁prosjektet'
'▁norway'
'▁දේශපාලනය'
'▁ср'
'▁kosmētika'
'▁alhora'
'గొండ'
'섯'
'▁असल्या'
'解消'
'puls'
'▁Tárgy'
'▁mwynhau'
'kovou'
'▁Război'
'▁ημέρες'
'seirbhís'
'▁klasik'
'titel'
'▁Fredrikstad'
'ፈረንሳይ'
'慑'
'ична'
'▁vsak'
'дол'
'▁වී'
'导'
'▁doku'
'▁Česko'
'▁elleni'
'авала'
'๕'
'▁Изложба'
'▁kì'
'പ്പെട്ടത്'
'告白'
'▁permission'
'▁πού'
'ääri'
'▁fanúšik'
'▁toegestaan'
'ၴ'
'▁month'
'ସି'
'▁jornada'
'▁Doma'
'▁შეხვედრა'
'কুর'
'зії'
'▁Selangor'
'▁eläin'
'▁مسئلہ'
'▁saadaan'
'盐'
'▁Пла'
'алык'
'▁dậy'
'▁స్వామి'
'▁ತು'
'▁podobe'
'დია'
'▁дзецьмі'
'▁перейти'
'▁İdarəsi'
'▁ಅಧ್ಯಯನ'
'开启'
'▁kohteessa'
'▁aslında'
'▁skomplikowan'
'▁хок'
'▁бардыгы'
'ផ្សាយ'
'▁מושלמת'
'▁صدم'
'▁จัด'
'▁ಮರ'
'▁말했다'
'▁pihak'
'▁podmiot'
'▁çand'
'▁స్థాయిలో'
'bl'
'院长'
'▁арман'
'▁جس'
'▁rõõm'
'▁министрлігі'
'၈'
'케이스'
'▁sladkor'
'996'
'▁ብዛት'
'ിലൊന്ന'
'ถือว่าเป็น'
'▁ساماندهی'
'▁spokojnie'
'▁اجل'
'▁добавлен'
'▁Bom'
'▁rendelkezés'
'▁Infatti'
'麻煩'
'پا'
'▁சுற்றி'
'ائد'
'▁iyada'
'▁زياد'
'guen'
'▁flutur'
'游览'
'▁Duitse'
'▁yönetimi'
'Oh'
'鞅'
'лар'
'▁בזמן'
'ть'
'ଗ'
'▁úprav'
'▁barco'
'▁voorraad'
'ЦЕН'
'▁Sür'
'拯'
'умду'
'▁నియమ'
'▁Statele'
'▁गर्नुभएको'
'валі'
'▁connessione'
'▁Fur'
'▁ਮਰਦ'
'▁per'
'▁qədər'
'▁డాలర్'
'▁восемь'
'ァ'
'аттык'
'▁Shtëpi'
'▁áhugaverð'
'🐝'
'ោក'
'лната'
'يەنى'
'ोत्'
'▁reikalavimus'
'GAM'
'▁pasauli'
'700'
'▁وان'
'吵'
'▁wziąć'
'▁Oikea'
'mobiliar'
'▉'
'▁rhif'
'▁छोट्या'
'.”'
'▁burger'
'▁lietuviška'
'▁پاسي'
'АГА'
'▁huu'
'提供的'
'▁Tempat'
'▁maf'
'▁hittills'
'អូស្ត្រាលី'
'▁Rut'
'▁شڪ'
'လႊတ္'
'▁insist'
'▁mujer'
'▁പറ'
'ruth'
'ssaan'
'▁ساحل'
'慵'
'▁ผ'
'▁einem'
'lisa'
'▁проблеме'
'▁२०१२'
'▁belediye'
'īšu'
'희'
'्ला'
'▁ort'
'▁дозволяється'
'ப்பள்ளி'
'▁compartir'
'▁Jedyn'
'ေက်းဇူး'
'▁pilt'
'▁Володимир'
'▁fiyatı'
'鏜'
'▁ostalo'
'▁त्याची'
'ਗੁਰ'
'▁Διεθνή'
'▁νησιού'
'sendt'
'▁órától'
'▁dispozici'
'▁súťaž'
'示'
'刊登'
'▁құрал'
'▁emotion'
'rock'
'ශ්'
'▁Qurban'
'ramos'
'▁տվեց'
'▁практиці'
'▁اٹھ'
'▁спросил'
'увани'
'mbuk'
'▁oraşului'
'▁कई'
'▁اثاث'
'▁hatırlat'
'▁위협'
'ប៉ា'
'▁bedre'
'ваг'
'▁ქართულად'
'▁돈'
'ታል፡፡'
'▁xul'
'▁अद्भुत'
'▁शर्मा'
'▁উদ্ধার'
'▁társadalmi'
'▁zespołu'
'▁innholdet'
'▁останат'
'▁പ്രകാരം'
'▁selskapet'
'▁ילדי'
'▁rrjet'
'▁Pagka'
'▁väz'
'tory'
'▁betragte'
'▁αμ'
'曲'
'▁пазара'
'になる'
'יסה'
'檢驗'
'▁ekonom'
'一辈子'
'arii'
'霞'
'▁tyto'
'▁ambaye'
'▁gá'
'▁Kamal'
'▁foregår'
'▁verschillende'
'▁పూర్త'
'Bo'
'angebote'
'▁બીજું'
'▁Түүний'
'▁рамка'
'▁utomhus'
'代价'
'いきます'
'▁јун'
'মার'
'▁బొమ్మ'
'珐'
'▁సమీక్ష'
'▁Voices'
'ຶ'
'勇気'
'▁općine'
'▁səsləndir'
'▁نتنياهو'
'洽詢'
'ອັງກິດ'
'▁υπερβολικ'
'▁చేతిలో'
'▁نرخ'
'aireacht'
'皱'
'bebyggelse'
'лэл'
'デメリット'
'有些人'
'ήσετε'
'trafik'
'HIN'
'▁cuisine'
'▁Bad'
'▁matrimonio'
'vuotiaa'
'▁romanzo'
'ുകളുടെ'
'▁profesor'
'▁కాదు'
'供應'
'បទល្មើស'
'▁ሲ'
'▁overigens'
'▁ограниче'
'▁Đổi'
'▁apie'
'acji'
'▁hatramin'
'▁भए'
'▁Patre'
'▁Santos'
'▁שזה'
'▁suivant'
'isu'
'▁pomaga'
'чето'
'ቀጠለ'
'mű'
'▁представяне'
'ของผม'
'وژ'
'▁мәслихат'
'▁շարունակվում'
'løp'
'កំពុង'
'معلومات'
'▁μεγάλες'
'▁Rossi'
'▁రాజ'
'▁MAI'
'▁Només'
'▁kvinnen'
'参考にして'
'▁දිනය'
'▁győzelm'
'laigh'
'▁siz'
'▁колеги'
'พรรค'
'▁selber'
'ทะเล'
'વાનો'
'עזרה'
'▁funkció'
'્ન'
'gondozás'
'ႅ'
'😖'
'▁zmieni'
'4,9'
'kimi'
'جور'
'▁скулптур'
'கு'
'▁Эр'
'435'
'▁partout'
'▁وینا'
'cake'
'▁նախատեսված'
'▁masala'
'▁Raymond'
'követ'
'▁Celtic'
'泸'
'▁banko'
'第八'
'滴'
'▁Zhvillim'
'રૂ'
'▁он'
'yorlar'
'ြဲ'
'devu'
'不高'
'▁komu'
'▁نار'
'▁договори'
'▁засобу'
'ταξη'
'ਵਾਲ'
'▁жандар'
'▁ואילו'
'▁хуульд'
'▁αντι'
'んでいる'
'▁lenta'
'▁αγ'
'▁usuaris'
'▁성능'
'▁doonaa'
'▁צפוי'
'▁qonaq'
'▁الحرب'
'mä'
'भिः'
'▁Uygulama'
'▁مشغول'
'▁पठाए'
'鉅'
'▁predsjed'
'වීමක්'
'▁повик'
'▁takýchto'
'▁kanthi'
'▁دولتی'
'uri'
'ستا'
'НН'
'ႌ'
'▁политических'
'tamiseen'
'MÉNY'
'▁Társaság'
'▁상황이'
'עיתונאי'
'મા'
'▁минуты'
'▁Usaha'
'нога'
'occupation'
'▁loita'
'垂'
'ৈ'
'▁imzalayıb'
'基本'
'▁Hår'
'▁차이'
'▁сладко'
'吆'
'▁норми'
'▁auxílio'
'▁хвилин'
'▁iyunun'
'也有'
'▁שנות'
'▁ўзаема'
'ᤰ'
'▁건조'
'▁nhiêu'
'藜'
'Tre'
'▁християн'
'вед'
'▁הטובה'
'▁bostads'
'▁potest'
'يزه'
'▁numerose'
'crimina'
'▁κόσμος'
'이드'
'extérieur'
'して'
'▁špeciáln'
'▁распоред'
'▁verdadera'
'▁produeix'
'▁europski'
'▁هیوادونو'
'▁Siyaasad'
'▁أخذ'
'▁greit'
'▁Ziele'
'▁trvá'
'▁հարաբերություն'
'できるだけ'
'▁સત્તા'
'▁dziennie'
'ศุภ'
'▁чиглэлийн'
'нікамі'
'▁তেমন'
'▁Київської'
'物件'
'▁הבוקר'
'نظر'
'oitus'
'פח'
'ገና'
'▁coopera'
'▁aviso'
'▁säästä'
'▁મોટો'
'▁Konfrans'
'સર'
'▁Pure'
'▁వర్గం'
'▁ಸಲ್ಲಿಸಿದ'
'va'
'ออน'
'▁покушај'
'СКО'
'เง'
'▁робіт'
'▁surpreende'
'▁توافق'
'нц'
'▁ହୁଏ'
'▁così'
'пу'
'▁destê'
'filter'
'दन्त'
'țiile'
'แจ้ง'
'▁ലക്ഷ്യ'
'▁одежду'
'▁pec'
'▁assuré'
'▁according'
'၆'
'潦'
'▁भएपनि'
'jev'
'▁نړيوال'
'新北'
'▁ثاقب'
'▁Jugoslavije'
'▁கூறிய'
'стори'
'▁온라인'
'▁kiên'
'▁tvil'
'Міс'
'▁upp'
'▁собак'
'▁التاريخ'
'▁স্বামী'
'▁пак'
'▁03.'
'▁గత'
'▁plač'
'の関係'
'ディング'
'も'
'▁प्रमाण'
'▁Теодор'
'▁technolog'
'byte'
'stenen'
'▁органдардың'
'▁Zem'
'▁оставил'
'▁کارکرد'
'▁دفاتر'
'▁FBiH'
'raw'
'▁решили'
'ທີ່ສຸດ'
'рим'
'▁olemaan'
'頜'
'ਪਤ'
'▁छनौट'
'▁ਹੇਠ'
'▁စာမျက်နှာကို'
'VOL'
'▁Uhuru'
'▁ଶରୀର'
'▁kdo'
'मास'
'▁ዳዊት'
'落实'
'▁Zajęci'
'▁मो'
'sögu'
'チャー'
'kapi'
'صلى'
'ewî'
'▁የተሻለ'
'▁Töl'
'แจ่ม'
'你知道'
'▁þróun'
'KÖ'
'▁162'
'▁लक्षात'
'▁kuigi'
'ബേ'
'cznik'
'տանի'
'▁allem'
'ация'
'нис'
'▁قبرستان'
'▁סיפר'
'евдин'
'▁تری'
'▁Unterschied'
'▁sposobów'
'այ'
'▁የፖለቲካ'
'▁باقی'
'▁trova'
'teiro'
'▁число'
'▁कमरे'
'▁असेल'
'▁გარკვეული'
'kezelő'
'空中'
'2022'
'▁звезд'
'רע'
'▁facilmente'
'vou'
'nkonzo'
'▁uspio'
'гл'
'各个'
'▁കൃഷി'
'kuja'
'▁Hunde'
'食品安全'
'▁khí'
'▁yurtdışı'
'παρατηρ'
'▁hvaða'
'ເຮືອ'
'いか'
'წმენდ'
'▁Bho'
'▁Clare'
'▁человеку'
'드로'
'▁ngay'
'▁pedepse'
'ouvrir'
'▁nunc'
'▁პოსტ'
'▁වුනත්'
'创造了'
'▁dyrke'
'تري'
'▁можна'
'೨೦೦'
'▁zajedničko'
'▁enllà'
'▁све'
'ándole'
'▁фудбалер'
'▁bidalketa'
'煤機廠'
'▁activ'
'▁Takalon'
'ném'
'lardır'
'kling'
'ឈរ'
'tanto'
'莳'
'▁да'
'▁ně'
'рэдагаваць'
'▁Qərar'
'▁ዐ'
'딥'
'▁spend'
'▁skulptur'
'ুজ্জামান'
'▁Nunc'
'▁ልክ'
'viamo'
'▁wyraźn'
'▁>>>'
'一刻'
'時光'
'▁шкаф'
'faz'
'magazin'
'kao'
'▁појас'
'数は'
'ком'
'▁вакцин'
'痹'
'耐'
'▁προγραμματ'
'▁میلادی'
'788'
'▁អ្នក'
'ေရွာင္'
'चरण'
'npr'
'▁Proje'
'および'
'ແລະ'
'▁oczy'
'ura'
'FET'
'▁Pregnancy'
'kbps'
'kus'
'▁ਰਹਿ'
'▁einzige'
'▁әлі'
'beck'
'说是'
'hout'
'▁sakamakon'
'\uf07d'
'▁είστε'
'area'
'lerinden'
'▁innego'
'▁વધ'
'ტები'
'▁ਕੈਪਟਨ'
'cp'
'gesellschaftlich'
'▁мреже'
'▁споров'
'▁presidendi'
'▁testing'
'▁kërcënim'
'▁Өзү'
'▁KWA'
'պրո'
'▁dễ'
'šća'
'ък'
'▁રાજસ્થાન'
'▁bihurtu'
'▁Bazı'
'▁государственных'
'▁bancaria'
'▁Vanessa'
'\uf0ac'
'▁подорож'
'▁ufor'
'▁calling'
'▁elector'
'huur'
'標題'
'ive'
'漫畫'
'▁πιστ'
'▁Zespół'
'▁Qeverisë'
'▁behandlingen'
'▁মাত্রা'
'ацији'
'Twitter'
'рства'
'طو'
'캘'
'▁છુ'
'▁महादेव'
'▁банальн'
'▁poesia'
'▁لديه'
'нському'
'ร้านค้า'
'▁konsep'
'第二天'
'ประ'
'▁соответствующей'
'நிலை'
'▁레이'
'bestand'
'▁berkualitas'
'▁výstrek'
'▁alma'
'僭'
'▁produsul'
'近く'
'ですね'
'▁Llyfrgell'
'ນ້ໍາ'
'▁plāno'
'peti'
'▁ڏڪار'
'bidea'
'stände'
'呐'
'▁26'
'▁дапамагчы'
'štvu'
'目的地'
'למת'
'▁Kazan'
'▁Abraham'
'▁сміття'
'2,3'
'drom'
'▁தேவ'
'▁шешім'
'蘭'
'\ue74c'
'▁dimensi'
'▁zwaar'
'▁سنا'
'驱动'
'▁Жеке'
'يىل'
'▁Danmarks'
'▁vidieť'
'▁secundaria'
'લ'
'itás'
'веч'
'▁नाका'
'ქალაქ'
'▁რუსულ'
'▁dikerjakan'
'▁suum'
'▁політика'
'▁обследован'
'▁skön'
'▁للا'
'▁score'
'▁Ent'
'帳'
'▁þú'
'▁والم'
'ɵ'
'▁forbruger'
'▁לפי'
'мэйл'
'UAL'
'を開催'
'还会'
'ұл'
'▁poruch'
'▁consenso'
'뽑'
'▁기억'
'▁кастрычніка'
'▁Punto'
'▁jättä'
'▁ვართ'
'▁TAIFA'
'▁полезна'
'ುತ್ತಿದ್ದರು'
'なぜ'
'▁Eorpach'
'▁თბილისის'
'▁toimet'
'▁Engine'
'▁അന്ന'
'ぉ'
'▁సో'
'▁kävi'
'▁پائی'
'▁Према'
'прес'
'▁ئىس'
'정도'
'▁Dominum'
'▁przedsiębiorców'
'▁(2017)'
'▁ceturtdien'
'▁Παρά'
'▁Australia'
'▁suo'
'▁cerebral'
'▁potencjał'
'▁paradis'
'▁принуди'
'▁pitanje'
'▁بلیط'
'▁stroški'
'ZI'
'ల్ల'
'euro'
'▁පනත'
'ліна'
'▁αδια'
'▁ፍቅር'
'▁održat'
'▁воздействие'
'▁κομμάτια'
'▁Lartë'
'អង់គ្លេស'
'▁Poslan'
'եւոր'
'▁పుట్ట'
'▁Bedste'
'▁Europa'
'▁hektar'
'▁गरिन्छ'
'▁מדוע'
'▁pig'
'▁Mohl'
'澹'
'▁তৈরি'
'▁अष्ट्रेलिया'
'▁Downtown'
'χων'
'쐈'
'▁очи'
'有时'
'▁કોલેજ'
'доволна'
'▁Lajos'
'▁keadilan'
'핑'
'▁kombinaciji'
'таж'
'▁महसूस'
'umbu'
'▁bau'
'ரிய'
'слав'
'▁Szabad'
'%。'
'▁Özellikle'
'▁тоқта'
'▁flygtninge'
'▁Laba'
'買い'
'▁cest'
'▁tkiv'
'▁مایع'
'▁ডিজাইন'
'を書いて'
'▁persönlichen'
'központ'
'▁ittiham'
'lodd'
'▁инте'
'▁இடம்'
'үн'
'nță'
'mayı'
'❊'
'▁հարմար'
'▁zakłada'
'▁먹을'
'▁хэрэггүй'
'ტების'
'ខ្លះ'
'kám'
'▁obu'
'▁одобрен'
'▁direla'
'▁letters'
'embunyikan'
'փախ'
'▁geen'
'serva'
'▁nacist'
'izate'
'▁mendon'
'▁consacra'
'▁mengatasi'
'kii'
'kkaa'
'▁inside'
'▁പൃഥ്വി'
'▁வீட்டில்'
'▁Diemžēl'
'▁officium'
'озбиљн'
'✿'
'ដំណឹង'
'▁prorektor'
'▁blogger'
'▁kieli'
'▁наводно'
'▁živil'
'▁detaylı'
'▁Mengobati'
'▁ගණනක්'
'という意味'
'▁Scoil'
'▁толугу'
'കി'
'▁kevään'
'▁astu'
'▁விழுந்த'
'▁шөнө'
'▁wyższe'
'ვეს'
'▁Qərb'
'რა'
'勇'
'▁الأع'
'▁Back'
'▁لگی'
'▁మూల'
'▁fékk'
'▁capri'
'shin'
'実験'
'▁твои'
'▁wunderbar'
'▁مجالس'
'▁ఆరోపణలు'
'▁jegyzőkönyv'
'द्वितीय'
'▁dogodek'
'▁останува'
'tibor'
'ഞ്ചി'
'▁Κά'
'▁дізна'
'▁ਪੁੱਛ'
'▁meninjau'
'ベース'
'▁ئىقتىدارى'
'▁அறிவ'
'LU'
'▁twitter'
'▁абмежава'
'▁Pemerintah'
'▁ontwikkel'
'ऽ'
'▁ateityje'
'▁böcker'
'dell'
'的身影'
'▁malikdir'
'lca'
'T'
'佔'
'▁24'
'גוד'
'▁linda'
'▁Centrul'
'▁tanssi'
'▁Antworten'
'ીય'
'ႀကိမ္'
'دە'
'løse'
'क्या'
'▁komponist'
'玆'
'راك'
'▁भाडा'
'▁znajduje'
'വര'
'▁Chili'
'▁Второ'
'▁evenemang'
'▁مطالعه'
'▁düymələrini'
'ىمىزنى'
'▁لان'
'▁mevsim'
'▁보장'
'▁ಕೈತೋಟ'
'▁песник'
'▁Perspektive'
'되었으며'
'▁УКМК'
'뮬'
'▁Gross'
'лучення'
'🙅'
'▁nemažai'
'▁edirik'
'▁tehnik'
'ตลอดเวลา'
'tay'
'▁მაჩვენე'
'▁хвост'
'ՐԴ'
'గిరి'
'閆'
'▁kullanılması'
'▁khích'
'▁gul'
'▁האו'
'548'
'ుచు'
'▁మూడు'
'EGU'
'▁država'
'ສົມ'
'▁fuqi'
'▁áirithe'
'kendt'
'▁chằm'
'ದೋ'
'▁can'
'▁foloseste'
'▁vægt'
'▁אינה'
'▁slapukų'
'тары'
'dov'
'▁Ка'
'▁വിവാഹം'
'▁lasta'
'▁informe'
'BOOK'
'▁теж'
'णे'
'րա'
'前後'
'മയ'
'▁ما'
'▁sebelah'
'lüğünü'
'▁ශිල්පී'
'▁gospodarstvo'
'▁utk'
'▁Intézet'
'負債'
'▁quyển'
'▁šablon'
'▁ligeledes'
'▁ಪ್ರಾ'
'▁står'
'تعبئة'
'▁ahogy'
'▁réseaux'
'▁업그레이드'
'ब्ब'
'▁ዋናው'
'हरुलाई'
'▁leita'
'▁протест'
'▁проблем'
'▁African'
'▁öö'
'▁σημείωσε'
'رئيس'
'Spiel'
'转移'
'🍄'
'▁neza'
'我们'
'▁veg'
'▁belőle'
'臃'
'▁odam'
'▁rojan'
'▁ಪ'
'OSI'
'▁दिल'
'▁այսօրվա'
'▁בז'
'▁asılı'
'▁baseret'
'liidu'
'▁posebnim'
'▁Karácsony'
'則'
'▁קלי'
'▁alkoholu'
'▁elementum'
'ây'
'▁ڪندو'
'▁ත්'
'ႏွံ'
'ėja'
'▁ծնվել'
'▁nekateri'
'kooli'
'▁gauza'
'iskajā'
'▁burri'
'▁ওপর'
'▁schimbat'
'ไม่ได้'
'▁bezoeken'
'▁šajā'
'կետ'
'▁opposition'
'стату'
'▁virka'
'ювання'
'чылі'
'ají'
'шна'
'▁varfër'
'δ'
'▁victoire'
'▁Var'
'▁എൻ'
'ифицира'
'▁nabad'
'iški'
'ráðuneyti'
'▁հիմնադրամի'
'▁ಆಧಾರ್'
'药物'
'દેવ'
'௮'
'hoek'
'dry'
'▁carga'
'▁गट'
'heni'
'▁brain'
'jevo'
'▁ثقة'
'▁створити'
'▁갖춘'
'▁വിതരണം'
'▁رس'
'▁aquestes'
'کیا'
'▁pitanjima'
'辘'
'攝影'
'▁नियंत्रण'
'▁drogą'
'▁жасады'
'▁निम्त'
'جار'
'▁Gab'
'靼'
'కాల'
'ਭਾਵ'
'▁bakımı'
'▁bih'
'ブルー'
'▁Şurasının'
'▁դնել'
'▁مەدەنىي'
'▁Mes'
'മാക'
'IJA'
'plattform'
'図'
'▁företaget'
'変わり'
'▁gereksinim'
'驰'
'ელო'
'▁dhalinyarada'
'普遍'
'▁වටින'
'▁rregull'
'▁ক্যারিয়ার'
'依據'
'▁فريد'
'▁Ioan'
'▁Eskort'
'▁północ'
'▁ምክር'
'▁quattuor'
'kola'
'▁bazuar'
'ൿ'
'▁življenje'
'▁jinsi'
'▁शनिबार'
'▁فهذا'
'▁జగ'
'▁предотвратява'
'ଧନ'
'▁χαρακτήρα'
'▁عيسى'
'茅'
'린'
'surf'
'▁sõja'
'▁Οδηγ'
'аваць'
'▁wusste'
'LUK'
'อัน'
'మ'
'uze'
'🌙'
'▁وأ'
'▁စိတ္'
'▁ადამიანების'
'▁但'
'altre'
'▁జీవితంలో'
'ደረገ'
'▁Ig'
'▁underbara'
'ကျင့်'
'▁zonas'
'onde'
'▁საღამოს'
'▁Kā'
'▁propaga'
'▁고객센터'
'خروج'
'ல்ல'
'lagen'
'्क'
'историческо'
'▁Gabi'
'▁тұлғалар'
'▁문서'
'会不会'
'▁शब्दों'
'ǰ'
'▁közösségi'
'▁internetowy'
'มติ'
'➥'
'▁Основни'
'▁εγγραφή'
'๘'
'nê'
'▁중에'
'▁Зе'
'▁ბრენდ'
'▁mahkamah'
'▁Вядома'
'▁التحصیل'
'▁hüquq'
'▁способност'
'▁forskellig'
'lnej'
'▁silný'
'▁सीरीज'
'æder'
'sikt'
'yst'
'▁niezwykłe'
'чына'
'▁тұ'
'ସନ'
'▁Татьяна'
'▁ಪತ್ರಿಕೆ'
'▁beharreko'
'▁credit'
'▁ਆਧਾਰ'
'▁შოუ'
'▁වැඩි'
'ଏ'
'▁snow'
'human'
'айын'
'独特'
'ጋብቻ'
'▁snaaks'
'着物'
'📮'
'▁கோடி'
'婊'
'▁עליו'
'верз'
'lavo'
'შა'
'tyyny'
'▁ریال'
'▁Ministerio'
'▁hepsi'
'▁Ağrı'
'▁ATƏT'
'▁Украіны'
'ล'
'ھان'
'▁பாகம்'
'รี่'
'▁ಫೋಟೋ'
'▁wedstrijd'
'▁লি'
'▁aisce'
'▁મન'
'▁Recept'
'▁Teri'
'▁psykisk'
'▁prvky'
'▁ਗਿਣਤੀ'
'▁xabsi'
'▁Bericht'
'▁wykonana'
'oli'
'கையில்'
'▁الف'
'▁המס'
'▁пригод'
'▁казва'
'følge'
'学科'
'▁forklaring'
'▁alama'
'▁Tir'
'▁excepción'
'Գերմանիա'
'腆'
'▁വിശദ'
'ਸਲ'
'ஷன்'
'▁Пі'
'▁pek'
'ทุกวัน'
'க்களை'
'▁ലൈന്'
'zel'
'▁ପ୍ରଧାନମନ୍ତ୍ରୀ'
'▁پیچ'
'▁Yenicag'
'只要'
'▁двері'
'▁Huế'
'▁Avustralya'
'▁yolcu'
'roka'
'▁146'
'▁nákvæm'
'▁לפגוע'
'จริง'
'▁dor'
'▁કાર્ય'
'▁ach'
'▁imao'
'▁Rosalía'
'▁nutri'
'tawi'
'ζε'
'风景'
'ግጥ'
'▁бара'
'▁decora'
'عجب'
'מנות'
'akt'
'АДА'
'▁щастливи'
'▁بىزنىڭ'
'บิ'
'롯'
'ую'
'פשט'
'ക്രി'
'▁үмүт'
'ੲ'
'▁உட்'
'କରି'
'shoq'
'上記'
'▁soggetti'
'garri'
'ezés'
'▁būdam'
'Kommission'
'▁corespund'
'▁සංඛ්'
'▁olisi'
'▁saw'
'做出'
'😃'
'▁دلچسپی'
'ഞ്ച'
'▁કપ'
'▁входит'
'десет'
'▁Samarqand'
'▁Niko'
'▁୨୦୧୯'
'▁Ljubljane'
'▁прави'
'▁води'
'▁հայ'
'▁asia'
'▁فر'
'овски'
'▁namang'
'▁Mirov'
'をお探し'
'UD'
'▁প্রায়'
'teadvus'
'sá'
'▁Бұған'
'▁העמוד'
'iranje'
'▁narzeka'
'▁социал'
'▁более'
'▁sytuację'
'▁yapılan'
'מנחה'
'ろう'
'▁udført'
'አማራ'
'▁permanent'
'齣'
'▁zitzai'
'▁Өмір'
'▁12.00'
'กําลังมองหา'
'With'
'ことをおすすめします'
'▁partir'
'▁Juru'
'टिस'
'▁odobri'
'▁자극'
'▁saudara'
'▁įstatymų'
'正规'
'英超'
'▁bili'
'▁등을'
'▁treinador'
'tique'
'▁Фильм'
'▁útok'
'▁مڪمل'
'▁ພັກ'
'▁کبله'
'▁dteagmháil'
'▁κλινικ'
'▁확장'
'▁megáll'
'▁learned'
'▁številni'
'▁reven'
'▁மருத்துவம்'
'▁ٿو'
'קי'
'▁izin'
'▁puedes'
'▁Nisan'
'▁Влади'
'▁kaominina'
'zgar'
'すこと'
'▁بمناسبة'
'tutu'
'▁Jamhuri'
'inis'
'קניון'
'▁fasad'
'▁دیتا'
'▁kuul'
'▁đèn'
'▁prende'
'▁recherche'
'▁souhlas'
'▁বিতর্ক'
'▁الواحد'
'ಳ್ಳ'
'▁ducimus'
'▁komunist'
'nska'
'კერ'
'东方'
'を含め'
'▁일반적으로'
'▁යයි'
'▁comme'
'▁предо'
'▁બ'
'▁balla'
'▁ურთიერთობა'
'γά'
'▁Κύπρο'
'ποιες'
'▁ajira'
'▁звычайны'
'▁კე'
'▁omnem'
'ປະທານປະເທດ'
'▁bjarga'
'ിട്ടുണ്ടോ'
'యం'
'▁dveh'
'benduaren'
'▁Граф'
'▁resenärer'
'თუ'
'ናት'
'▁встретил'
'浏览器'
'rac'
'មន្រ្តី'
'נעל'
'acją'
'fa'
'▁учење'
'高等'
'▁Öncelikle'
'кога'
'▁naturligt'
'esi'
'▁ér'
'금리'
'▁պաշտոնական'
'jme'
'Tur'
'▁Ordin'
'ovine'
'▁diel'
'▁змяніць'
'▁lernejo'
'▁ತರ'
'▁now'
'arbeid'
'▁драгоцен'
'▁מנסה'
'▁ព្រម'
'▁legg'
'▁နောက်ထပ်'
'▁любов'
'skrá'
'▁omadus'
'▁რესპუბლიკ'
'▁همچنين'
'▁لوازم'
'уха'
'▁left'
'▁endavant'
'才可以'
'▁Swift'
'▁quiet'
'▁співпраці'
'▁execución'
'▁سالانه'
'▁чудес'
'VIII'
'▁idéer'
'▁Tervetuloa'
'噬'
'不多'
'▁Khởi'
'这家'
'កើតហេតុ'
'▁აღმოსავლეთ'
'▁સમગ્ર'
'▁лагер'
'वी'
'Bill'
'▁کردند'
'▁tehlike'
'▁развитието'
'▁patriot'
'▁నేటి'
'▁ಮಂಡಳಿ'
'▁λ'
'▁سرما'
'▁persevera'
'▁لاندې'
'▁sanitari'
'▁ott'
'▁Entwicklung'
'▁отвора'
'▁لوبو'
'▁студент'
'АРИ'
'▁நல'
'隐藏'
'▁रक्कम'
'▁היכולת'
'柺'
'었습니다'
'▁कशा'
'▁ជាមួយ'
'▁स्टार'
'▁गैर'
'징'
'▁잘못'
'▁Komisji'
'▁TAG'
'▁yaratmaq'
'▁Matthew'
'ಚಲ'
'▁Pär'
'▁gedrag'
'孀'
'▁privilege'
'▁đột'
'79)'
'▁ಕೋಟಿ'
'▁videó'
'▁primele'
'▁until'
'▁Visu'
'▁phpBB'
'▁niezbędn'
'೧೫'
'▁изделий'
'繙'
'▁hrozn'
'беспечен'
'▁لیڈر'
'▁rejestr'
'致力'
'▁objekta'
'▁អ្នកស្រី'
'मिट'
'▁ਦਿੰਦੇ'
'▁liko'
'▁bîr'
'လႊာ'
'强调'
'střed'
'▁veux'
'▁civakê'
'stämma'
'▁Giresun'
'▁מינוט'
'▁قويغان'
'прияти'
'ಂಟ'
'▁הצוות'
'좁'
'▁έγινε'
'กลับไป'
'頃'
'▁ਲੇਖ'
'얽'
'▁büyü'
'▁8)'
'▁dream'
'▁случва'
'ສຸ'
'NUM'
'▁Tarih'
'▁matbuot'
'▁послова'
'ങ്ങള'
'ës'
'╱'
'▁अलीकड'
'▁sijaitsee'
'됐다'
'▁മറ്റുള്ളവര'
'▁правоохоронни'
'▁הפוסט'
'해외'
'ērt'
'▁volk'
'▁dinh'
'▁چمتو'
'▁qısa'
'▁ត្រូវ'
'▁Hev'
'▁နောက်ဆုံး'
'▁ಪ್ರಯೋಗ'
'▁látsz'
'яться'
'▁خارجی'
'біт'
'▁γνωστή'
'▁Λ'
'▁සෑහෙන'
'▁resolution'
'▁Diaspor'
'ܐ'
'嬋'
'▁комунистичк'
'然后'
'ሉ'
'▁umýva'
'▁atendi'
'▁bestämt'
'▁იცის'
'▁জিজ্ঞাসা'
'달'
'▁flytja'
'▁procesul'
'财经'
'мобиль'
'▁Ekonom'
'▁प्रबन्ध'
'▁بولمىغان'
'வற்றை'
'vok'
'τρέ'
'డే'
'dhur'
'世界上最'
'▁радянськ'
'▁хянан'
'ierung'
'▁Dinsdag'
'▁Aap'
'በይ'
'▁Deg'
'▁günün'
'▁електронн'
'تىم'
'쫑'
'▁Xuân'
'▁الدورة'
'▁comerciais'
'▁Timur'
'▁увеличен'
'불교'
'▁զ'
'▁окуя'
'ಂದು'
'▁Хари'
'⌒'
'▁masyarakat'
'▁សិទ្ធិ'
'▁поједин'
'▁мото'
'▁реагира'
'vora'
'▁deep'
'▁חדשים'
'▁ለሚ'
'▁Αγίου'
'μένες'
'135'
'▁beneficio'
'▁øjeblikket'
'▁Ві'
'▁பாராட்டு'
'keş'
'ເປັນ'
'ρες'
'▁radu'
'▁zituen'
'▁mente'
'▁olvashat'
'▁означава'
'schule'
'▁дневник'
'▁penuh'
'▁900'
'alny'
'▁iš'
'আর'
'▁lietuvių'
'▁ئۇنداق'
'▁sequi'
'ország'
'▁arrivé'
'▁odată'
'▁գրանցման'
'496'
'വും'
'▁ബാങ്ക്'
'▁Mic'
'▁dybde'
'▁ប្រើ'
'verplichting'
'▁ca'
'▁hizmetleri'
'▁netværk'
'ೇಯ'
'LO'
'▁আগ'
'▁HAPA'
'liike'
'▁చూసిన'
'▁мор'
'ево'
'▁Glen'
'telt'
'▁rente'
'▁gjysmë'
'說話'
'▁kolektibo'
'▁viden'
'கொள்ளுங்கள்'
'ΑΝ'
'▁ನೋಟ'
'gumi'
'▁ಉತ್ಸವ'
'🚇'
'춘'
'ese'
'כז'
'▁lēmumu'
'uesve'
'▁бумаг'
'▁zeven'
'▁ჩვენი'
'▁irakurtzen'
'보다'
'▁альянс'
'▁വാർത്ത'
'▁аўтара'
'भू'
'▁цілісн'
'▁döş'
'▁kisha'
'gleda'
'የር'
'工作人員'
'▁കോളജ'
'蟬'
'szállító'
'訓練'
'▁Bundes'
'▁आएका'
'إمكانية'
'гээд'
'ग्रस्त'
'▁الجنسي'
'uu'
'▁emanaldia'
'▁Nhân'
'▁ночью'
'▁чест'
'κή'
'▁těším'
'▁tegas'
'▁nummer'
'▁korralik'
'だと思います'
'▁Next'
'▁निशान'
'▁Damer'
'പ്രഭ'
'▁मिळत'
'▁αντιδράσεις'
'▁болесни'
'▁Villar'
'чү'
'förmåga'
'▁σ'
'▁подання'
'▁Million'
'▁नवंबर'
'льнікам'
'▁celou'
'ゆっくり'
'▁yaklaşık'
'▁búin'
'sən'
'pension'
'▁ההת'
'מכונות'
'▁शीर्षकहरु'
'▁miejscowości'
'▁drap'
'ጂ'
'▁Nuair'
'stres'
'▁дисциплін'
'확'
'▁માર્ચ'
'▁ದಾರಿ'
'空'
'ไร่'
'гара'
'▁១'
'▁osaa'
'专利'
'▁nato'
'inek'
'وپ'
'▁informację'
'opter'
'LD'
'SHO'
'▁rehabilitación'
'▁Награда'
'▁එහෙත්'
'全家'
'▁հայտնվել'
'▁включає'
'墾丁'
'▁ўлада'
'▁చర్యలు'
'кваліфікаційн'
'paja'
'▁ھوقۇقى'
'▁qrupunun'
'▁cipta'
'▁Denizli'
'lazimik'
'▁Vrei'
'▁exhibi'
'▁thước'
'▁skor'
'arkiv'
'جين'
'▁temen'
'អាជ្ញាធរ'
'lopen'
'▁Ünvan'
'Κωνσταντινούπολη'
'ība'
'▁കുഴപ്പ'
'ဖမ်း'
'惴'
'游'
'▁nimet'
'╊'
'▁seua'
'▁travailler'
'▁нема'
'▁organism'
'▁smjer'
'ouverture'
'▁učinkovit'
'sın'
'4)'
'▁duyuyor'
'ämme'
'जिन'
'▁الخ'
'fattning'
'▁неправомерн'
'▁meiri'
'แตกต่างกัน'
'这位'
'纷'
'▁vanhempi'
'▁leto'
'▁खुश'
'RS'
'dırıb'
'▁پارلماني'
'gat'
'ినట్లు'
'▁पश्चात'
'▁સે'
'▁رە'
'operator'
'ącego'
'▁დემოკრატიულ'
'ોએ'
'ਨੁ'
'▁дейт'
'κρι'
'▁ຕໍ່'
'▁کارهای'
'וֹ'
'▁poet'
'ذریعہ'
'專題'
'▁აპრილს'
'▁accompli'
'▁Ly'
'▁آتی'
'▁arbeta'
'▁manifestation'
'tasunak'
'▁arkitektur'
'▁꿈'
'7,4'
'▁Dona'
'ચ'
'TOR'
'▁झालेल्या'
'ករ'
'ಬರ'
'▁боловсруулах'
'ವೂ'
'▁возраст'
'ሉ።'
'worth'
'ဖြစ်နေ'
'▁appare'
'ڑے'
'▁кариерата'
'ພາສີ'
'▁ಮನವಿ'
'ирајте'
'家に'
'▁duomenys'
'▁ویندوز'
'▁diálogo'
'▁Fox'
'▁starfsmenn'
'▁tijelo'
'▁Art'
'ism'
'▁иначе'
'▁пам'
'▁Ahli'
'وصي'
'▁priekšlikumu'
'рати'
'ՈՒԹՅՈՒՆ'
'▁Xesús'
'▁بزرگترین'
'▁sebagainya'
'▁కొనసాగ'
'ସ୍ୱ'
'▁низко'
'▁احیا'
'magi'
'▁मेहनत'
'▁Vilket'
'▁θέμα'
'▁asztal'
'MOMO'
'▁engleskom'
'▁situaţii'
'▁ئوتتۇرا'
'▁pastaj'
'▁comentarii'
'τρια'
'▁افغانانو'
'港口'
'▁debería'
'▁eska'
'ლოდ'
'▁құрылған'
'▁PELAJAR'
'ことが出来'
'▁pay'
'իստական'
'Shop'
'▁شاهه'
'▁poäng'
'ılmış'
'▁mørk'
'гласен'
'▁kuula'
'10%'
'▁cadde'
'▁جمل'
'ໄວ'
'กิ่ง'
'▁эм'
'▁Beteiligung'
'▁වෙනස්'
'検討'
'▁பிரிவு'
'▁konkurenci'
'Bol'
'▁titull'
'骰'
'ิต'
'جى'
'ITT'
'ино'
'▁pogovor'
'▁nạ'
'свід'
'▁մուտք'
'깽'
'▁mokyklų'
'▁трајно'
'▁ಬ'
'執'
'Ale'
'▁turistic'
'▁ألا'
'▁valideynlər'
'▁Mbrojtjes'
'ശ്ശ'
'pakai'
'ี่ยน'
'krist'
'raigh'
'▁begon'
'▁вашем'
'▁løbet'
'▁повторя'
'净利润'
'▁մայր'
'电视台'
'銹'
'സ്റ്റോ'
'VEZ'
'თქვა'
'▁ගෑ'
'各方面'
'▁Lī'
'▁democràtic'
'▁coidado'
'▁यसले'
'▁નેટવર્ક'
'▁Minyak'
'▁nen'
'▁امکانات'
'▁जिन'
'▁Youth'
'▁ప్రధాని'
'▁långsiktig'
'VAR'
'▁često'
'▁vlastne'
'▁Էդուարդ'
'▁mengapa'
'传达'
'▁ڪشمير'
'ОНА'
'▁indietro'
'▁literatura'
'▁സംഭാഷണ'
'чид'
'▁చిన్న'
'▁збір'
'充'
'forsamlingen'
'ㄝ'
'▁całą'
'▁rop'
'▁کرزي'
'▁wchodzi'
'ek'
'▁fiecarui'
'▁Utazás'
'充足'
'▁πνευματική'
'▁käytetty'
'ᆪ'
'▁органом'
'भुज'
'▁непосредствен'
'▁Tarybos'
'▁ෆොන්සේකා'
'▁creativa'
'▁දැක්'
'▁kasalliklar'
'اية'
'▁අමතක'
'▁भूल'
'如果有'
'▁povezane'
'ló'
'▁ස්ථාන'
'▁klid'
'強度'
'▁అనిపించింది'
'▁සාක්ෂි'
'▁ხილ'
'▁Olen'
'▁našu'
'▁sede'
'▁čovjek'
'▁vrei'
'▁matur'
'▁оқушылар'
'▁රයි'
'מס'
'法規'
'꽂'
'▁월'
'▁అధ్యక్షుడు'
'▁현대'
'▁ஏப்ரல்'
'quo'
'▁میز'
'▁મે'
'▁ortaya'
'jd'
'밑'
'実際に'
'tjies'
'▁enostavno'
'догу'
'半夜'
'ril'
'어르신'
'▁izvedbo'
'▁російського'
'▁Олон'
'ailleurs'
'soy'
'▁విని'
'proba'
'▁отговорност'
'utada'
'итись'
'效益'
'▁Province'
'maktayız'
'▁əleyhinə'
'Este'
'頰'
'좀'
'ધાર'
'▁nécessaires'
'لين'
'▁közép'
'▁Hub'
'▁පැමිණ'
'▁Mufti'
'▁кәсіпорындар'
'tif'
'名的'
'пить'
'▁públicos'
'▁tetszett'
'▁Федерації'
'واري'
'պոլի'
'▁בעצמו'
'🍒'
'ስማማ'
'lu'
'▁Viena'
'▁aipatu'
'▁repetir'
'▁մլրդ'
'▁ಮೂಲ'
'▁dirinya'
'▁Lauren'
'ені'
'ээсээ'
'▁rossz'
'žel'
'▁לראשונה'
'▁самыя'
'▁कैद'
'▁특수'
'▁Ruk'
'▁همکاران'
'▁(28'
'▁كثيرا'
'▁alguén'
'▁යෑම'
'▁campanya'
'▁stāvoklī'
'▁egitasmo'
'▁montaż'
'▁дейін'
'யிலும்'
'▁නැත්නම්'
'▁vesti'
'ψα'
'ตั้ง'
'▁иммунитет'
'ความต้องการ'
'verkosto'
'טאן'
'▁Башкы'
'몬'
'▁istismar'
'сель'
'▁pripravljen'
'▁príspevok'
'▁vitamina'
'posito'
'代表'
'セ'
'ลักษณะ'
'▁friendly'
'▁howlgal'
'▁чөлөөт'
'ліст'
'▁facía'
'▁ನೂತನ'
'▁લાંબા'
'▁zaangażowanie'
'▁kandidaat'
'ሺ'
'▁Pie'
'गीत'
'▁adresser'
'勢'
'▁stats'
'▁മതം'
'花费'
'▁cxiuj'
'▁resepti'
'▁Πρόγραμμα'
'غز'
'korv'
'\ue5f1'
'身心'
'▁Finanz'
'▁сацыяльны'
'▁البلاد'
'19)'
'lenebilir'
'▁Nokia'
'▁tudós'
'▁reten'
'▁toplo'
'▁mantemento'
'▁park'
'liwość'
'▁كنند'
'▁Лор'
'▁Беларус'
'美好'
'▁состојба'
'▁دیکھتے'
'▁ඇඳුම'
'▁પહેલા'
'▁Искам'
'पटक'
'▁මහත්තයා'
'▁äly'
'驱'
'悉尼'
'▁روپ'
'▁القتل'
'õpe'
'▁muzyczne'
'▁posebice'
'▁Црна'
'▁Քրի'
'をしていた'
'▁nødt'
'畴'
'77'
'▁touch'
'qaad'
'嚟'
'▁near'
'▁duniya'
'เมน'
'ага'
'▁Heil'
'▁желаете'
'▁sefer'
'▁பொது'
'றா'
'ធម្មតា'
'▁šių'
'▁ಶಿಕ್ಷಣ'
'۹'
'▁DM'
'▁জঙ্গি'
'▁SAV'
'မြင့်'
'सेवक'
'႒'
'を持っている'
'▁paragraph'
'စစ္ေဆး'
'相關的'
'яць'
'▁πραγματοποι'
'▁davolash'
'خدمة'
'されない'
'▁Koos'
'0.000.000'
'▁заштити'
'dden'
'▁நகைச்சுவை'
'те'
'▁feugiat'
'avfall'
'▁pendirian'
'▁aimé'
'▁какво'
'▁اطلاعات'
'▁അന്ന്'
'éard'
'каў'
'▁juurde'
'▁Aucun'
'▁mikono'
'▁društvene'
'▁прочетете'
'ड़'
'▁Միայն'
'▁tahaks'
'ட்ஸ்'
'医疗器械'
'▁abitu'
'ాలనే'
'ከፋፈ'
'perä'
'官员'
'▁үчүн'
'stica'
'▁резервоар'
'▁Dori'
'Est'
'▁Bunday'
'▁اسکا'
'▁xwarin'
'▁ម៉ោង'
'▁(27'
'ኢ'
'▁*****'
'ούδα'
'čený'
'▁öyle'
'▁miglioramento'
'ლენდ'
'▁tekem'
'▁zboží'
'▁údaje'
'snes'
'▁layar'
'▁गरेर'
'▁прыватна'
'▁հա'
'تجرب'
'▁bryd'
'ດິນ'
'३८'
'Amazon'
'▁упомина'
'ուց'
'▁charla'
'▁ajudar'
'▁후보'
'▁هغو'
'▁ہسپتال'
'tük'
'▁руху'
'國外'
'ຫມາກ'
'льская'
'地震'
'▁בוקר'
'▁Volta'
'称为'
'▁solidar'
'्दैन'
'▁kasva'
'▁atinge'
'ሦስት'
'▁искусства'
'▁sreče'
'派'
'ტურ'
'stol'
'▁சினிமா'
'▁पोह'
'▁।'
'ió'
'▁нивото'
'ZZA'
'▁İnsan'
'▁πλήρως'
'▁naroda'
'bunt'
'▁ରିପୋର୍ଟ'
'▁የቆየ'
'▁ਕੋਲ'
'▁napad'
'မ်ဳိး'
'▁prázdn'
'үүлэгч'
'ғыш'
'▁Terapi'
'▁جانب'
'长的'
'▁Baixa'
'▁Phantom'
'▁gasten'
'▁прагну'
'،'
'▁malam'
'▁ڪوبه'
'▁188'
'▁vết'
'▁darbas'
'80)'
'▁המקושרים'
'работки'
'▁нови'
'▁math'
'▁premis'
'▁Tivoli'
'▁fina'
'楊'
'▁کھلاڑی'
'▁Batzorde'
'▁Ysgrifennydd'
'كوك'
'နွစ္'
'▁pozitivno'
'▁berharap'
'▁TAMU'
'▁ยูไนเต็ด'
'▁fodbold'
'▁experiencias'
'▁memòria'
'χω'
'▁നിശ്ചയ'
'获'
'▁muu'
'queira'
'▁trattamenti'
'▁Bj'
'▁سطوح'
'никами'
'▁avgjørende'
'▁eĉ'
'▁لن'
'▁geboorte'
'▁merveille'
'7,5'
'▁Gratul'
'▁ден'
'c'
'楹'
'▁ვისაც'
'▁Знаете'
'▁śnieg'
'▁pridobil'
'▁szerinti'
'▁врх'
'tetty'
'ਪੰ'
'Menghilangkan'
'▁zerbitzu'
'ହେଲେ'
'▁Mengapa'
'▁itinutur'
'טאל'
'▁față'
'டை'
'▁Kocha'
'čem'
'▁Raza'
'Авто'
'▁helyzetben'
'▁performa'
'▁teve'
'▁navegació'
'▁الحال'
'▁следующей'
'▁glasbeni'
'▁docela'
'▁darbības'
'▁krajinách'
'▁jumlah'
'▁жүйесінің'
'සෙ'
'▁обем'
'▁ylös'
'▁întotdeauna'
'tajwa'
'滤'
'▁pokud'
'▁Sza'
'▁vurderinger'
'тивно'
'სამსახური'
'っち'
'มันส์'
'▁Τί'
'▁экология'
'▁gebeuren'
'▁тренутак'
'▁láska'
'▁இடம்பெற்ற'
'สวยงาม'
'詰'
'appel'
'άζ'
'▁اندروید'
'▁difesa'
'▁તેની'
'iziran'
'▁πέσει'
'වට'
'ນໍາໃຊ້'
'ъчен'
'▁υγεία'
'وک'
'▁enwedig'
'▁կառույցներ'
'▁אח'
'рыў'
'pressão'
'▁бастаған'
'▁одбрану'
'คอม'
'▁Ју'
'▁samo'
'▁വേണ്ട'
'细菌'
'像'
'ဖတ္'
'▁rivojlantirish'
'▁pakar'
'▁প্রকাশ'
'计算'
'ிருந்தது'
'ран'
'▁војске'
'▁dhowr'
'▁мужчины'
'▁সাত'
'iame'
'▁бръчки'
'యే'
'▁pneu'
'เพลิง'
'▁λέξεις'
'▁úti'
'▁ආශ්'
'නෑ'
'▁røde'
'▁கண்டு'
'ፈፀም'
'▁Sh'
'▁involved'
'▁sue'
'▁इक'
'▁Shampoo'
'▁possibilita'
'▁Dam'
'ಧಾರ'
'ຫນັກ'
'▁υγι'
'授予'
'zami'
'▁изврши'
'认知'
'▁şûn'
'▁Σε'
'▁vid'
'jut'
'第五'
'▁ಬಾರಿ'
'▁গিয়ে'
'▁doskonałe'
'▁ڏسي'
'▁ଜରୁରୀ'
'band'
'▁slovenske'
'▁ٻارن'
'vula'
'▁Jürgen'
'▁kyckling'
'zle'
'▁पुन्हा'
'▁Sail'
'▁szállítás'
'▁중국'
'đen'
'وا'
'▁cung'
'บี'
'▁ಪರಿಶೀಲಿಸ'
'▁Board'
'▁Araşdırma'
'▁profe'
'▁խաղեր'
'รายชื่อ'
'▁matagal'
'▁নির্বাচনের'
'▁ceann'
'lejší'
'▁کوریا'
'▁szak'
'▁Tjänste'
'▁могући'
'skí'
'▁een'
'훌'
'▁இருக்கிற'
'▁bhaint'
'▁Кои'
'▁закончил'
'phase'
'បង្ក្រាប'
'แต่ง'
'▁девојки'
'▁whisky'
'▁ಮರೆಯ'
'▁brukes'
'▁ularning'
'▁kicsi'
'▁desfăşura'
'▁محسوس'
'Ле'
'▁ဝေမျှ'
'▁દ્વારા'
'▁mesyuarat'
'▁아는'
'▁svår'
'▁auglýsi'
'ከት'
'▁Yerevan'
'▁Zahra'
'цкага'
'▁žiadne'
'steig'
'ிய'
'▁Sähkö'
'põllu'
'▁francès'
'contra'
'▁setia'
'▁كيلو'
'త్వ'
'翻譯'
'▁nêr'
'▁personalidade'
'▁имеющие'
'▁আসামি'
'▁никој'
'▁απαραίτητα'
'▁Im'
'▁Gaillimh'
'présent'
'▁חשבתי'
'љен'
'கொ'
'ກຽດ'
'▁nera'
'▁ketahui'
'▁Bakit'
'ມີການ'
'▁HIS'
'▁единиц'
'gesetzt'
'▁muncii'
'▁entweder'
'▁Komputer'
'▁autoridad'
'▁ডি'
'50,000'
'МВ'
'▁прелаз'
'साद'
'өнеркәсіп'
'рски'
'▁collezione'
'ជម្លោះ'
'▁ڏيکاري'
'▁නිවේදනය'
'836'
'首度'
'قوى'
'▁Bestandteil'
'thèque'
'▁Zul'
'▁apertura'
'▁palygin'
'县'
'therapy'
'▁felles'
'可能性がある'
'▁Vin'
'▁לחברת'
'▁megújul'
'▁vydrží'
'▁Não'
'အနုပညာ'
'▁نبود'
'▁ಮೌಲ್ಯ'
'▁берсе'
'독'
'▁ରାଜ'
'▁принято'
'لاس'
'սա'
'Più'
'ΩΣ'
'▁θέλω'
'၁၈'
'▁Ковал'
'▁cartel'
'▁bibli'
'ทะเบียน'
'klop'
'▁ಮಾಡಿಕೊಂಡ'
'▁୨୦୦'
'▁drama'
'5.5'
'审议'
'▁табылады'
'▁Нико'
'▁folgt'
'▁eventuali'
'▁wykonania'
'ഫ'
'中国共产党'
'▁कॉलेज'
'▁yeşil'
'婚紗'
'▁fácilmente'
'持续'
'▁aiški'
'璜'
'▁จากนั้น'
'▁입학'
'ૂ'
'änä'
'▁جنایت'
'▁الدول'
'ותיו'
'▁Bydd'
'▁stânga'
'▁frun'
'▁dieną'
'▁viera'
'وزير'
'វិធី'
'▁योग्यता'
'▁aniversario'
'▁באַ'
'▁այլն'
'黒'
'▁mzuri'
'▁0-2'
'▁praksis'
'▁עוד'
'ságát'
'▁ఆనంద'
'▁SMART'
'mortal'
'ೆಲ್ಲಾ'
'▁sastanak'
'▁पुग्यो'
'▁ਪੁ'
'ಾನಂದ'
'▁Индустри'
'▁although'
'▁סתם'
'▁erinevus'
'▁sömu'
'Ň'
'▁podía'
'вым'
'েস'
'▁bì'
'▁Belki'
'МЭ'
'年齡'
'өргө'
'▁позже'
'▁nich'
'▁എത്ത'
'▁چڪو'
'xerunt'
'▁ljubi'
'ໂຍ'
'讥'
'▁хэлэлцүүл'
'▁ഥ'
'▁Аль'
'▁Srbi'
'挽'
'▁ധ'
'▁przepis'
'▁prijav'
'▁coraggio'
'▁мін'
'▁konata'
'▁Juncker'
'▁ਹੋਇਆ'
'▁історично'
'പുസ്തക'
'uno'
'▁ମଙ୍ଗଳବାର'
'▁trou'
'▁опции'
'地产'
'▁Мэдээлэл'
'▁manos'
'他也'
'믹'
'ينا'
'Фокус'
'पुल'
'▁origem'
'mili'
'新鲜'
'trud'
'▁مجموع'
'၁'
'เฝ้า'
'ስራ'
'ٽي'
'▁ایپ'
'MC'
'▁Sre'
'▁၀၉'
'▁სამეფო'
'▁huolto'
'▁familiar'
'▁deserunt'
'▁novembre'
'tér'
'หน้าตา'
'▁Қасым'
'▁zwar'
'▁svetlo'
'ЭВ'
'▁ባ'
'▁محمد'
'isip'
'▁քաղաքապետարանի'
'▁frakt'
'▁nærmest'
'വര്'
'zeni'
'▁miljardi'
'▁alcalde'
'ရိ'
'▁rescat'
'▁Relax'
'▁சரி'
'解决'
'▁eksik'
'▁realizza'
'▁vëmendje'
'▁ettermiddag'
'▁summit'
'piirkond'
'▁понедельник'
'▁Innhold'
'▁concessi'
'▁natečaj'
'was'
'▁кылат'
'ம்ப'
'不愿'
'▁αριθμό'
'▁Fitiavana'
'തിനാ'
'▁eskainiko'
'▁התביעה'
'▁Respublikası'
'арни'
'▁tartalmaz'
'90.000'
'ISHI'
'ショップ'
'▁phase'
'▁chimic'
'աբնակ'
'りする'
'▁yıl'
'flat'
'▁Asta'
'▁sett'
'çu'
'▁chegou'
'▁detayları'
'討論'
'정규직'
'▁મુજબ'
'▁Կազմակերպ'
'োন'
'cerca'
'我是'
'ກວ່າ'
'▁ограничава'
'락'
'▁dolara'
'▁import'
'▁انحصار'
'尴'
'▁тәуелсіздік'
'▁chlap'
'BRE'
'▁forme'
'▁fantasi'
'▁września'
'▁osobą'
'▁lancer'
'▁soort'
'३७'
'カット'
'явілася'
'▁instinct'
'▁ಭಾರತ'
'▁değiş'
'રિ'
'▁cương'
'នៅកម្ពុជា'
'▁kätevä'
'▁ръцете'
'талуы'
'ію'
'beskyttelse'
'彪'
'!"'
'됨'
'ခင်း'
'▁zmluvy'
'действа'
'▁Онлайн'
'▁ČR'
'▁اختلال'
'▁sürede'
'▁Federació'
'ແກ'
'〃'
'▁draudžiama'
'▁वीडियो'
'DING'
'▁ואחרי'
'▁জরিমানা'
'ైంది'
'njena'
'▁čisto'
'λαμπ'
'▁Mahathir'
'хвал'
'▁Bilgi'
'▁Sonnen'
'▁בלתי'
'▁এম'
'ثناء'
'▁сүйлөшүүлөр'
'▁נ'
'brid'
'▁osale'
'▁Нур'
'▁айлана'
'相場'
'▁ወንዝ'
'▁prodaju'
'▁körülbelül'
'brett'
'▁аудандық'
'êr'
'лим'
'تلك'
'▁schauen'
'▁funnits'
'▁bëj'
'▁zde'
'▁মিয়ানমার'
'▁القو'
'▁ڏني'
'▁произошло'
'▁ຫງວຽນ'
'▁двойно'
'▁FER'
'▁papa'
'ేందర్'
'▁beszél'
'▁کیمپ'
'േന്ദ്ര'
'▁demanar'
'▁NFL'
'lozi'
'▁obiskovalce'
'▁سائیکل'
'▁எ'
'▁Paraguay'
'▁पराभव'
'▁وج'
'的新'
'ვს'
'गे'
'▁17:30'
'▁बातमी'
'▁კურსი'
'生活的'
'3⁄4'
'ძინე'
'▁будућности'
'▁kämpfen'
'▁દીધો'
'▁хрватски'
'▁target'
'▁geçti'
'mentum'
'▁sabar'
'stimmt'
'▁ኤ'
'最後'
'▁hiszem'
'だよ'
'▁comunicar'
'ിപ്പിച്ചു'
'elle'
'▁ባለስልጣናት'
'▁usikker'
'over'
'؟؟؟؟'
'▁कला'
'бувають'
'رأ'
'▁piedi'
'▁Mikkel'
'ŵr'
'▁Kub'
'▁בשנה'
'插'
'קיר'
'中文'
'▁compartilha'
'▁Инвест'
'▁strani'
'genoten'
'▁continue'
'▁pacient'
'▁nail'
'タイ'
'▁визначається'
'揠'
'aalis'
'▁개봉'
'ു'
'夯'
'тын'
'▁gund'
'ઁ'
'▁klasické'
'不錯'
'▁Аф'
'滟'
'ጥቂት'
'recept'
'▁ଓଡିଆ'
'tre'
'▁Părinte'
'ೊಳಗ'
'merkki'
'\x9b'
'▁veikt'
'jui'
'▁ඇමති'
'▁orada'
'▁niepełnosprawn'
'▁erməni'
'▁сард'
'▁मिळेल'
'饗'
'▁Двор'
'ผู้ใช้'
'▁anîn'
'▁Оста'
'▁črni'
'▁लागले'
'일본'
'▁المتخصصة'
'▁підготовка'
'▁risinājums'
'▁؟'
'設計師'
'▁genetik'
'▁පසුගිය'
'▁صفر'
'的国家'
'원이'
'▁kultiv'
'▁директно'
'참'
'laganje'
'圾'
'▁болзошгүй'
'mene'
'lini'
'disk'
'▁Asturias'
'കെ'
'прэзідэнт'
'стве'
'ਨੋ'
'ОЮ'
'พวกเขา'
'ワイ'
'▁također'
'▁Menga'
'▁mindst'
'arba'
'ρτ'
'oki'
'▁Već'
'▁botón'
'llet'
'▁held'
'▁шиг'
'▁faccia'
'ുള്ളത്'
'द्व'
'FS'
'红色'
'▁forêt'
'מתי'
'賠償'
'▁الاسلامية'
'▁paskaidro'
'▁HK'
'▁ಬಯಸ'
'▁жылдам'
'▁ધોરણ'
'╦'
'▁ഉടന്'
'▁presyo'
'▁ପକ୍ଷରୁ'
'▁bînin'
'▁sınırlı'
'▁patraukl'
'arren'
'ologique'
'মুক্ত'
'室内'
'▁gereja'
'▁Taxi'
'\uf155'
'จะใช้'
'हरुको'
'▁rabat'
'▁pohár'
'▁olukorras'
'⟨'
'▁ຄະນະ'
'Ce'
'▁అక్క'
'σε'
'ቃወም'
'▁peccatum'
'人才'
'▁öncə'
'▁gravita'
'▁ಎರಡನೇ'
'南昌'
'▁Según'
'▁montar'
'▁कोणत्या'
'タグ'
'▁ತನಕ'
'▁grădini'
'▁celular'
'▁տեղափոխվել'
'▁Lloc'
'áhl'
'▁ଏପରି'
'▁خلالها'
'▁rheol'
'▁jakiej'
'เปล'
'Nkosi'
'▁انتها'
'▁τμήματα'
'▁በሆነ'
'协'
'రియల్'
'▁Transforma'
'...]'
'▁გამოფენა'
'від'
'▁selected'
'يك'
'▁palsu'
'▁छात्रों'
'ຫຼ'
'ግብ'
'▁sut'
'멸'
'▁խախտումներ'
'រ៉េ'
'unkat'
'▁Fläche'
'찡'
'عزز'
'▁stiller'
'▁rhestr'
'▁തുടങ്ങി'
'▁herstel'
'නික'
'当初'
'1900'
'▁Fra'
'▁DELLA'
'▁매우'
'აღმ'
'ляў'
'▁najbliższych'
'셨다'
'ობ'
'▁Totalt'
'对抗'
'匈'
'▁esetén'
'isse'
'▁Literatura'
'帆'
'▁corre'
'ይን'
'美联储'
'▁Guardiola'
'▁අන්දම'
'▁горе'
'▁өлім'
'▁הלא'
'ספור'
'▁ڪردار'
'▁δευτερ'
'▁ശ'
'▁травня'
'▁zapis'
'▁durée'
'ス'
'▁رسمی'
'悯'
'кс'
'▁thơ'
'▁कळ'
'▁przewodni'
'▁увидел'
'▁વખતે'
'क्रा'
'ɾ'
'▁sagði'
'▁halaman'
'▁และมี'
'scribe'
'ნით'
'▁Ђ'
'▁finland'
'גאַנג'
'🍪'
'▁habet'
'▁Società'
'▁faraxsan'
'▁Zara'
'▁ક્ર'
'▁المطلوب'
'▁माय'
'▁redatelj'
'груз'
'▁пече'
'▁gcónaí'
'▁Սար'
'▁Administración'
'▁comunism'
'▁അന്യ'
'▁εγω'
'tual'
'▁өс'
'खन'
'्व'
'▁Legea'
'ᅢ'
'呢'
'чанка'
'▁patrol'
'▁հղում'
'▁කරගැනීම'
'க்கும்'
'▁խաղ'
'▁ಸಾಗ'
'ഷ്'
'▁τεχν'
'▁hoffe'
'▁yapacağı'
'▁dhaafay'
'▁biyo'
'▁protsendi'
'forbundet'
'▁өтөт'
'▁expresar'
'▁Никола'
'▁барып'
'نها'
'หลวงปู่'
'▁мақалалар'
'bound'
'▁detaliile'
'▁ბუნება'
'▁дороге'
'癫'
'▁ხელოვნება'
'▁აქამდე'
'ίδες'
'чных'
'▁ማስተ'
'表現'
'▁හවස'
'1~2'
'▁cuốn'
'We'
'▁ΑΠΟ'
'▁muziek'
'▁ر'
'▁дизел'
'▁истории'
'▁Webcam'
'\uf735'
'▁labi'
'▁folyamán'
'▁ఏమీ'
'▁ожидает'
'▁Copenhagen'
'文本'
'▁atrod'
'անի'
'▁Дома'
'ัญ'
'▁Golden'
'yksen'
'▁தீவிர'
'▁discuta'
'▁Sint'
'дити'
'▁ಧರ್ಮ'
'▁โทร'
'▁پائالىيىتى'
'ۜ'
'▁Oso'
'▁проведение'
'▁Εξ'
'رجل'
'▁eile'
'▁Себебі'
'▁abantu'
'✰'
'▁ашу'
'いましたが'
'▁cykel'
'▁তথা'
'▁ž'
'▁darle'
'▁ਮਾਣ'
'▁Potential'
'▁Болей'
'▁Manuel'
'▁premiers'
'▁ആകെ'
'▁הדו'
'▁মহাসচিব'
'▁yê'
'눈'
'▁ezaugarri'
'▁ogromni'
'▁организира'
'▁Közösség'
'cessit'
'гаджаецеся'
'▁existir'
'▁pungkasan'
'▁මන්ත්'
'▁مستقبل'
'▁основана'
'▁бодлогын'
'մտ'
'▁исполнительной'
'▁వెలికితీశారు'
'▁self'
'↝'
'▁Espanyol'
'мест'
'▁yüklə'
'▁लैजान'
'很高'
'▁брак'
'▁Ελλάδα'
'haal'
'скоро'
'▁צום'
'▁copilului'
'▁dirasakan'
'▁Llafur'
'乐'
'ერო'
'列出'
'▁cynnwys'
'▁gluten'
'tık'
'▁زعفران'
'▁ажилладаг'
'▁فعالان'
'zej'
'ನಾಡ'
'▁kërkon'
'▁המג'
'▁Kost'
'كريم'
'іны'
'▁ປະຊາ'
'▁dráma'
'▁רב'
'contactformulier'
'▁spremembe'
'ىلىپ'
'နွ'
'▁изключително'
'ratibu'
'LEN'
'딪'
'▁причем'
'śmy'
'▁coco'
'\uf3c0'
'xi'
'الب'
'▁південн'
'爽'
'▁handiena'
'▁nena'
'▁البر'
'386'
'▁zdecydował'
'▁Január'
'▁hemsida'
'▁fatura'
'▁도구'
'telja'
'ենց'
'▁20.'
'وسط'
'vaba'
'▁Orion'
'▁ոստիկան'
'үүлнэ'
'õr'
'▁reprezenta'
'▁jinak'
'▁alguien'
'▁نوٹ'
'ביטחון'
'▁ஞாபக'
'usta'
'劣'
'▁អ្នកនិពន្ធ'
'▁katerega'
'▁smör'
'dım'
'▁permanecer'
'ອ້ອມ'
'▁ලංකාවේ'
'▁potranno'
'odzie'
'▁încât'
'▁heijast'
'ên'
'▁positif'
'▁2)'
'อ่าว'
'▁Pirineu'
'▁simţi'
'▁таап'
'▁đợi'
'▁ਜਿਹਾ'
'tamme'
'ск'
'▁vodi'
'▁באירופה'
'▁dll'
'ობიდან'
'▁करें'
'政府'
'ेंट'
'▁합'
'umanità'
'▁específicos'
'▁kä'
'▁районного'
'ଶ୍'
'대'
'▁zehn'
'▁diketahui'
'րին'
'▁kabeh'
'▁formativo'
'gäste'
'▁వివరించారు'
'▁මූලික'
'▁comunidad'
'महा'
'▁علائقي'
'▁एक्'
'▁Kampf'
'▁vand'
'ự'
'โส'
'ប្រឡង'
'▁eléctrica'
'▁چائے'
'▁ټپيان'
'▁البي'
'▁খেলনা'
'▁skridt'
'不懂'
'▁cereal'
'▁타이'
'сц'
'小心'
'▁vėl'
'تحويل'
'νγκ'
'ਹਲ'
'▁consulte'
'▁kabèh'
'ghar'
'▁가능성'
'▁तक्रार'
'らし'
'▁Speech'
'▁óleo'
'ล่วงหน้า'
'ჭერი'
'eli'
'▁apkārt'
'▁բավարար'
'してもらう'
'剛剛'
'kule'
'функционал'
'旺盛'
'▁resnici'
'ยืดหยุ่น'
'▁chuir'
'▁lừa'
'दन'
'▁ଆମେ'
'uyorum'
'▁сучасних'
'▁друку'
'▁једном'
'▁भिड'
'रामायण'
'ପ'
'▁competitive'
'▁nedokázal'
'աճ'
'ັນ'
'ोन'
'▁Pek'
'عون'
'▁огромни'
'حصل'
'▁денеска'
'▁conferència'
'▁kompani'
'▁غلطی'
'gatott'
'▁ڏاڍي'
'▁omenjeni'
'utum'
'▁внутренней'
'التزام'
'▁இராணுவ'
'▁gooi'
'▁llibres'
'▁પર'
'zano'
'▁təxribat'
'优化'
'▁İyul'
'ಿದ'
'▁presentato'
'▁яриа'
'▁अहिलेसम्म'
'阻止'
'▁eletrônico'
'▁piatto'
'▁сл'
'พอกหน้า'
'кага'
'▁Mặt'
'▁pinapa'
'▁Easy'
'ණා'
'▁samsung'
'▁बेटी'
'▁የሥነ'
'▁zurück'
'▁کړي'
'ati'
'▁budov'
'siyalar'
'▁pp'
'▁գրասենյակ'
'▁оквир'
'idi'
'▁lieben'
'▁فرم'
'visi'
'▁бързи'
'▁qartulad'
'▁svojich'
'▁dificuldade'
'▁megjelent'
'▁වයස'
'▁sticker'
'▁నమోదు'
'▁Ensemble'
'▁жә'
'▁Zijn'
'▁മി'
'જર'
'鮨'
'▁δεκαετίες'
'ຕ່າງ'
'hef'
'▁Promotion'
'杓'
'▁киім'
'ශු'
'ющая'
'▁поручио'
'ဆိုင်ရာ'
'▁أبو'
'▁альбом'
'▁λι'
'שטיין'
'ແນະນໍາ'
'架构'
'หน้าอกเล็ก'
'▁ibunya'
'▁pikir'
'▁bác'
'▁indik'
'▁meraviglioso'
'▁Atatürk'
'▁саобраћај'
'▁Wars'
'▁Gruppo'
'츤'
'▁aprendizado'
'▁សុខា'
'Ak'
'▁بردار'
'▁ലി'
'▁dərc'
'▁እ'
'siva'
'▁Haberleri'
'▁kosmetik'
'talk'
'▁producera'
'பூ'
'▁nghiệp'
'▁తో'
'▁thang'
'endis'
'▁سٺي'
'▁υποχρεώσεις'
'യെക്കുറിച്ച്'
'皖'
'▁হঠাৎ'
'சில்'
'štva'
'laşdırılması'
'▁live'
'▁चिन'
'ਿੰਗ'
'▁organi'
'▁ବୋ'
'淒'
'ttömyys'
'▁ጣልቃ'
'▁Սյունիքի'
'▁šilt'
'▁വിമര്'
'▁сільського'
'▁scelte'
'nje'
'IJ'
'주기'
'▁kitle'
'▁презентира'
'tää'
'▁možnost'
'▁gegevens'
'各個'
'▁Bat'
'푀'
'ǧ'
'મય'
'▁برخورد'
'რილი'
'▁مريم'
'▁Genau'
'▁સબ'
'ryn'
'▁लिखा'
'ɨ'
'▁UPDATE'
'▁Tiedä'
'емо'
'▁majutus'
'फिल'
'▁omdat'
'▁anna'
'ทัพ'
'▁वास्तविक'
'라이트'
'▁19:00'
'▁заўсёды'
'▁الراحل'
'ยกเว้น'
'が出た'
'ων'
'kyňa'
'тарының'
'▁İs'
'▁tuiscint'
'▁аюулгүй'
'ovka'
'prie'
'▁باشلاپ'
'▁পানি'
'▁వస్తా'
'▁اولین'
'トー'
'▁хатуу'
'юри'
'▁Peygamber'
'▁treatment'
'phezulu'
'▁הראש'
'▁köpek'
'▁Cea'
'▁təbrik'
'▁جرائم'
'лц'
'▁արդարադատության'
'굴'
'▁Има'
'شرح'
'▁לע'
'▁skutočn'
'顶尖'
'▁конституційн'
'▁освоен'
'▁మంచి'
'峒'
'▁dirêj'
'ਤਾ'
'лін'
'▁մշտապես'
'▁उपस्थित'
'▁വേണ'
'▁одржан'
'▁издател'
'▁Zielgruppe'
'▁Adria'
'▁ет'
'▁Fest'
'▁artes'
'▁27,'
'▁γίνονται'
'▁koyma'
'▁Hiru'
'▁vedere'
'▁Pengguna'
'▁əməkdaşı'
'ADA'
'▁introducere'
'▁kategorija'
'পশ্চিম'
'▁brezplačno'
'增进'
'▁மருந்து'
'▁створювати'
'▁apă'
'▁musiał'
'▁Ingles'
'▁формира'
'▁նա'
'▁атайын'
'▁Karlsson'
'▁tillåter'
'▁rész'
'▁นางสาว'
'▁ගෙදර'
'▁වෙළඳ'
'▁dibdib'
'▁powiat'
'▁لتقديم'
'▁պարզ'
'Ал'
'शाली'
'粥'
'ស'
'▁പു'
'▁taký'
'▁असलेला'
'▁regizor'
'▁hiki'
'▁பதவி'
'▁توپ'
'缅'
'읜'
'每日'
'▁fanylion'
'ити'
'覚悟'
'られない'
'▁મુ'
'问题'
'微笑'
'▁tjenester'
'▁Pendant'
'▁MODEL'
'▁соопшти'
'▁fleksibel'
'▁tibbi'
'▁Jy'
'▁folke'
'▁juhtu'
'▁соглаша'
'շրջ'
'▁จังหวัด'
'▁žemėlapį'
'▁Mercado'
'ārs'
'▁percep'
'რეკ'
'▁НИТХ'
'▁objavljuje'
'GDP'
'▁dydį'
'▁Ռուսաստանի'
'▁դպրոց'
'くなった'
'प'
'巣'
'باب'
'▁१'
'▁হি'
'▁xD'
'▁basura'
'▁clar'
'望'
'ಿಕೆ'
'▁строи'
'▁urmări'
'▁рок'
'▁simbolo'
'▁datotek'
'ംഗ'
'▁Magnús'
'原因是'
'▁oyunda'
'文件'
'▁சொல்லி'
'Natur'
'▁ಸಮುದಾಯ'
'ിച്ചിരുന്നു'
'▁Ný'
'▁En'
'▁катуу'
'▁rot'
'▁ومع'
'често'
'▁situació'
'▁ढु'
'▁natija'
'▁janji'
'▁между'
'蘆'
'▁tartibi'
'▁اضافی'
'▁മലയാളത്തില'
'脇'
'▁преговори'
'▁వ్యూహ'
'▁obě'
'▁publica'
'▁Коли'
'▁Berlín'
'‐'
'ంట'
'▁úspešne'
'▁xogo'
'▁Mahkemesi'
'▁γυναικών'
'▁sukurta'
'▁tanto'
'▁ו'
'▁नो'
'лун'
'▁אתרי'
'▁Haec'
'▁බිලියන'
'▁dezvălui'
'▁કર્યા'
'050'
'▁reaktion'
'ລາງວັນ'
'塀'
'▁Kon'
'▁نداره'
'▁ملي'
'▁saatlerinde'
'ጨም'
'▁nekavējoties'
'▁චීනය'
'▁uguns'
'inə'
'kill'
'niejsze'
'dibile'
'▁csatorná'
'▁Háskóli'
'积累'
'▁secukupnya'
'▁tepër'
'870'
'▁올해'
'ORES'
'▁ուղեւոր'
'kendelse'
'▁කොමසාරිස්'
'▁hí'
'ਰਸ'
'生的'
'ไฮไลท์'
'▁reikalavimų'
'▁течение'
'之类的'
'▁позбутися'
'▁Nya'
'▁वरिष्ठ'
'人士'
'ಿಸಿದ'
'▁Çevre'
'▁totul'
'ყოფ'
'▁공유'
'▁recruit'
'▁осуществление'
'▁fevereiro'
'нето'
'trof'
'нюю'
'▁يولد'
'▁četrtek'
'ojn'
'крит'
'榮耀'
'▁Deportivo'
'▁residencia'
'▁znaczenie'
'▁bezmaksas'
'▁państw'
'▁ශාලාව'
'▁значи'
'▁структура'
'▁höchste'
'ေသာက္'
'▁หน้าแรก'
'▁Neve'
'▁Üç'
'▁পাঠক'
'反应'
'▁rekord'
'▁núcleo'
'▁MG'
'▁کھیل'
'▁فرمودند'
'ОДИ'
'▁Giao'
'▁reag'
'▁නේද'
'▁الغرفة'
'▁करेगा'
'▁בק'
'▁държава'
'పోయాయి'
'myymälä'
'▁መኖሪያ'
'▁pokazuje'
'ዲዮ'
'▁കൂടിയ'
'▁ਅਖ'
'tillatelse'
'▁sklo'
'▁kampanjo'
'писали'
'▁obvykle'
'حفظ'
'ຮົບ'
'ຫຼວງພະບາງ'
'▁улаз'
'oc'
'▁pengikut'
'币'
'▁చేయవచ్చు'
'▁વેચાણ'
'인테리어'
'▁өнөөдөр'
'▁ял'
'▁prekr'
'93'
'▁உட'
'chette'
'商家'
'▁paying'
'ούλης'
'▁என்பதே'
'▁hứng'
'焦点'
'偷'
'▁මිනිස්'
'廣播'
'近期'
'対象'
'▁రు'
'なんと'
'▁opprettholde'
'▁ابزار'
'▁copa'
'▁통일'
'ಮೇ'
'▁ப'
'תקנה'
'לס'
'▁hudbu'
'▁hó'
'សេចក្ដី'
'▁албан'
'をする'
'▁گلگت'
'ປູ'
'▁skorzystać'
'പ്പും'
'▁ଚି'
'▁Troll'
'lıq'
'വെള്ള'
'ન'
'▁vækst'
'▁ನ'
'tjie'
'▁Қы'
'▁camisa'
'▁രംഗത്ത്'
'ŽI'
'رعاية'
'▁ڈی'
'兩岸'
'▁СРСР'
'▁టెస్టు'
'▁Heim'
'tiap'
'▁СЪ'
'▁մարդկանց'
'▁nhuận'
'▁spojení'
'វត្ថុ'
'อาวุธ'
'▁имовине'
'▁Sanayi'
'κέ'
'ពិសោធន៍'
'爍'
'▁Δεκεμβρίου'
'▁kilde'
'▁Hjælp'
'▁Dział'
'▁jūnijā'
'▁сауал'
'낚시'
'خار'
'▁հերոս'
'▁teme'
'▁Expedi'
'には'
'▁клубу'
'▁numara'
'▁দায়'
'gono'
'▁mendengarkan'
'雇'
'សី'
'象徵'
'▁biarkan'
'▁Nad'
'▁жакка'
'чний'
'▁המדינה'
'▁GÜN'
'▁Fundusz'
'තක්'
'csé'
'▁Zo'
'▁preču'
'▁Bash'
'▁versla'
'▁koo'
'なぁ'
'▁ಇತ್ತೀಚಿನ'
'กอล์ฟ'
'▁නතර'
'▁ہوتی'
'▁बढे'
'สุภาพ'
'▁bevoegd'
'▁ביי'
'▁വൈകി'
'▁mposht'
'▁szerzett'
'▁పౌర'
'gezet'
'▁سیاست'
'▁indica'
'ਥਾ'
'escort'
'飴'
'▁Két'
'▁Új'
'lsa'
'▁Naast'
'फाई'
'▁zabawy'
'ሿ'
'ਤੰਤਰ'
'\uf067'
'▁Spitze'
'쭌'
'ሎ'
'▁القانون'
'乗せ'
'seniz'
'▁historical'
'▁দুর্নীতি'
'▁divák'
'▁Karena'
'ည့်'
'▁감사드립니다'
'▁cousin'
'▁bốn'
'▁filmer'
'그레이'
'ங்களின்'
'ነ'
'▁Člen'
'rve'
'▁ເດືອນ'
'▁Drum'
'▁etsin'
'૨૦'
'優れた'
'▁Smith'
'▁둘러'
'อ้วน'
'教えてください'
'▁karış'
'▁cervello'
'▁గృహ'
'▁List'
'▁tomat'
'03.'
'▁klus'
'▁években'
'▁ارتفاع'
'▁shaxs'
'▁Пријав'
'▁maaliskuuta'
'altezza'
'▁présidentielle'
'0.8'
'▁ठर'
'▁dixwazin'
'▁Gar'
'ETA'
'▁hir'
'▁ՄԱՍԻՆ'
'▁kevés'
'▁кг'
'▁вельмі'
'▁beidh'
'▁پلي'
'▁delicioso'
'יועץ'
'▁ಕಾಣಿಸಿಕೊಂಡ'
'颚'
'\uf096'
'▁утга'
'▁pięć'
'zisz'
'▁തട്ടി'
'▁Akta'
'?????'
'▁dipanggil'
'▁access'
'രോ'
'્રિ'
'▁ಇನ್'
'eriet'
'▁atvērt'
'▁اچھی'
'▁руски'
'▁העבודה'
'一幕'
'min'
'kës'
'הגעתי'
'йтеся'
'▁آخري'
'▁ڦ'
'มีส่วนร่วม'
'සි'
'▁நாடு'
'▁entsprechend'
'▁मुटु'
'▁elää'
'▁معقول'
'▁אחרות'
'▁самоврядування'
'▁Vas'
'▁akizungumza'
'▁alumnado'
'▁Kampuni'
'공단'
'▁typu'
'▁நடத்திய'
'▁goede'
'以为'
'▁υπήρχαν'
'믄'
'▁செய்கிற'
'aixeca'
'虧'
'呛'
'၈၈'
'▁жетекші'
'▁uhićen'
'▁првпат'
'▁անգամ'
'THE'
'▁Brifysgol'
'ສະຫະພັນ'
'▁моих'
'ეთა'
'HON'
'ensi'
'▁quindi'
'▁Λονδίνο'
'كسب'
'량을'
'▁Személy'
'פירוש'
'জ্জা'
'స'
'▁ΕΕ'
'levering'
'▁kesemua'
'▁Rooney'
'▁Escrit'
'▁Escrib'
'tasi'
'▁Rest'
'遊'
'▁олимпиада'
'যা'
'▁στιγμές'
'遊んで'
'▁ಪಂದ್ಯ'
'МЕТ'
'▁costum'
'▁காம'
'▁boshladi'
'▁ચી'
'प्रचण्ड'
'什么'
'▁kumpi'
'နိုင္'
'▁कम्पनीको'
'កើតឡើង'
'▁seomra'
'ស្វាយ'
'izēt'
'▁teritorija'
'日凌晨'
'နာ'
'▁kredi'
'必ず'
'▁під'
'▁ऑस्ट्रेलिया'
'▁смогли'
'▁Greenpeace'
'▁පොලීසිය'
'ría'
'Asocio'
'▁әкесі'
'الق'
'awi'
'▁писмена'
'▁Віцебска'
'困境'
'▁главен'
'▁mreža'
'▁περιουσία'
'أسلحة'
'酎'
'烬'
'▁ნიშნავს'
'ํ'
'▁конференция'
'▁میشه'
'▁Nadu'
'▁xét'
'▁Mais'
'▁vadītāju'
'reti'
'▁наголосив'
'▁davomida'
'风险'
'▁आतंकवाद'
'▁öt'
'панорам'
'▁actuellement'
'▁bhí'
'សោ'
'ظ'
'kulam'
'▁назар'
'▁węd'
'取って'
'▁kalendár'
'▁ፊልም'
'▁անցկացնել'
'뤼'
'aéroport'
'फिटनेस'
'▁സമര്'
'морски'
'▁dobbelt'
'ปวด'
'▁좋겠'
'生殖'
'▁współ'
'ペン'
'▁круг'
'▁доверба'
'Ặ'
'隈'
'▁warunki'
'पे'
'▁الأوسط'
'▁என்ற'
'capital'
'单位'
'▁действа'
'แทงบอลออนไลน์'
'▁harganya'
'▁çağdaş'
'▁şəbəkələrdə'
'ளவு'
'▁بودجه'
'屿'
'▁ന്ന്'
'▁zeleni'
'▁ძმ'
'▁ֆիլմի'
'뵙'
'▁olduğundan'
'▁reference'
'▁වාහන'
'▁Liberal'
'emp'
'нско'
'preci'
'▁कलम'
'Mitglied'
'▁нама'
'富'
'▁министерство'
'ทางร้าน'
'ஷி'
'▁voornamelijk'
'▁Muh'
'ረብ'
'▁վերջնական'
'ချစ်'
'▁reteta'
'▁മനസ്സിലായ'
'turva'
'guera'
'rir'
'▁tulema'
'▁Główny'
'▁Spec'
'科目'
'mise'
'▁어머니'
'children'
'▁hevkariy'
'fung'
'▁Educação'
'끓'
'ण्य'
'▁Vakar'
'steigen'
'▁ଅନୁଷ୍ଠିତ'
'▁наяўнасц'
'▁Yadav'
'ቻል'
'▁Boże'
'▁развоју'
'▁zdr'
'джо'
'kš'
'▁راتلونکي'
'▁bestimmten'
'▁повеќе'
'▁sudėting'
'▁meteor'
'▁Dó'
'▁Dort'
'▁байнг'
'▁kcal'
'sayt'
'μπε'
'▁አር'
'掛'
'竞'
'▁stre'
'▁arkadaş'
'▁persoana'
'▁שפ'
'ຊົ່ວໂມງ'
'கொள்'
'เบาะ'
'和他'
'▁კოლექცი'
'▁aaminsan'
'▁православне'
'පිය'
'▁lelaki'
'▁promete'
'▁vzájemn'
'▁městské'
'ოდა'
'▁He'
'▁напрямку'
'TOL'
'▁uanset'
'焼き'
'▁РИА'
'▁mian'
'уел'
'厦门'
'RAR'
'ធិ'
'▁інфармацыі'
'▁stazione'
'▁yurish'
'▁Πρόεδρο'
'▁ustedes'
'▁swo'
'▁hào'
'▁माथि'
'▁تغذیه'
'▁секоја'
'▁Cottage'
'▁выбор'
'▁سرتیر'
'▁ويندو'
'▁страници'
'▁යනුවෙන්'
'▁қаржы'
'▁mocy'
'▁enklere'
'lipokuwa'
'▁ملا'
'▁задума'
'▁kurumsal'
'▁offentliggjort'
'▁veebilehitseja'
'نۆۋەت'
'▁umplut'
'▁influ'
'ասրահ'
'▁мероприятие'
'рек'
'▁magie'
'aikoina'
'联系'
'▁olabilirsiniz'
'▁mpamaky'
'▁Nagusia'
'镯'
'▁التقليدي'
'錀'
'säilytys'
'▁연구'
'▁dovranno'
'closure'
'NGI'
'컨'
'▁Intensiv'
'קב'
'▁כפי'
'▁혹은'
'▁الحالة'
'▁قىس'
'▁təşviq'
'▁песня'
'▁ହକି'
'ことはできません'
'▁consistent'
'される'
'wol'
'▁ಇಂತಹ'
'ENG'
'▁يک'
'▁Останні'
'ทุ'
'▁नसकेको'
'▁jakinarazi'
'цеп'
'传'
'▁see'
'▁ពី'
'▁голосов'
'▁coração'
'לאָז'
'▁filia'
'▁nøje'
'▁հեղափոխություն'
'▁Oczywiście'
'▁разговори'
'▁inimese'
'bī'
'▁ପୂଜା'
'▁zvyšuje'
'▁terkadang'
'▁season'
'▁ماهی'
'▁profiler'
'ÊNCIA'
'▁zobrazení'
'▁거짓말'
'▁tria'
'▁pronuncia'
'▁velký'
'▁kolo'
'ിപ്പിച്ച'
'עיקר'
'级'
'просив'
'▁Inspira'
'▁nossa'
'▁واردات'
'elem'
'▁seriously'
'铿'
'▁megkérdez'
'靑'
'変わった'
'Sau'
'▁പ്രോ'
'▁მრავალი'
'μαζ'
'▁Хан'
'▁parole'
'schreibung'
'məliyik'
'▁kujt'
'לפעמים'
'▁prosím'
'▁Központ'
'▁በቅ'
'뚤'
'▁הקש'
'▁речовини'
'▁имиња'
'ов'
'аар'
'াহ'
'▁képek'
'▁svarīgi'
'印发'
'ঐ'
'大家一起'
'▁Жишээ'
'천'
'▁ਤਬਦੀਲ'
'▁آخرين'
'▁ተራ'
'▁കോൺഗ്രസ്'
'动力'
'اده'
'▁britiske'
'▁Om'
'▁Ná'
'▁mengakui'
'ㄥ'
'冠軍'
'▁(6)'
'växt'
'▁აუცილებელია'
'▁বাঁড়ার'
'▁கொடுத்த'
'გვიან'
'▁régulière'
'▁странски'
'вство'
'▁elecciones'
'ବାକୁ'
'▁copyright'
'▁арван'
'▁ничего'
'ркі'
'紐'
'▁Schu'
'▁atradīs'
'▁सुचना'
'▁атрыман'
'下去'
'CT'
'の話'
'▁여행을'
'▁illorum'
'▁színes'
'▁يېمەكلىك'
'炫'
'▁алады'
'▁Vil'
'▁คลิป'
'▁ប្រព័ន្ធ'
'font'
'82'
'▁përditshme'
'▁రోజుల'
'英雄'
'▁પહેલાં'
'羁'
'▁Empat'
'บอน'
'လူငယ်'
'▁Αρχική'
'▁ጨዋታ'
'waji'
'▁simplesmente'
'提早'
'Н'
'وقوف'
'▁ಫ'
'եի'
'▁sorğu'
'▁אברהם'
'▁የኢትዮጵያን'
'▁Նախորդ'
'事故'
'సేపు'
'증'
'▁oczach'
'▁القواعد'
'▁sýnir'
'вайте'
'▁foly'
'ຄວາມ'
'▁психо'
'▁xizmati'
'▁pecca'
'ପାଳ'
'▁ఉపయోగించ'
'▁vibracij'
'▁dire'
'▁təkrar'
'႐'
'▁3-5'
'▁సాహిత్య'
'忍'
'▁Bibliotheca'
'тил'
'▁chịu'
'▁бисквитки'
'▁pokušava'
'第二个'
'▁thiệp'
'▁простора'
'▁insult'
'대를'
'▁umhverfi'
'▁معتدل'
'乩'
'▁примени'
'▁मुलाखत'
'▁Miranda'
'▁drill'
'▁wygodny'
'▁Baraza'
'رۇ'
'ាត់'
'▁Исаков'
'▁kolekcji'
'gyár'
'▁očito'
'▁පෞද්ගලික'
'▁girdi'
'▁софтвер'
'▁veniam'
'▁പ്രകാശ'
'▁پوشش'
'▁Към'
'▁Is'
'▁interpretar'
'▁ΝΑ'
'▁Толькі'
'板块'
'တော'
'▁ved'
'▁Ax'
'▁средба'
'▁Irfan'
'▁Αναρτήσεις'
'▁अलि'
'▁प्रमुख'
'▁halusi'
'▁ராணுவ'
'▁дає'
'躏'
'▁суверенитет'
'nim'
'▁jadi'
'εύεται'
'▁Başkanı'
'ראי'
'▁Norður'
'cări'
'▁plaća'
'प्रसाद'
'ימת'
'duizend'
'▁oportet'
'▁Språk'
'▁ümbritse'
'εσ'
'坚决'
'▁більше'
'▁תקופת'
'▁ovaj'
'した'
'▁SOS'
'▁folosite'
'▁очередно'
'▁nedávno'
'이죠'
'ニュース'
'▁Even'
'辊'
'▁رول'
'80'
'ā'
'▁അല്ലേ'
'▁disa'
'▁Asociación'
'పడ'
'▁Pot'
'▁రివ్యూ'
'▁जुलै'
'telep'
'ไข้'
'▁Kou'
'囹'
'▁mõõt'
'▁creşte'
'▁osas'
'▁ўмове'
'▁склянк'
'이기도'
'▁Ży'
'▁Sicht'
'▁keupayaan'
'是对'
'▁вогне'
'oslav'
'▁indarkeria'
'タバコ'
'細かい'
'បុរាណ'
'▁প্রতিষ্ঠা'
'崂'
'▁hvar'
'▁पाँच'
'фік'
'អំពាវនាវ'
'▁oppfylle'
'▁képzés'
'ян'
'ингтон'
'▁hatékony'
'▁Ministry'
'结果'
'▁bizantin'
'▁حاشیه'
'▁Шан'
'掩'
'750'
'▁филиалы'
'dera'
'▁оларды'
'▁profesjonalny'
'574'
'電子'
'▁konvenci'
'▁laste'
'▁태'
'▁Cami'
'kap'
'\uf0a8'
'▁nikako'
'▁transmitir'
'憬'
'▁заборави'
'▁zai'
'▁төв'
'▁garage'
'▁TripAdvisor'
'ग्राम'
'რებული'
'ुस'
'▁kutya'
'▁Ξεχάσα'
'СТАН'
'▁podršku'
'gall'
'89)'
'▁оно'
'▁bepaal'
'▁mostrar'
'▁निश्चित'
'▁년'
'戯'
'▁javno'
'對外'
'▁nandritra'
'▁ହୋଇଛନ୍ତି'
'▁najlepšie'
'▁бул'
'▁Sú'
'▁가게'
'▁ugye'
'▁іншыя'
'▁چوقۇم'
'കടപ്പാട്'
'▁Mega'
'بيئة'
'▁נועד'
'あった'
'亲戚'
'짊'
'▁මැ'
'ព្រឹត្តិការណ៍'
'드리'
'▁それ'
'▁kecantikan'
'št'
'▁acontecimiento'
'▁0,8'
'▁εχει'
'▁месца'
'▁Schaden'
'▁podpor'
'▁Uudised'
'钓'
'动作'
'▁ഉത്തര'
'▁господин'
'▁atualmente'
'grat'
'▁ලෝකයේ'
'最'
'▁путешествие'
'▁الخامس'
'▁iedvesmo'
'▁سې'
'Kategori'
'▁ზრუნ'
'▁deluje'
'രീ'
'▁33.'
'▁díj'
'בעל'
'▁kənar'
'▁കയ്യില'
'▁ενίσχυση'
'▁maaaring'
'\uf188'
'▁זצ'
'▁offerte'
'▁querer'
'▁ühiskonna'
'精密'
'▁chvíľ'
'ကေလး'
'▁कुं'
'▁inicjatyw'
'▁ואפילו'
'是你'
'માલ'
'▁பச்சை'
'╖'
'ጠየቁ'
'▁நவம்பர்'
'▁ياش'
'▁določa'
'ہے'
'▁Tryck'
'SES'
'▁දන්නව'
'▁uinneig'
'Текст'
'▁думка'
'▁década'
'ಫೈ'
'▁kirjoitta'
'▁ಪಂಚಾಯಿತಿ'
'▁wachache'
'▁가'
'送料'
'▁бажаю'
'▁promotor'
'успешни'
'▁Justicia'
'纠'
'▁قاتارلىق'
'LABORA'
'▁samozřejmě'
'▁trošku'
'🚘'
'▁وقعت'
'窖'
'▁شرعی'
'▁בקר'
'孟'
'▁mabilis'
'▁krug'
'▁który'
'はじめ'
'▁△'
'▁amire'
'▁Казакстан'
'አጭር'
'▁بارے'
'▁трубопровод'
'▁hidup'
'ែរ'
'შე'
'▁pozitív'
'ՈՒԹՅԱՆ'
'▁curva'
'धन'
'ρυθμ'
'▁ulica'
'▁systém'
'▁айтымында'
'ὰ'
'vasti'
'▁კუთხე'
'▁clairement'
'▁Xwe'
'tika'
'司法'
'ums'
'▁долази'
'ተረ'
'ଦେବ'
'▁получават'
'▁vahvasti'
'▁Festa'
'▁दिनमा'
'▁seuraavi'
'▁Diskuse'
'▁സ്ഥാപന'
'▁ከማ'
'▁تجربة'
'▁kot'
'தார'
'▁tjedna'
'▁funktioniert'
'▁compositor'
'hatha'
'▁buluştu'
'Tool'
'▁uznáva'
'▁raam'
'îst'
'▁wykorzystuje'
'▁можност'
'▁रक्षा'
'ዝም'
'ໃຊ້ເວລາ'
'▁ζάχαρη'
'▁objav'
'ائيء'
'▁निर्माता'
'▁সামাজিক'
'▁دانه'
'▁края'
'▁Jardin'
'▁menemukan'
'췌'
'อา'
'▁রিপোর্টার'
'▁Konzept'
'▁tonn'
'▁motivat'
'▁සා'
'▁көрсетілетін'
'▁հավասար'
'schuhe'
'▁BravoTube'
'不怕'
'lux'
'▁slová'
'\uf49a'
'▁എന്ന'
'▁wp'
'▁ľuďom'
'▁Setmana'
'▁ثلاث'
'▁Вікіпедыя'
'▁Європейськ'
'▁ultrazvuk'
'껑'
'▁သတိ'
'▁लिग'
'诤'
'▁rock'
'Black'
'▁бұ'
'তা'
'ნჯ'
'▁if'
'▁Засаг'
'éndose'
'▁ადამიანები'
'ēšana'
'Те'
'ால'
'▁PROCES'
'ystä'
'科技有限公司'
'რეალ'
'건'
'्त'
'▁பிரச்னை'
'ombe'
'ബോധ'
'□'
'회원'
'▁Отговор'
'▁გემო'
'▁ಕರೆ'
'▁rahoitus'
'▁تربيت'
'▁wilayah'
'jär'
'▁mengundi'
'▁pag'
'два'
'▁censura'
'▁долари'
'▁orinasa'
'▁výsledku'
'▁ಹಾಗು'
'▁zaprt'
'▁zyrtare'
'党的十九大'
'▁nástroje'
'▁господарськ'
'trække'
'▁требует'
'ချက်များ'
'▁tragen'
'ታወቅ'
'▁fjölmiðla'
'楽'
'▁महिलाको'
'▁yhtey'
'▁майно'
'6,5'
'▁отказа'
'▁Sid'
'▁osobito'
'▁перестал'
'▁واشنګټن'
'ختار'
'jalo'
'▁Хувийн'
'▁koskeva'
'▁besit'
'7°'
'मित्य'
'▁Коп'
'▁магадгүй'
'▁pasirinkimas'
'▁Saj'
'▁Bumiputera'
'▁ಪು'
'▁context'
'умов'
'▁නෑ'
'▁SET'
'korra'
'▁ictimai'
'▁Empresa'
'▁વધારે'
'▁hazırda'
'əm'
'瀑布'
'▁Bendr'
'owej'
'ταγμα'
'▁echt'
'▁Rice'
'▁ವ್ಯಾಪಾರ'
'了您的學業和身心健康請不要沉迷於'
'▁précis'
'▁данни'
'▁шынықтыру'
'▁lokalit'
'▁penal'
'▁معلم'
'▁כיף'
'▁ຮຽນພາສາອັງກິດ'
'▁$10'
'หัวใจ'
'▁niż'
'顫'
'▁bendruomen'
'▁ترین۔'
'ปฏิ'
'▁maneno'
'▁ریاضی'
'▁ماہ'
'埂'
'▁Belang'
'ുമൊക്കെ'
'▁kuju'
'▁गण्डकी'
'▁الص'
'▁lukea'
'hiz'
'段階で'
'▁lampa'
'▁српских'
'सी'
'▁บาท'
'campur'
'вече'
'▁лёгка'
'ек'
'ിക്കും'
'▁ötən'
'▁Agencija'
'物品'
'▁تمرکز'
'ින්ම'
'▁ବହୁତ'
'一种'
'▁Op'
'▁síos'
'▁अड'
'ที่ใช้'
'Ganacsiga'
'▁Черкас'
'үнө'
'энерго'
'▁කියයි'
'▁المعاد'
'สาวๆ'
'ลม'
'▁news'
'▁Samtlig'
'▁launch'
'▁데이터를'
'ゲ'
'▁umeme'
'እኛ'
'▁editorial'
'479'
'▁Njeriu'
'▁Nachmittag'
'홈'
'toi'
'▁mallonga'
'▁utmärkt'
'ლება'
'▁odpoveď'
'box'
'▁несколько'
'ქურდ'
'स्'
'AKAR'
'ម៉ូ'
'▁convertirse'
'▁loại'
'▁zaj'
'34'
'វិថី'
'▁meira'
'iewe'
'▁التك'
'▁Cool'
'▁comigo'
'▁እንዴት'
'suunnitelma'
'०७३'
'▁सामने'
'▁жөнөт'
'▁karibu'
'slå'
'完全'
'▁олуттуу'
'▁सकती'
'▁суу'
'▁grob'
'▁మొదటి'
'▁teknis'
'▁märts'
'îyê'
'▁Την'
'▁भरती'
'პური'
'бага'
'ин'
'▁область'
'mping'
'▁Takže'
'▁officia'
'দ্বীপ'
'▁edellä'
'拉'
'▁Sku'
'잊'
'အက်ိဳး'
'ństwa'
'그'
'▁Sử'
'▁ۋاڭ'
'慶祝'
'▁бастап'
'▁Αθην'
'dai'
'▁literatur'
'rilib'
'सले'
'鱈'
'▁skulle'
'▁Rajoy'
'▁أفريقيا'
'▁varhais'
'▁šiek'
'▁сердца'
'▁πολλοί'
'▁string'
'أشياء'
'▁benar'
'▁ફરીથી'
'▁або'
'▁sella'
'▁şartları'
'뻡'
'Гар'
'▁územn'
'▁кол'
'▁патот'
'ванні'
'ándonos'
'kasin'
'▁Ня'
'én'
'▁مانده'
'▁Str'
'gizo'
'▁kyseise'
'▁nadaljevanje'
'这款'
'▁მყარ'
'တီး'
'ọc'
'可在'
'▁îmbunătăți'
'真空'
'وزارة'
'ចិញ្ចឹម'
'▁Гай'
'▁Nije'
'ੈਂਸ'
'āmies'
'▁අයි'
'ელზე'
'▁Πειραιά'
'تىل'
'ὕ'
'▁Carne'
'▁Больш'
'▁apmeklēt'
'BAL'
'▁Ç'
'▁miktarda'
'▁бирге'
'▁gesto'
'▁मागील'
'▁negativo'
'ି'
'शेष'
'ANJA'
'▁ĉe'
'▁მარტი'
'▁Овде'
'▁düşünme'
'ellenőriz'
'▁همانطور'
'▁eos'
'slaan'
'edi'
'lanishi'
'▁Մարտի'
'▁Кла'
'▁προφανώς'
'▁5)'
'▁ज्ञात'
'쌈'
'▁මිනිස්සුන්ට'
'rén'
'▁ძირითადად'
'өзү'
'▁чувствовал'
'leiro'
'▁általános'
'dēt'
'▁ھىندىستان'
'▁განცხადებით'
'▁homenaje'
'▁հարցում'
'ений'
'вата'
'贰'
'▁үлгі'
'▁gəlir'
'器'
'косовск'
'▁मद्दत'
'▁túi'
'▁Ủy'
'▁Ay'
'tuvu'
'▁біреу'
'ΛΗ'
'▁شار'
'があること'
'retan'
'▁Ringtone'
'▁ಫೆಬ್ರವರಿ'
'ائه'
'▁shake'
'▁vody'
'▁මිනිහ'
'▁livsstil'
'േറ്റ'
'▁برنده'
'▁سنويا'
'ရေး'
'▁یوں'
'▁ត្រាំ'
'▁डूब'
'▁свештеници'
'太阳'
'▁പ്രതീക്ഷ'
'地方政府'
'ሃይ'
'▁diminta'
'▁sneller'
'▁nettleser'
'▁состав'
'▁рожден'
'Map'
'▁максимално'
'нзи'
'▁देव'
'▁подобро'
'▁esparru'
'ДАР'
'▁потпредседник'
'▁තියෙන'
'sch'
'▁گھنٹے'
'▁setempat'
'▁वितरण'
'▁hægt'
'▁bringen'
'▁tyle'
'▁maksā'
'▁Ralph'
'▁ደቂቃ'
'▁עסקים'
'▁ослободува'
'▁jätka'
'sitz'
'уш'
'▁2019.'
'etc'
'▁Одоо'
'▁приключи'
'▁Cadw'
'▁اولیه'
'חופש'
'▁ברוב'
'▁atyre'
'▁flight'
'ჱ'
'ረጥ'
'▁סדר'
'▁האחר'
'▁dotychczas'
'válogatott'
'ለሰ'
'àtiques'
'▁يبقى'
'▁40%'
'▁singler'
'զ'
'▁passione'
'LMA'
'▁גוריון'
'▁signat'
'מסור'
'սում'
'▁kevyt'
'▁salut'
'桟'
'▁kwake'
'▁ליהנות'
'▁Nah'
'▁হয়েছে'
'者の'
'▁فكرة'
'သင့္'
'▁kusoo'
'颶'
'▁thử'
'▁Басты'
'cide'
'▁изглежда'
'858'
'▁görmək'
'▁računalnik'
'▁shtri'
'▁неко'
'▁ફર'
'▁क्रि'
'ใช่ไหม'
'▁Lars'
'▁ਜੰਗ'
'▁coinvolti'
'▁komandas'
'▁urobil'
'▁төлем'
'▁ਮੁਹਿੰਮ'
'▁Кызыл'
'▁hesabı'
'▁regjimi'
'▁uzna'
'솝'
'proszeni'
'ŘÍ'
'▁olu'
'▁seconda'
'سق'
'▁зробили'
'▁tyč'
'▁अनि'
'▁an'
'▁contul'
'▁kv'
'▁fotografija'
'神的'
'▁اعصاب'
'▁Ruben'
'▁eesmärgiks'
'▁תוכלו'
'▁sharaf'
'tický'
'▁rząd'
'▁лица'
'дает'
'ininku'
'▁швед'
'ેલી'
'▁alkalom'
'▁गरेपछि'
'▁аппараты'
'ლამ'
'udstyr'
'▁составляют'
'แดด'
'ጠቀሙ'
'mind'
'到'
'oca'
'ပါပဲ'
'သွင်း'
'▁الآ'
'澪'
'▁finns'
'▁Erfahrungen'
'▁akti'
'▁dureri'
'婞'
'▁présenté'
'▁مختلفی'
'কিশোর'
'發表'
'▁Software'
'өөр'
'הפך'
'▁දන්නවා'
'▁ажиллаж'
'▁láidir'
'明显'
'ೇಶನ್'
'▁kemaluan'
'jili'
'▁maşını'
'▁డిసెంబర్'
'▁tundub'
'ကျနော်တို့'
'ຂໍ້ຄວາມ'
'👮'
'▁Bilgisayar'
'▁fons'
'▁savivaldybės'
'▁przedstawia'
'▁incluye'
'▁vuodesta'
'▁размислува'
'▁стол'
'\uf0fc'
'▁हॉट'
'ˉ'
'▁napięcia'
'▁kampa'
'▁përdoruesit'
'nings'
'յու'
'▁பாடல்கள்'
'▁করি'
'▁צור'
'freiheit'
'▁tällöin'
'▁høy'
'▁λόγους'
'▁Vincent'
'▁sentido'
'▁esperanto'
'降'
'▁Ford'
'두'
'▁کہانی'
'garren'
'ischen'
'▁майбутньому'
'▁užsienio'
'▁kerap'
'▁ସଂ'
'τερο'
'不懈'
'优秀'
'▁Ağustos'
'▁ලෝක'
'ळी'
'▁казна'
'▁ЖК'
'LIGHT'
'▁ኣ'
'iyaan'
'▁प्रतिशत'
'了他'
'▁gazdasági'
'▁ພາ'
'▁currículo'
'▁کارکنوں'
'▁זאכן'
'▁tume'
'▁kacang'
'출입'
'▁Зміни'
'▁aconteceu'
'▁fasteigna'
'▁Verder'
'▁ಸಾಮರ್ಥ್ಯ'
'מדובר'
'▁Respect'
'心态'
'▁lokale'
'▁uspješno'
'▁pozri'
'▁จะ'
'tâ'
'旦那'
'俬'
'развити'
'▁സാ'
'짝'
'▁sorpresa'
'▁крају'
'▁splošni'
'คลิก'
'▁परिषद'
'▁хорошим'
'▁ଗ'
'積極'
'광고'
'锅'
'೮'
'▁kærlighed'
'▁İşlem'
'▁dispensa'
'事件'
'严肃'
'▁Rûsya'
'▁süresi'
'▁വീണ്ടും'
'▁turystów'
'elä'
'สาเหตุ'
'ื้อ'
'▁ordezkari'
'번'
'▁جدوجهد'
'▁rough'
'ส่อง'
'▁farma'
'▁америк'
'pildi'
'▁donné'
'▁esimerkiksi'
'▁இள'
'ที่ท่าน'
'▁সম্প্রতি'
'όνι'
'▁haja'
'▁zie'
'лива'
'меж'
'лич'
'▁medicamentos'
'▁произнес'
'▁surprised'
'▁Python'
'▁telephone'
'▁estratégica'
'▁విడుదలైన'
'谕'
'ošs'
'▁глави'
'päeva'
'▁níos'
'形式'
'ຂະແຫນງ'
'แขวน'
'bonus'
'▁venue'
'▁ഗ'
'▁ବନ୍ୟା'
'▁გსურთ'
'▁શિ'
'รายละเอียด'
'بلی'
'▁kompos'
'▁এশিয়া'
'BUS'
'窺'
'▁esetekben'
'ullanabilirsiniz'
'▁Şen'
'▁कालावधी'
'▁والس'
'เฮ'
'אדם'
'较高'
'▁байқа'
'▁elimin'
'▁socials'
'อารมณ์'
'▁ഞങ്ങള്'
'▁ይሆናል፡፡'
'▁qaar'
'▁mindkettő'
'מאַ'
'▁unge'
'sión'
'▁dvigub'
'▁načrt'
'ச'
'eru'
'▁பாடசாலை'
'▁миналия'
'▁rozum'
'▁وقو'
'▁تګلاره'
'▁দু'
'▁امنیتي'
'하겠습니다'
'▁ଜିଲ୍ଲାର'
'▁ඔබ'
'▁Bagong'
'▁হওয়ার'
'▁уништи'
'▁vergelijking'
'▁surgir'
'weyn'
'▁quería'
'▁nedjelju'
'붉'
'烦恼'
'▁სწორად'
'豋'
'▁moka'
'ውቅ'
'洗'
'▁الد'
'ට්ටි'
'shughulikia'
'▁nëntor'
'UNGAN'
'ografia'
'▁kepercayaan'
'向前'
'▁настоящего'
'SIN'
'▁Menengah'
'▁έτους'
'Roz'
'高兴'
'vč'
'▁obav'
'▁Γενική'
'粄'
'ቓ'
'▁शाम'
'に向けた'
'▁yhtiö'
'जन'
'▁ድር'
'զարգաց'
'▁Olga'
'ทุก'
'▁књижевни'
'▁adı'
'गढ़'
'餌'
'▁забяспеч'
'лишта'
'次回'
'লীগ'
'不算'
'▁חוג'
'▁סיבה'
'czą'
'▁curios'
'▁საერთო'
'нски'
'▁אפשרויות'
'▁chở'
'▁Fenomen'
'▁zahájení'
'꺾'
'▁ద్వారా'
'▁सुरुवात'
'เป้'
'▁χώρο'
'ατο'
'▁przygotowanie'
'▁Nakon'
'विद्या'
'▁ganar'
'▁konstruaĵo'
'▁veter'
'▁Ciclo'
'▁mange'
'nica'
'рис'
'▁revela'
'▁jy'
'▁другата'
'ገብ'
'ここ'
'power'
'▁معارض'
'▁සතියේ'
'▁הקול'
'▁میانگین'
'▁petit'
'取り'
'▁natuke'
'を深め'
'▁něco'
'千萬'
'▁Пленум'
'▁പോരാട്ട'
'▁publicado'
'error'
'▁lettera'
'ABI'
'zanî'
'▁bibe'
'ിരുന്നു'
'bres'
'▁τύχη'
'▁požiar'
'▁насочи'
'▁kaua'
'اڻو'
'ӨХ'
'▁dzisiejsze'
'压力'
'▁{{'
'ował'
'▁hästar'
'▁кровь'
'▁yhteis'
'ብሮ'
'▁במועד'
'▁मनोरंजन'
'▁Gwamna'
'印象深刻'
'幾天'
'▁پښتنو'
'▁проще'
'▁dispens'
'▁keluarganya'
'▁жестоко'
'▁послідовн'
'▁Julai'
'▁étage'
'▁شاخ'
'่น'
'χρονος'
'▁બુદ્ધ'
'صف'
'ყენე'
'mayıb'
'▁ngọt'
'ిస్తుంది'
'▁řeší'
'これらの'
'▁edição'
'▁naik'
'▁தென்'
'▁im'
'▁ugyanakkor'
'▁ಹೌದು'
'▁хорооллын'
'▁хувийн'
'▁шт'
'▁نقاشی'
'▁Әрине'
'כנים'
'ত্র'
'kevitra'
'৪৯'
'▁odwrot'
'▁entuziast'
'▁poti'
'ਵੇਂ'
'▁ولس'
'ுடன்'
'してから'
'▁ინტერნეტი'
'▁אייער'
'晝'
'▁doctrina'
'▁Відповідно'
'ORT'
'līgu'
'ावर'
'▁volant'
'翻译'
'ពិនិត្យ'
'മുണ്ട'
'дель'
'ĺ'
'▁заранее'
'▁রেল'
'▁dank'
'sunu'
'analiz'
'▁sisältö'
'▁ردعمل'
'笑顔'
'▁danış'
'▁Institution'
'▁allemand'
'▁sicher'
'▁ಪಿ'
'▁ಇಂದ'
'浴缸'
'zony'
'▁naquele'
'วาน'
'ाकडे'
'▁poliklinik'
'rosi'
'head'
'▁integral'
'ഷ്ട'
'▁waaweyn'
'kordse'
'▁நமது'
'▁фестивал'
'▁కేసులో'
'▁dodatni'
'iyah'
'噔'
'▁לכתוב'
'▁Mú'
'▁främst'
'▁Him'
'▁имени'
'skem'
'▁δυνατόν'
'陝'
'▁Róż'
'ിലേക്ക്'
'▁هرچند'
'▁írás'
'veld'
'同比'
'ايا'
'▁일을'
'▁വരുന്നു'
'▁bilim'
'ÁNY'
'евые'
'▁înapoi'
'▁крызіс'
'▁खोटाङ'
'IÑA'
'▁جنازہ'
'💁'
'▁kii'
'▁sprawdzić'
'▁szellemi'
'▁գլխ'
'меш'
'▁Trang'
'▁urbano'
'▁לפחות'
'▁rä'
'▁Nielsen'
'戦争'
'698'
'▁Mhaigh'
'ència'
'بشر'
'▁rękaw'
'▁Русији'
'မိတ္ေဆြ'
'໒'
'踫'
'▁thủy'
'▁kateri'
'पाळ'
'▁avuto'
'ขอให้'
'▁לעצמי'
'▁പെട്രോള'
'▁magyarok'
'เธอ'
'▁Βενιζέλο'
'హర్'
'sággal'
'EKO'
'КӨ'
'rebro'
'▁Następnie'
'▁המשך'
'形成了'
'נגל'
'▁edək'
'▁mengikuti'
'▁voulu'
'리어'
'▁chòir'
'▁કરીને'
'▁Defense'
'▁عکس'
'▁pogod'
'▁apsaugo'
'▁Fi'
'▁نڪري'
'▁ہے'
'趋'
'▁нөхөн'
'श्'
'ifu'
'▁internecie'
'▁آشنا'
'▁artrit'
'▁ਹੈਂ'
'僻'
'▁Brasov'
'▁нижче'
'▁vazhdon'
'փոփոխ'
'лучше'
'०२'
'▁kinderen'
'ۭ'
'▁الكتب'
'▁ठिकाण'
'▁ಮಹಿಳಾ'
'▁ចេញ'
'▁চট্টগ্রাম'
'錳'
'▁vinsæl'
'क्टर'
'▁Тук'
'▁Jupiter'
'နှင့်'
'▁сэдвээр'
'▁којих'
'▁न्यायालय'
'▁белгіле'
'လုပ်ငန်း'
'Ń'
'コ'
'▁užtikrin'
'59'
'▁выбран'
'▁задържан'
'abbigliamento'
'ावा'
'▁பற்றி'
'▁հանրագիտարան'
'▁демокрация'
'сну'
'▁আদায়'
'▁لگے'
'▁gedacht'
'▁vlast'
'▁céu'
'원의'
'▁orgán'
'▁جلوی'
'▁ମା'
'▁reja'
'▁Вінницьк'
'▁Hunger'
'▁fifanaj'
'▁કોલ'
'▁сфери'
'▁müü'
'▁शेतकरी'
'ገ'
'krishna'
'▁zainteresowany'
'飩'
'▁nuevos'
'пад'
'yos'
'▁sausio'
'Esperanto'
'沉'
'▁0.5'
'一站式'
'▁recurso'
'欄'
'▁раз'
'▁успокои'
'▁तस्मात्'
'▁asociacijos'
'陕西'
'庖'
'▁Środk'
'▁sällskap'
'▁ទី'
'▁affiliate'
'▁حوصل'
'▁Arbejde'
'▁propozycji'
'▁češ'
'05.2015'
'▁ದೂರು'
'▁aivan'
'▁поряд'
'▁черт'
'፳'
'▁Možnosť'
'▁آپریشن'
'▁треће'
'▁Tong'
'สีน้ําตาล'
'历程'
'isiin'
'سئل'
'ljallangan'
'▁అంటూ'
'▁දරු'
'▁základ'
'▁Scal'
'▁الوزير'
'▁resol'
'൫'
'նք'
'گیا'
'▁آلبوم'
'▁utila'
'用餐'
'▁—'
'sində'
'▁Flor'
'▁λαϊκή'
'זות'
'▁పర్యాటక'
'▁qiymətlər'
'퀼'
'▁சூழல'
'▁Петар'
'▁වංචා'
'▁nö'
'อยู่แล้ว'
'▁такої'
'ক্রম'
'短片'
'▁como'
'къ'
'تاح'
'▁NVIDIA'
'▁మరింత'
'▁wanaagsan'
'uðu'
'▁excuse'
'▁Ström'
'ım'
'점을'
'▁Participació'
'\uf030'
'篑'
'▁બોલાવ'
'▁მაგრამ'
'▁ಅಕ್ಟೋಬರ್'
'▁важливі'
'گویی'
'ເລຂາ'
'▁Massa'
'త్'
'▁пружа'
'▁ухапшен'
'뻘'
'▁رایانه'
'▁priekšā'
'▁Itoobiya'
'ในการรักษา'
'▁저작물'
'interpret'
'▁त्याचे'
'▁במשרד'
'▁دریځ'
'mahal'
'ЕКТ'
'▁komme'
'▁компанија'
'趨'
'ziņo'
'drømme'
'▁existeix'
'▁carry'
'▁escal'
'▁නිම'
'▁disseny'
'ດັ່ງ'
'meester'
'▁reconnu'
'prowadzenie'
'▁tejto'
'▁dijeli'
'▁બિ'
'▁smurt'
'David'
'інші'
'▁ploš'
'🅱'
'显然'
'شناس'
'▁לבנות'
'नः'
'▁Foi'
'вързан'
'▁용어'
'▁Letras'
'鏤'
'▁fiskal'
'▁cogita'
'▁közölte'
'▁ഇവിടെ'
'НИМ'
'şî'
'▁הצלחת'
'▁आतंकी'
'▁variante'
'▁ايئن'
'▁හැද'
'▁Eigentümer'
'▁tolerant'
'\ue6ad'
'▁період'
'▁zalet'
'▁સૂર્ય'
'▁முதல்'
'▁कलाकार'
'▁alternatyw'
'иот'
'連線'
'ՈՎ'
'崙'
'游泳池'
'▁pregunta'
'▁argitaratu'
'ayay'
'רגיש'
'▁טרי'
'งั้น'
'散發'
'▁вызвал'
'২০১৮'
'▁yhä'
'▁Radi'
'▁vírus'
'よろしく'
'▁Þannig'
'▁cyhoeddus'
'تصدير'
'▁Методи'
'▁fanohanana'
'▁Mi'
'▁Genova'
'ฦ'
'▁zal'
'▁loved'
'acció'
'▁הצ'
'▁mjesec'
'▁દિવ્ય'
'▁იმედ'
'▁прийти'
'443'
'ระเบียบ'
'▁другом'
'തന്നെ'
'▁Barro'
'ადა'
'▁смисла'
'▁результат'
'▁Iako'
'▁марка'
'▁sortzeko'
'瓏'
'祚'
'▁tok'
'▁معمولا'
'▁პირველად'
'დევ'
'zuka'
'▁hydraul'
'▁nodokli'
'▁اورژانس'
'▁narzędzi'
'фос'
'▁varma'
'▁тіпті'
'▁Hånd'
'▁naturlig'
'▁ekzemple'
'▁ficaram'
'▁පේන්න'
'▁தேர்தலில்'
'Norge'
'▁Ding'
'▁Πολιτική'
'▁жазуучу'
'642'
'ЛІ'
'ští'
'▁prejudici'
'off'
'рых'
'ώσει'
'ถอน'
'telor'
'▁Одбор'
'▁негизинде'
'ति'
'ův'
'▁ആശങ്ക'
'jū'
'▁दौरान'
'くなる'
'紧张'
'钕'
'кач'
'▁viri'
'רכוש'
'гун'
'▁feito'
'▁реконструкция'
'▁سلول'
'▁روشن'
'ляет'
'ใช้บริการ'
'ไม่ควร'
'▁গোল'
'▁публ'
'▁Ghana'
'magan'
'▁матеріально'
'FER'
'▁daga'
'АНД'
'▁işletme'
'▁eleccions'
'▁والاست'
'stupňov'
'▁regionu'
'▁Slovenské'
'▁Föreningen'
'▁আল'
'▁accoglie'
'大きく'
'▁ölkələrin'
'qay'
'▁tự'
'▁feire'
'▁പിന്നില്'
'▁ülejäänud'
'▁Vivo'
'▁Rekomend'
'▁Primaria'
'▁юго'
'▁գործակալության'
'ועד'
'▪'
'zib'
'satunya'
'▁enega'
'陣'
'κεντρ'
'▁mici'
'NOS'
'▁Frankrike'
'レー'
'іти'
'耻'
'▁irabazle'
'▁మరో'
'ヾ'
'▁åter'
'▁وم'
'▁באופן'
'▁ባለ'
'▁պահին'
'주시면'
'ുകാർ'
'SEN'
'诩'
'▁Евгений'
'▁դրությամբ'
'sugli'
'▁narahat'
'▁sarja'
'▁częst'
'▁පුද්ගලයා'
'▁Mimi'
'회계'
'▁literaturo'
'▁מנחם'
'▁कार्यवाही'
'▁एकदा'
'руба'
'▁negyedik'
'▁bevorder'
'▁संलग्न'
'▁ଘଟିଛି'
'▁Αγγλία'
'▁पासवर्ड'
'ilishi'
'▁Можно'
'കളാണ്'
'ضرب'
'▁위치한'
'螨'
'▁sky'
'▁področju'
'▁Gua'
'▁මට්ටම'
'▁الأمراض'
'▁professionell'
'យ'
'ฟิน'
'▁ಗ್ರಾಮ'
'▁prehľad'
'חלה'
'▁Kön'
'זרוע'
'▁дүнд'
'ลพบุรี'
'អង្គរ'
'▁산'
'▁ਯੂਨੀਵਰਸਿਟੀ'
'ngo'
'▁টাইগার'
'▁گوشی'
'▁adoptar'
'▁easy'
'रिंग'
'광주'
'ოთ'
'▁แขวง'
'▁informacji'
'передач'
'డానికి'
'▁부여'
'▁ځای'
'孝'
'▁susceptible'
'時まで'
'▁керівників'
'bedryf'
'▁ସୁନା'
'મંત્ર'
'▁സോഷ്യല'
'ָב'
'മാത്രം'
'▁berasal'
'టం'
'ઠ્ઠ'
'▁Ek'
'HF'
'▁Hammer'
'时刻'
'▁đối'
'႐ုပ္'
'▁მსახურ'
'▁format'
'▁áfram'
'▁lemon'
'ארוחה'
'▁विकास'
'ਿਓ'
'▁стремя'
'▁පුළුවන්'
'ીંગ'
'ତନ୍ତ୍ର'
'insegna'
'這樣'
'那麼'
'▁Šie'
'▁લોકસભા'
'▁comun'
'▁sambutan'
'გენი'
'ৎ'
'▁satelit'
'▁გამყიდველი'
'▁modifier'
'▁אפ'
'nými'
'▁OCH'
'tals'
'▁придоби'
'říš'
'嘌'
'tegemea'
'一定程度'
'▁Crew'
'લખ'
'වෙ'
'▁рекомендую'
'▁అర్జున్'
'竹'
'▁ಬೇರೆ'
'▁niveaux'
'A'
'▁aldı'
'ಮ'
'▁зуун'
'ប្រា'
'፥'
'sanya'
'▁აწ'
'▁Schwa'
'▁вирощува'
'▁ເກມ'
'お菓子'
'priklausomybė'
'▁Վար'
'▁लवकरच'
'פרט'
'878'
'σουμε'
'▁ինտերնետ'
'άγματα'
'য়া'
'uti'
'▁Mejor'
'▁better'
'▁മൊ'
'▁сургуулийн'
'обласного'
'δων'
'▁регионе'
'▁jiray'
'▁Salón'
'▁ταχύ'
'🔊'
'▁жылға'
'交换'
'▁ഏതെങ്കിലും'
'屯'
'▁ଅବସ୍ଥାରେ'
'▁ආකාරයට'
'▁afslætti'
'▁Табл'
'▁najmniej'
'▁لک'
'▁кафедр'
'照'
'▁Сарајеву'
'깊'
'▁ажурира'
'▁охорони'
'總經理'
'pelit'
'▁problemen'
'▁rozpozna'
'MO'
'▁данас'
'협회'
'▁Вол'
'三位'
'ให้ดู'
'▁နဲ့'
'той'
'來到'
'qal'
'▁ghế'
'▁staat'
'▁කෙනෙකුට'
'ณัฐ'
'pell'
'▁tilkynningar'
'▁بھٹو'
'▁στο'
'▁Wednesday'
'▁shtëpinë'
'ារ'
'▁vrijedi'
'ছিল'
'▁कृषि'
'▁ನೋವು'
'▁dezbatere'
'ៃ'
'新华社'
'✊'
'▁vært'
'▁Gwobr'
'▁ക്ഷണിച്ച'
'▁polițiști'
'ırlar'
'▁promijeni'
'emos'
'▁democrática'
'letta'
'搭載'
'▁गेल्या'
'μόν'
'▁autorização'
'▁Herre'
'▁थालेका'
'、2'
'ocupa'
'▁Ακόμη'
'▁recomendado'
'▁ਅੰਕ'
'പൊ'
'▁ஒரே'
'▁යුතුයි'
'▁bilang'
'▁mik'
'▁сомнева'
'蕚'
'▁ենթադր'
'▁امراض'
'舰'
'▁Subha'
'颈'
'נאַ'
'ೊಬ್ಬ'
'▁പരിസ്ഥിതി'
'▁دېڭىز'
'蜇'
'▁mümkün'
'وثائق'
'549'
'▁Fad'
'▁prvem'
'чёт'
'▁συγγραφέα'
'ിരിക്കുകയാണ്'
'▁շուտ'
'可'
'▁invitati'
'▁മൂന്നാം'
'▁ՌԴ'
'▁રોક'
'笹'
'▁болушу'
'▁גוגל'
'▁זונטאג'
'ၚ'
'蓼'
'فحص'
'thik'
'▁හුවමාරු'
'jm'
'▁rûnişt'
'hiwalay'
'▁երկաթ'
'▁ଯାଇଥିଲେ'
'Отвара'
'▁#'
'▁gewählt'
'▁ëndërr'
'▁Qadri'
'ФА'
'ყა'
'투'
'▁Společnost'
'▁مخالفت'
'▁Israhel'
'▁nostra'
'ール'
'▁Bedankt'
'▁litsenziya'
'▁salmon'
'dna'
'いち'
'ေတြနဲ႔'
'بواب'
'▁arbejdsmiljø'
'▁पाहा'
'႐ွင္'
'▁Сай'
'▁noticed'
'▁thiện'
'ны'
'▁നമുക്ക്'
'แวะ'
'ปั๊ม'
'▁triliun'
'LOW'
'▁Quảng'
'▁Hivyo'
'保密'
'Commun'
'▁what'
'GAY'
'▁PËR'
'સ્ટ'
'▁advocate'
'▁каб'
'▁Lemon'
'▁εσύ'
'▁ćete'
'ssä'
'▁құндылықтар'
'▁ਭਾਰਤੀ'
'▁Bistri'
'▁Trgov'
'▁ēdienu'
'▁позиція'
'▁shfaq'
'噯'
'▁президента'
'▁эрхлэх'
'other'
'leisti'
'ඩා'
'telemaan'
'▁voisin'
'▁чи'
'\uf534'
'▁спроведување'
'▁Նյու'
'skóla'
'▁Kreditkarte'
'▁diversi'
'▁dikembangkan'
'▁mājā'
'▁шууд'
'▁ինչպե՞ս'
'▁ubijen'
'LIG'
'rep'
'▁МВР'
'▁ഭീകര'
'▁զինվորական'
'▁mogućnosti'
'▁ക്ലാസ്'
'▁nosaka'
'▁dəyişdiril'
'▁गुल्मी'
'▁berpotensi'
'景观'
'▁rekomendasi'
'小時'
'▁milijard'
'▁nedenle'
'▁indít'
'▁Každá'
'▁ڀلا'
'▁кро'
'ខូច'
'▁Greece'
'matult'
'▁үйлдвэрлэл'
'ać'
'▁zanesljiv'
'▁माना'
'▁कशी'
'▁veikalā'
'▁viikonlopu'
'ຕໍາ'
'ത്വ'
'▁domaine'
'▁Reader'
'酶'
'▁processo'
'▁претстава'
'▁Категория'
'▁Mos'
'וסט'
'▁exigi'
'сентябрь'
'▁varustettu'
'▁Gemeinde'
'IRA'
'▁актив'
'olojik'
'▁numeroase'
'ຮັບຜິດຊອບ'
'GC'
'▁išli'
'▁χρήσης'
'▁sykehus'
'▁gadget'
'▁strain'
'信用貸款'
'▁konzum'
'▁Borg'
'ύχ'
'▁жанчыны'
'▁dibuktikan'
'fallen'
'劝'
'▁collega'
'▁գործող'
'შვილის'
'عادة'
'▁jatkuu'
'▁alcun'
'▁стерил'
'▁Tunnel'
'▁دریاچه'
'នឹង'
'іє'
'キャラクター'
'▁afslutte'
'だということ'
'▁Kia'
'▁իրեն'
'ล์'
'▁नेतृत्व'
'▁haluat'
'▁rang'
'回來'
'央视网'
'眼前'
'ਰਨ'
'▁педагогика'
'▁kelti'
'▁urmând'
'ಗಳಲ್ಲಿ'
'▁Implement'
'▁relacionados'
'पृष्ठ'
'▁ಕೈಗೊಂಡ'
'પૂર્વક'
'▁kamay'
'biór'
'▁చెప్పాడు'
'▁maneh'
'▁അദ്ദേഹ'
'▁tepung'
'izáció'
'መስቀል'
'▁povezanost'
'▁dhib'
'▁uztic'
'长沙'
'▁kemarin'
'▁хэдий'
'▁utamaduni'
'ριο'
'▁Boko'
'▁ndihmon'
'▁Magister'
'▁rapidement'
'▁rode'
'世代'
'▁главным'
'▁address'
'බර්'
'▁Rəsmi'
'전자'
'▁dodal'
'▁yaptır'
'▁FE'
'▁përmbajtje'
'ほんの'
'揆'
'▁Tanàna'
'▁асфальт'
'တံခါး'
'▁letter'
'▁peste'
'▁পারে'
'logist'
'▁školu'
'▁taxe'
'▁جرم'
'主力'
'▁뿌리'
'▁commune'
'▁νομίζ'
'▁Seseorang'
'▁મમ્મી'
'▁rugam'
'▁moterims'
'ଲେ'
'▁tržiš'
'▁kiekį'
'cznym'
'▁септември'
'▁telefone'
'▁लगने'
'▁õppida'
'▁qadağan'
'▁Selbst'
'▁kitalál'
'7.0'
'▁łańcuch'
'▁परिवर्तन'
'▁мисија'
'烂'
'▁ш'
'▁detsember'
'▁وفي'
'masının'
'疇'
'▁wako'
'Ἠ'
'▁ցածր'
'▁تیسری'
'шиг'
'ניות'
'ությունների'
'文艺'
'▁вашата'
'▁jeni'
'▁ide'
'ตลก'
'▁이상의'
'▁ملنے'
'▁έναν'
'ваньне'
'▁زنجان'
'▁решении'
'▁пореск'
'žený'
'▁Menjadi'
'旦'
'▁ställer'
'▁civiliza'
'▁gegen'
'▁Qe'
'▁баскетбол'
'▁kuji'
'▁sklepu'
'▁घूम'
'▁општи'
'tief'
'▁Срок'
'▁жара'
'▁alîkariya'
'mailaka'
'▁نمایند'
'▁оставка'
'▁isku'
'渕'
'สรรพ'
'عي'
'▁المشاريع'
'たくない'
'▁gesammelt'
'८९'
'▁Sev'
'▁dixe'
'▁стаць'
'▁Freundin'
'▁plac'
'træ'
'大多'
'▁Krankenhaus'
'▁पर्याप्त'
'人數'
'ראו'
'▁ילדים'
'▁კორ'
'ghe'
'สยาม'
'▁kencing'
'▁gesucht'
'▁état'
'▁ଉଇକି'
'▁stovky'
'▁Ղարաբաղի'
'▁රාමා'
'柴'
'kväll'
'▁тен'
'▁ფლეშ'
'▁Кам'
'▁paikalla'
'▁регионот'
'▁관심'
'▁Rog'
'▁माहिती'
'оген'
'螺'
'▁Century'
'▁Tehniskā'
'▁leite'
'▁जवाफ'
'▁Akademiyası'
'▁хиљада'
'itä'
'。。。'
'フォロー'
'▁názvu'
'όμενο'
'早在'
'▁майна'
'▁ระบบ'
'رف'
'▁Atribuite'
'▁아니다'
'schließ'
'▁třetí'
'▁Viz'
'˥'
'▁ਕਾਬੂ'
'▁ment'
'▁samstarf'
'▁스'
'álom'
'▁rezultatų'
'中古車'
'▁වුණ'
'▁గోవింద'
'UE'
'▁alternativa'
'▁цэн'
'czu'
'загальне'
'▁تصویر'
'▁تۈرك'
'▁refund'
'▁בחינם'
'▁budowlanych'
'▁سم'
'▁ಕಾಮೆಂಟ್'
'感受到'
'▁moest'
'▁பலி'
'▁amei'
'▁මචං'
'▁সালমান'
'▁මනුෂ්'
'▁mutfağı'
'▁ସଂଖ୍ୟା'
'鏡'
'▁σχέδιο'
'▁eingerichtet'
'▁exército'
'SKOLA'
'▁numatyta'
'افتتاح'
'▁fondo'
'kk'
'▁ముందే'
'జార్'
'jes'
'▁automat'
'▁wealth'
'▁التشغيل'
'▁квалифика'
'cco'
'inė'
'▁(22'
'▁konania'
'巩固'
'▁પ્રદેશ'
'▁Xa'
'ボタン'
'▁Сиз'
'▁Pengetahuan'
'halagang'
'▁лікар'
'重慶'
'▁제외'
'▁sıralama'
'돔'
'だった'
'▁güncelleme'
'LINE'
'้ย'
'স্ক'
'ався'
'▁premsa'
'થા'
'▁Кине'
'▁érkezett'
'▁تقدیر'
'离开了'
'▁ٹیکس'
'ዲያ'
'▁elementów'
'▁dünyasını'
'চর্চা'
'▁Phú'
'▁ماس'
'▁Формула'
'ლების'
'沙'
'lərimiz'
'▁prach'
'ימה'
'▁Lung'
'bantur'
'◢'
'▁Xəbərlər'
'just'
'▁Urteil'
'▁아이'
'▁atpūta'
'▁stadi'
'խո'
'வும்'
'▁הכדור'
'兵'
'▁zgodovine'
'Ù'
'▁внимава'
'▁ಇತರ'
'▁مراحل'
'▁uzima'
'▁Apartament'
'ปริ'
'▁ટૂંક'
'▁им'
'Link'
'▁contas'
'Portugal'
'丝毫'
'▁klare'
'▁palo'
'dono'
'▁porn'
'▁mənbələr'
'▁Bax'
'▁līmeņu'
'చర్'
'▁maupun'
'ان'
'▁האר'
'▁Leonardo'
'▁Birmingham'
'▁המשטרה'
'▁qildi'
'▁lieu'
'▁तहत'
'förhållanden'
'▁bölgesi'
'-06'
'yitir'
'irala'
'OKA'
'▁поступово'
'▁Komitəsi'
'▁kveð'
'▁있었던'
'▁света'
'▁karrierë'
'ယူ'
'▁believe'
'棱'
'▁جبر'
'▁leithéid'
'อุดรธานี'
'εφ'
'ซื้อขาย'
'▁gonosz'
'▁средства'
'dret'
'▁жи'
'▁उपमहानगरपालिका'
'▁začátku'
'трымліваюць'
'▁Fy'
'的女人'
'esse'
'▁العصر'
'▁беларускай'
'▁nájdete'
'plati'
'rojn'
'▁ئات'
'orat'
'▁දිගු'
'▁Երկրորդ'
'▁ŝatas'
'▁objetiva'
'▁हुने'
'▁αντικειμεν'
'收取'
'▁različitih'
'▁മുല'
'▁ogóle'
'▁përdorur'
'▁recognize'
'▁เรา'
'▁फडणवीस'
'▁Элчин'
'▁ঢাবি'
'▁storica'
'dul'
'▁Tổng'
'رع'
'▁predviđen'
'▁స్వా'
'▁aumenta'
'▁príliš'
'▁EMS'
'קופה'
'▁igri'
'▁መል'
'▁osztrák'
'увачки'
'hib'
'▁nghĩa'
'▁condiciones'
'▁tavoite'
'မွတ္တမ္း'
'▁върху'
'trze'
'▁Übersetzung'
'▁രാജ്യ'
'Волинь'
'ړۍ'
'▁הפנימי'
'▁eolas'
'▁erhöhen'
'信仰'
'▁башкы'
'▁плаќа'
'▁pieniä'
'▁kënaq'
'▁παρουσιάζει'
'▁تۇتۇپ'
'्छु'
'vant'
'▁haluaisi'
'สหรัฐ'
'jang'
'түр'
'▁Folgen'
'schläge'
'ကွယ်'
'▁käytetään'
'╉'
'▁interno'
'SOL'
'РУ'
'ผ่อน'
'▁κλειδ'
'▁teórica'
'▁bred'
'▁ваше'
'מכונה'
'▁Згідн'
'▁المتعددة'
'▁операция'
'້ອນ'
'▁blogu'
'▁රංගන'
'▁зададе'
'▁траје'
'▁watu'
'▁fjale'
'▁چوندا'
'ፋይ'
'▁לבית'
'▁Future'
'▁Очаква'
'▁wodę'
'구매'
'☁'
'▁looked'
'▁Felhasználás'
'▁control'
'▁rød'
'▁Bac'
'▁трети'
'▁jūras'
'won'
'▁sammenligne'
'▁שונים'
'nava'
'▁itibariyle'
'▁Złot'
'yanın'
'▁negro'
'▁berjochten'
'▁проекты'
'かり'
'91)'
'▁omstandigheden'
'▁ιδιαίτερη'
'▁қатынастар'
'ato'
'▁mozos'
'٬'
'▁రాజ్'
'▁필요가'
'HARA'
'▁utarbeide'
'▁nihil'
'ƙ'
'保护'
'▁живет'
'▁budget'
'▁જેમાં'
'▁clearly'
'▁ödə'
'药品'
'▁نفسها'
'前来'
'īns'
'အန္'
'▁licenc'
'▁დადგენილ'
'▁Θεσσαλονίκη'
'▁deutsch'
'▁өткізілді'
'ວາ'
'▁মালয়েশিয়া'
'▁ስምምነት'
'▁Գիտ'
'тылган'
'▁అంబ'
'ডার'
'ลูกทุ่ง'
'▁settimane'
'▁începând'
'สต'
'▁ለውጥ'
'▁اطلاعیه'
'▁polic'
'แฟนคลับ'
'▁tadqiqotlar'
'▁gennemført'
'▁Опера'
'▁ايضا'
'▁Výsledky'
'\uf6dc'
'▁revelou'
'▁δράσ'
'யு'
'▁जहाज'
'▁vsakega'
'画像'
'▁podmienkach'
'▁versi'
'▁rastî'
'рац'
'了个'
'▁semata'
'▁donacij'
'▁வாரிய'
'拿到'
'൦'
'▁Geplaatst'
'ňový'
'▁Fier'
'▁eklezio'
'▁تاریخ'
'မြောက်'
'▁эх'
'▁കാവ്യ'
'▁связанные'
'▁वापर'
'▁lunar'
'Pašvaldīb'
'假设'
'▁oricine'
'▁luna'
'▁ګډ'
'▁ನನ್ನ'
'▁paslaugos'
'ហាង'
'▁xăng'
'YB'
'▁snabbt'
'▁نداشته'
'▁gösteri'
'▁చూద్దాం'
'▁Immun'
'▁ვითარება'
'▁жатады'
'TING'
'ДІ'
'▁belangstelling'
'ማስታወቂያ'
'▁ಆಂಡ್ರಾಯ್ಡ್'
'အခ်ိန္'
'▁Använd'
'▁audio'
'読む'
'▁hullu'
'▁tomonlama'
'พากย์ไทย'
'珠'
'▁Absolut'
'▁Regeln'
'你好'
'ppu'
'▁spille'
'meld'
'▁successful'
'▁Даже'
'Ð'
'▁Агенциј'
'▁મોટા'
'rì'
'航班'
'▁تکنالوژي'
'ঁ'
'▁економ'
'▁విద్య'
'▁представља'
'▁hjärn'
'ાની'
'ונן'
'ului'
'シン'
'rup'
'ין'
'▁назвать'
'▁homofil'
'▁Samtidig'
'窄'
'▁کلا'
'▁tour'
'▁मात'
'▁kļū'
'▁දාන'
'▁ವಾಟ್ಸ್'
'▁թվական'
'▁Spille'
'▁Integer'
'▁ഒറ്റ'
'▁lokál'
'▁Artis'
'.[3]'
'▁ወገን'
'mba'
'▁Brak'
'▁شوم'
'▁ആയി'
'▁ግ'
'▁сваё'
'▁φθ'
'ƯỚC'
'不确定性'
'▁Orange'
'▁پلاس'
'▁Ticaret'
'▁ਜਰਮਨ'
'▁ଆଣି'
'вије'
'▁gafodd'
'ອົງການ'
'健全'
'▁катэгорыі'
'▁nebūtų'
'▁sub'
'ődés'
'▁رجوع'
'结束'
'▁поездки'
'▁फरक'
'▁ថៃ'
'скай'
'▁Manager'
'▁Így'
'▁трансл'
'请问'
'▁امشب'
'▁vẻ'
'toksik'
'▁him'
'▁ljetn'
'▁Siste'
'ټر'
'ẳ'
'▁хурдан'
'▁घेणे'
'▁በጋራ'
'чор'
'▁хийдэг'
'ىلگەن'
'▁1-'
'kesk'
'сен'
'▁рассказ'
'भंग'
'▁Chontae'
'дають'
'▁паўночна'
'▁italiane'
'ేశ్వర'
'條件'
'自分自身'
'label'
'On'
'▁Advokat'
'gre'
'▁Zaman'
'ตรวจสอบ'
'ອອນໄລນ໌'
'▁jolla'
'▁แต่ก็'
'rimit'
'inizde'
'▁būv'
'ነቱን'
'▁පහසුකම්'
'獎勵'
'▁1-4'
'▁опас'
'shuv'
'μπό'
'ਹਰਾ'
'▁बर्ष'
'▁वाज'
'ตั๋วเครื่องบิน'
'ショー'
'вак'
'▁hap'
'Pub'
'cred'
'▁tüket'
'▁zapewnia'
'บาย'
'▁chw'
'መዛ'
'▁Alo'
'▁φορολογ'
'▁üzere'
'▁chambre'
'▁ապագա'
'▁دیدم'
'▁Француз'
'▁ссылкой'
'imit'
'ខ្លាំង'
'▁протек'
'▁dins'
'已是'
'▁beint'
'วันที่'
'▁негізі'
'▁стварыць'
'▁noskatīties'
'▁հրաշալի'
'▁золото'
'▁tiềm'
'たま'
'▁tilbringe'
'undi'
'▁obrazov'
'話說'
'▁SMP'
'▁сърце'
'▁pakkumise'
'[40]'
'▁mahal'
'دعاء'
'▁Xidmətinin'
'卻是'
'▁Jõu'
'▁കൊണ്ടുവര'
'▁feature'
'▁ledig'
'▁regiono'
'▁consideration'
'▁Баянгол'
'▁ekologi'
'▁मेघ'
'▁ICT'
'▁өлең'
'▁හැමෝටම'
'いつも'
'良かった'
'▁Červen'
'▁ਵਿ'
'▁ბევრ'
'▁นม'
'▁многу'
'chor'
'▁독특한'
'od'
'▁díky'
'▁ĉef'
'ڑنے'
'áját'
'▁destinati'
'▁Guud'
'▁Pf'
'เช้า'
'kv'
'▁odnosno'
'▁լինելու'
'▁μερικές'
'konferenz'
'▁pagtata'
'▁tão'
'▁bello'
'▁informasiya'
'ການສຶກສາ'
'▁τέτοιες'
'▁UP'
'▁Погледнете'
'▁value'
'▁улицу'
'▁proximité'
'▁جمہوریت'
'▁վերցր'
'heshimiwa'
'▁maty'
'贏'
'▁알'
'ቻለሁ'
'ග'
'▁ذكر'
'වෙන්නේ'
'▁panjohur'
'▁εξωτερική'
'minta'
'ювач'
'▁Науково'
'▁ମିଳିଲା'
'motor'
'ម្នាក់'
'भाव'
'▁тірке'
'▁Βιβλ'
'៦០'
'▁suoraan'
'▁Жара'
'▁καλοκαίρι'
'▁دانشمندان'
'▁cart'
'▁Hag'
'▁እኔም'
'hovo'
'▁ngaphambi'
'▁Srpsko'
'▁transformación'
'▁utveckling'
'▁političke'
'▁പോയി'
'▁vers'
'▁zespół'
'住院'
'▁რეგიონში'
'▁$$$'
'▁ଡାକ୍ତର'
'▁razgled'
'▁Mudane'
'▁majoritatea'
'の流れ'
'دخال'
'▁lamentable'
'▁سڪ'
'▁славян'
'▁usturoi'
'▁মন'
'▁당신이'
'▁strādā'
'▁fornire'
'▁müdiri'
'▁بالای'
'ecká'
'Dienstleistungen'
'▁ಮೌನ'
'▁дву'
'糊'
'qitish'
'▁Titanic'
'▁ietekmē'
'▁socialista'
'▁müasir'
'▁sağlar'
'▁tenue'
'Å'
'YouTube'
'ologiczne'
'▁өөрийнхөө'
'▁गजल'
'▁Church'
'ഴു'
'▁Afin'
'▁peniaze'
'アーティスト'
'▁pourront'
'▁শুভেচ্ছা'
'葺'
'ողական'
'▁известува'
'▁jobban'
'花蓮'
'▁passeggia'
'▁fæ'
'aĵojn'
'▁gráfico'
'▁បុរស'
'נעמען'
'▁Komitə'
'有效'
'▁velikost'
'▁výhod'
'traction'
'▁बनाने'
'▁benign'
'▁Vul'
'▁iniciar'
'សព្វ'
'แบรนด์'
'專'
'▁dollari'
'▁තාත්ත'
'▁Yayın'
'銷售'
'▁carrer'
'ហា'
'ॅम'
'▁ब्लग'
'BS'
'▁vendas'
'ાવવા'
'kende'
'ឃ្មុំ'
'▁javítás'
'yaka'
'रस'
'▁נייעס'
'▁താങ്കള്'
'พระราชทาน'
'ించడానికి'
'ρά'
'liau'
'▁gelmesi'
'▁જયારે'
'७८'
'▁एकाच'
'▁Outlet'
'▁गोड'
'▁selfs'
'▁qay'
'▁teremt'
'▁ನಟಿ'
'▁නාවික'
'▁органах'
'出席'
'▁ochorenia'
'ໂມ'
'▁ಕೊನೆ'
'▁إح'
'જ'
'▁vaso'
'kriminal'
'▁Lí'
'▁венча'
'▁exercitation'
'▁Zvolen'
'▁Přidat'
'了我'
'▁juventud'
'▁داند'
'яне'
'▁pema'
'▁asosan'
'▁υπο'
'-01'
'▁verilen'
'▁these'
'▁Novell'
'ชื่นชอบ'
'▁લીધે'
'▁ကျ'
'▁Mun'
'▁Chap'
'ீங்களா'
'▁soodsa'
'lei'
'▁Nous'
'▁Card'
'üstü'
'ांची'
'▁kí'
'137'
'▁Unión'
'▁N'
'▁самому'
'ထည့်'
'▁nachhaltige'
'▁පො'
'▁małe'
'▁أمريكا'
'\uf33a'
'▁مالومات'
'▁mieszka'
'ouvrage'
'▁Институт'
'ጽሕፈት'
'▧'
'▁tall'
'▁рисков'
'▁haj'
'▁പോക'
'▁البحرية'
'▁ખુબ'
'▁ملف'
'▁судом'
'▁μπορείτε'
'▁leaders'
'發出'
'▁zêdetir'
'ঘাত'
'헵'
'▁myynti'
'▁ŝajn'
'▁서버'
'Реал'
'▁Rogaland'
'စိတ္'
'malayalm'
'▁robot'
'▁həmin'
'dge'
'▁ప్రో'
'▁portugal'
'▁لنڊن'
'▁ஆகும்'
'竜'
'ഒടുവില്'
'▁ಸಂಸ್ಥೆಯ'
'The'
'kampanj'
'▁تائالا'
'▁đỏ'
'▁pār'
'▁التربية'
'▁(5)'
'ँदै'
'▁ипак'
'▁gent'
'ລະ'
'▁lartë'
'▁სკოლა'
'ekben'
'para'
'▁định'
'▁Từ'
'膠'
'▁मजा'
'我们会'
'විල්ල'
'们'
'▁medo'
'արտ'
'rej'
'▁Şöbəsi'
'▁наставе'
'▁صحافي'
'larni'
'▁informāciju'
'▁ያደርጋል'
'貌'
'▁tínedžerky'
'▁пайдалану'
'▁1971'
'▁දෙපාර්තමේන්තුව'
'▁sukienka'
'▁lig'
'habita'
'▁પોસ્ટ'
'мер'
'▁מרכזי'
'▁ඉඳලා'
'▁einungis'
'▁Verfügung'
'▁usluge'
'착'
'▁دادن'
'▁историја'
'▁Harri'
'▁gaur'
'kauden'
'▁Dantza'
'▁hỏi'
'կի'
'▁presă'
'ঽ'
'彡'
'חברה'
'jahr'
'▁penanganan'
'▁between'
'▁кибер'
'fürdő'
'▁дапамогі'
'▁وکیل'
'▁ഭക്ഷണം'
'портал'
'ème'
'рівня'
'ڙهي'
'婉'
'vārd'
'จิน'
'▁ਦਿੱਤਾ'
'▁ervoor'
'스럽'
'▁petani'
'▁traurig'
'ないよう'
'▁parādīt'
'▁أقل'
'IL'
'ոյ'
'▁زلزل'
'▁Εκτός'
'օրինակ'
'▁කෝටි'
'▁lur'
'bilidade'
'▁түүхий'
'▁dirigido'
'▁착'
'▁occidental'
'نظم'
'▁укључи'
'▁예'
'▁ഗോ'
'触'
'▁නොපෙන'
'▁formato'
'其實'
'▁conseguenze'
'▁교회'
'черк'
'▁wearing'
'▁cad'
'ичної'
'无奈'
'▁Unterkunft'
'▁cyllid'
'▁ел'
'と考える'
'άνε'
'▁моцна'
'ထွန်း'
'▁објекти'
'istické'
'▁Ró'
'▁થયું'
'▁кисело'
'ସୁ'
'jai'
'▁കഴിയില്ല'
'▁Producent'
'▁عبدالرحمن'
'▁эти'
'nize'
'local'
'▁înalt'
'Audi'
'íti'
'▁afmæli'
'▁góp'
'▁tehetség'
'▁کلک'
'▁prob'
'▁очер'
'чулардын'
'ვდი'
'▁አስፈፃሚ'
'ց'
'▁стрес'
'agence'
'▁מען'
'▁Û'
'ቆይ'
'▁বাবে'
'osios'
'▁medisin'
'▁писать'
'▁bheadh'
'▁country'
'ყავი'
'提交'
'▁evaluare'
'▁бастама'
'を経て'
'▁ત્યાર'
'▁skutecznie'
'▁пријем'
'▁գիտակց'
'▁archív'
'▁kuweka'
'発'
'▁dram'
'▁потенцира'
'९३'
'▁manglende'
'吹'
'市场上'
'โม'
'pā'
'gün'
'▁душа'
'НА'
'▁arc'
'▁არავის'
'шум'
'▁restauracji'
'ISE'
'TV'
'▁біздің'
'▁svenske'
'▁വർഷ'
'▁taifa'
'▁sevindir'
'ीत'
'▁écoles'
'وفي'
'ಾಗಿದ್ದು'
'▁огляду'
'провожден'
'▁सम्'
'▁شركت'
'今日は'
'▁darīt'
'▁lav'
'nyújt'
'为核心'
'Vis'
'stąpił'
'▁вядомы'
'▁महत्वपूर्ण'
'▁nyaéta'
'中有'
'▁जिले'
'▁hänet'
'▁உத்தரவிட்ட'
'▁Até'
'駆'
'▁SBS'
'▁വെള്ള'
'ર્થ'
'єва'
'▁تۇت'
'▁məlumatı'
'▁hil'
'သည်'
'▁ανθ'
'▁jedyne'
'атив'
'ទី២'
'▁Something'
'▁ഓഹരി'
'↶'
'▁hərəkatı'
'▁شخصية'
'证'
'брид'
'▁tantum'
'ిని'
'▁adresi'
'▁الحزب'
'▁ANAL'
'офіцер'
'▁deiner'
'梆'
'▁който'
'▁Sekolah'
'▁īsti'
'find'
'บัญชา'
'▁Galli'
'▁profesjonalne'
'▁борбата'
'▁التقرير'
'▁Insa'
'▁Crne'
'▁कुर्'
'年金'
'skjema'
'▁lausa'
'ţ'
'дија'
'gratis'
'▁గాంధీ'
'▁kollegor'
'▁добила'
'Daily'
'▁نمایشگاه'
'казала'
'▁Kiedy'
'밴'
'65'
'namh'
'헹'
'忌'
'と考えている'
'▁يارى'
'▁transition'
'▁malih'
'INDI'
'▁missään'
'▁Fred'
'▁guud'
'ант'
'lje'
'▁آدم'
'▁પાડી'
'▁atlet'
'diet'
'▁주말'
'كات'
'栏'
'还将'
'▁stranka'
'Се'
'mässan'
'лана'
'апрель'
'▁изјава'
'▁болса'
'ക്ഷന്'
'ຟັງ'
'▁ուժերը'
'шет'
'▁Tết'
'Ut'
'▁təsadüf'
'መጨረሻ'
'ிருந்து'
'購入した'
'ធ្វើដំណើរ'
'▁пиша'
'▁ولسوال'
'łożenie'
'▁lună'
'käyt'
'▁Otto'
'▁حالات'
'ຕີ'
'▁saylov'
'▁juda'
'ניב'
'▁judeţ'
'sels'
'فط'
'▁regiune'
'▁підкресл'
'▁tvoje'
'▁indicazioni'
'ڪار'
'▁Mùa'
'\uf537'
'▁kell'
'ಫಿ'
'▁مرتب'
'laddning'
'▁испытания'
'สต์'
'▁planer'
'соціал'
'▁Woh'
'konsert'
'▁хөтөлбөр'
'▁발언'
'▁أسماء'
'▁eiusdem'
'ἢ'
'ktet'
'▁розмірі'
'ზაფხულ'
'scrição'
'▁дайын'
'▁평가'
'tăţii'
'▁Meg'
'▁мне'
'▁humil'
'▁الدولة'
'▁blade'
'▁boshqalar'
'зије'
'▁skjedde'
'嫄'
'▁መዋ'
'respect'
'▁גם'
'▁പോകുന്ന'
'▁Datu'
'▁uniforme'
'▁Seneste'
'篮球'
'▁بیماری'
'ИЗ'
'▁adultos'
'▁իշխան'
'原来'
'▁претвори'
'အားေပး'
'▁gun'
'ғыл'
'തായി'
'▁лог'
'▁७'
'▁mercados'
'wählt'
'vuode'
'▁underkläder'
'▁Grâce'
'De'
'▁مصنوعات'
'▁arv'
'▁töltött'
'▁әсер'
'ซิลิโคน'
'▁Active'
'▁terminat'
'▁kumuha'
'▁Cię'
'▁ঝ'
'▁numérique'
'▁әуе'
'▁Стој'
'▁ges'
'грама'
'▁aantal'
'▁அளித்த'
'黢'
'▁Вяр'
'뮐'
'▁občas'
'▁পরিবেশ'
'💸'
'rendezés'
'▁ernstig'
'ियो'
'▁называется'
'▁amico'
'络'
'▁общност'
'▁oz'
'▁eher'
'▁prowadzenia'
'▁definir'
'▁spesifik'
'afdelingen'
'▁મૃત્યુ'
'クラウド'
'▁názvem'
'▁കോളേജ്'
'▁soutenir'
'ガラス'
'ില്'
'▁smartfon'
'idan'
'(3'
'▁παραμύθι'
'▁الك'
'▁apporté'
'loh'
'▁passende'
'▁začalo'
'▁चौथो'
'🇧'
'▁prikaz'
'▁2-0'
'▁wangu'
'lyasiya'
'ifying'
'▁هیات'
'火山'
'▁zatvor'
'▁பெ'
'талып'
'elm'
'▁ಸಲಹೆ'
'▁kakav'
'▁Šād'
'ຖື'
'▁zainteresowani'
'▁abil'
'雅'
'▁vreme'
'▁некоја'
'lanarak'
'▁연출'
'lán'
'מרו'
'她们'
'ପକ୍ଷ'
'વાનું'
'▁துறை'
'say'
'繫'
'áty'
'kup'
'▁միեւնույն'
'▁апсолут'
'▁Sonic'
'▁نژدې'
'▁hoofd'
'meni'
'▁пронађе'
'griež'
'差'
'▁تكن'
'ireachta'
'▁латин'
'områden'
'ліз'
'さが'
'▁vytvára'
'-2011'
'▁Styl'
'มีอะไร'
'▁რომ'
'▁Beg'
'▁українська'
'目录'
'άκος'
'▁ഭാവന'
'nnuksen'
'几'
'▁کړکۍ'
'▁այց'
'▁þessum'
'▁بعضهم'
'▁ysgrifennu'
'▁अनुसार'
'νση'
'冨'
'▁córas'
'onto'
'▁spala'
'▁april'
'▁отслабне'
'▁војне'
'してみてください'
'bog'
'Yahoo'
'▁Credit'
'▁Г'
'▁Font'
'מצ'
'▁qa'
'▁сипатта'
'การค้า'
'口コミ'
'мис'
'qə'
'▁ਨਵੀਂ'
'жыл'
'▁esok'
'▁kļuva'
'▁sacīja'
'▁తమిళనాడు'
'▁Зашто'
'Քաղաք'
'Kompeten'
'▁počeo'
'▁ngisor'
'▁potrzeb'
'ùi'
'แอส'
'▁básico'
'allika'
'▁photoshop'
'ell'
'ksilla'
'▁behauptet'
'▁සිටියා'
'一緒'
'▁суд'
'מבו'
'▁милдеттүү'
'▁Leggi'
'מני'
'opéra'
'あります'
'▁asistencia'
'▁възможно'
'精心'
'ၿပန္'
'▁규제'
'ওয়ে'
'▁able'
'▁fól'
'အကြိမ်'
'▁субъект'
'▁wymyś'
'▁berücksichtigen'
'ruf'
'▁മിനിറ്റ'
'▁Riga'
'хвърлен'
'▁друга'
'▁гісторыю'
'rije'
'ІІ'
'‧'
'潺'
'holde'
'▁eficiencia'
'协作'
'ಸಂ'
'zetten'
'▁kikubwa'
'დაბა'
'▁míst'
'仕上げ'
'킷'
'▁Toate'
'▁ਅੱਗ'
'ույս'
'▁Bidang'
'▁sérstök'
'▁1969'
'мышлен'
'▁ihmisiä'
'▁ខែមីនា'
'▁регіональн'
'▁Τζ'
'جاع'
'▁лажни'
'▁ցանկություն'
'▁lähettäminen'
'▁คณะ'
'▁нийт'
'耘'
'▁نامزد'
'▁komite'
'▁lliure'
'Adobe'
'factor'
'赌博'
'▁ביקורת'
'▁ინტერ'
'фей'
'▁Simple'
'▁Часопіс'
'▁Közép'
'bara'
'rla'
'😳'
'تحمل'
'▁серија'
'ဖန္'
'▁ciutadans'
'मिति'
'▁Түркістан'
'▁ponuku'
'й'
'▁jier'
'▁Մո'
'▁ऑपरेशन'
'▁Dylan'
'▁رواه'
'קפיד'
'laska'
'▁ଆଲୋଚନା'
'▁θύματα'
'▁ಕಂ'
'▁играчи'
'גרסה'
'▁Yurub'
'avimą'
'▁Mh'
'÷'
'▁skončil'
'▁السابع'
'žvaigžd'
'▁Nadolig'
'▁мы'
'some'
'▁andare'
'▁വച്ച'
'júcej'
'બી'
'▁tàu'
'mettere'
'▁تيز'
'เลือกซื้อ'
'▁مالڪ'
'mad'
'▁مصنف'
'శ్చ'
'▁ровно'
'▁ў'
'쏴'
'ജോ'
'▁tenuta'
'▁ಲೇಖನ'
'คุ้ม'
'ОП'
'的專業'
'▁penge'
'▁För'
'ново'
'ၾကာ'
'ρω'
'完'
'▁jordbruk'
'Об'
'▁bulunuyor'
'▁ياشلىق'
'οι'
'▁ಹೋಟೆಲ್'
'▁Länge'
'▁ارګ'
'▁ők'
'ですから'
'▁kände'
'▁referens'
'蟒'
'▁කොළඹ'
'▁تاشقى'
'INN'
'▁багш'
'▁צעד'
'▁ξεκινήσει'
'▁ócáid'
'ελαφρ'
'ისა'
'tko'
'▁Pend'
'ovce'
'dors'
'▁ເຂົ້າ'
'biał'
'▁penyelenggaraan'
'დება'
'भार'
'▁Picha'
'▁השרון'
'ಬಲ'
'▁ଯ'
'ในอนาคต'
'▁ዐቢይ'
'錠'
'▁גרויסע'
'▁giả'
'▁ákvað'
'生産'
'յի'
'คงจะ'
'gundua'
'▁சொன்னா'
'čar'
'kohdat'
'夫'
'siz'
'?"'
'▁וואלט'
'▁diagnose'
'▁čerp'
'▁ജി'
'▁circonda'
'▁شکایات'
'ళ్ల'
'▁ਸ਼ੁਰੂ'
'▁περιορισ'
'เกิน'
'ቶቻችን'
'▁entrada'
'▁saate'
'koosolek'
'▁жайында'
'▁Krok'
'▁nauti'
'ക്കൊണ്ടു'
'▁అదనపు'
'▁Андрэй'
'▁але'
'▁Məlumat'
'▁повідомлення'
'czy'
'▁besig'
'stander'
'譜'
'▁Боб'
'άρχου'
'▁obdobia'
'▁നീണ്ട'
'▁alami'
'တွေ့ရ'
'▁ajuta'
'▁Minimal'
'▁લઇને'
'▁echilibrat'
'鹊'
'tétel'
'▁लेख'
'▁Kaise'
'sport'
'▁temes'
'母'
'▁خواب'
'▁بعدما'
'▁الادارة'
'▁사건'
'▁Marina'
'▁pielieto'
'aois'
'دمج'
'▁பர'
'minlash'
'▁საიტზე'
'עידן'
'แอบ'
'▁кез'
'▁zdrowy'
'▁കാറ'
'▁Missouri'
'▁സാമൂഹിക'
'▁формально'
'▁kejadian'
'▁마련'
'▁గు'
'့္'
'▁თავისუფლების'
'ებაზე'
'▁soko'
'▁cd'
'tuvchi'
'▁نشانه'
'მკლავ'
'▁felul'
'очный'
'▁субјект'
'rad'
'ىچە'
'▁තියන්න'
'進口'
'▁cica'
'▁લાગી'
'碳'
'▁எழுந்த'
'させて頂きます'
'▁personagens'
'▁autobús'
'赚钱'
'▁SOCIAL'
'казва'
'eacht'
'▁izabran'
'▁okrug'
'▁Andhra'
'▁demora'
'TTT'
'▁ነው፡፡'
'▁setuju'
'▁sors'
'▁lapsille'
'▁අරගලය'
'▁знаходзяцца'
'▁قرار'
'▁პრაქტიკ'
'▁Слободан'
'▁ГА'
'▁melhoria'
'▁চাইলে'
'微妙'
'▁белгілі'
'▁طول'
'▁core'
'▁բնական'
'▁άρχισε'
'▁Viet'
'▁직장인'
'browser'
'മാരും'
'стос'
'▁ngayo'
'tisch'
'↚'
'▁образованието'
'▁епископ'
'jući'
'▁Hughes'
'▁سہ'
'▁У'
'ത്തെക്കുറിച്ച്'
'쥰'
'popular'
'ಂಬೆ'
'▁maombi'
'▁Valor'
'▁einschließlich'
'▁тамақ'
'▁පිං'
'▁gioco'
'▁сразу'
'cela'
'▁rêxistinê'
'▁Արցախի'
'ուխ'
'▁важен'
'smetoder'
'をしている'
'ሰይጣን'
'бан'
'hata'
'▁agrícola'
'▁формата'
'▁ΠΡΟΣ'
'▁Populära'
'▁Martín'
'▁arre'
'▁amet'
'ୀ'
'ರದ'
'魈'
'يز'
'▁fail'
'▁FK'
'▁გამოყენება'
'kirin'
'▁kasi'
'850'
'▁liige'
'▁tartib'
'luka'
'קטגוריה'
'以為'
'▁түрлері'
'ு'
'ጌታ'
'성남'
'ဘူ'
'ឯង'
'izacja'
'▁fóru'
'φρ'
'▁Gəncədə'
'▁कहानियाँ'
'ફો'
'▁झटका'
'▁பிரதான'
'▁japan'
'▁jedem'
'ಗೊಳ್ಳ'
'tty'
'זע'
'▁وسوف'
'▁traballos'
'▁penting'
'▁ישנם'
'失败'
'▁темата'
'▁sihtkoht'
'騖'
'ဆွဲ'
'male'
'ทําความสะอาด'
'▁பிரச்சினை'
'▁Kişi'
'▁masculino'
'▁blackjack'
'ക്കുള്ള'
'រដ្ឋសភា'
'สมอง'
'▁ćwiczenia'
'▁زهرا'
'親'
'▁brune'
'නාව'
'▁pinigus'
'▁кругл'
'▁Пам'
'ո՞ւ'
'▁изпитва'
'фти'
'มีโอกาส'
'▁dłoni'
'▁დილით'
'ທົ່ວໂລກ'
'▁проводити'
'▁اجازت'
'лят'
'去看'
'吱'
'乃至'
'тиш'
'lara'
'▁българския'
'▁Гі'
'икалық'
'sev'
'တယ္'
'▁suala'
'▁darbību'
'ቆም'
'યું'
'▁centenas'
'وو'
'▁आह्वान'
'▁secret'
'jelen'
'▁yekemîn'
'ûn'
'▁подаръци'
'▁Kdyby'
'▁урлаг'
'▁කාල'
'૧'
'▁Daftar'
'▁růžov'
'▁වේලාව'
'▁групе'
'▁ແມ່ນ'
'gegenwärtig'
'▁nokkrar'
'▁फीचर'
'ウン'
'▁Recupera'
'▁pă'
'▁παρούσα'
'▁cláusula'
'▁ಸಂಬಂಧ'
'▁velger'
'▁قبول'
'invest'
'പ്പെട്ട'
'Ven'
'Verhältnis'
'▁ਭੀ'
'▁kynningar'
'▁Canta'
'▁penyanyi'
'ፊያ'
'▁έκ'
'▁войск'
'▁raksturo'
'▁יעוץ'
'一句话'
'▁Τελ'
'≪'
'বি'
'вис'
'oane'
'▁поехал'
'▁ਮਾਰਚ'
'▁Third'
'にくく'
'▁épít'
'ryhmä'
'άν'
'تحرك'
'gerechnet'
'▁leuke'
'03)'
'құқықтық'
'海上'
'臺北市'
'▁hospodár'
'▁ընկերությունը'
'တစ်'
'600'
'ல்கள்'
'気がします'
'▁čeprav'
'月初'
'▁ნავთობ'
'正常'
'zlar'
'異なる'
'▁ու'
'▁other'
'▁ویڈیو'
'lemek'
'მაც'
'ເຮັດວຽກ'
'기로'
'γραφή'
'▁eskaini'
'ご確認ください'
'ಗಿನ'
'▁imali'
'▁ሲባል'
'▁queremos'
'▁коммерциялық'
'قات'
'▁մեխանիզմ'
'▁Nun'
'▁waajib'
'տը'
'▁مجانا'
'რქ'
'kowych'
'▁ସଚେତନ'
'्यू'
'slått'
'▁ପାଇ'
'▁Rome'
'isiún'
'▁utafiti'
'▁Senin'
'▁разів'
'▁173'
'箇所'
'▁honlap'
'▁Agora'
'уучу'
'wedd'
'▁kulu'
'തിനാൽ'
'▁selam'
':36'
'יזה'
'▁արտասանություն'
'▁lade'
'巧'
'pele'
'▁evropske'
'រោគ'
'ЭН'
'▁župan'
'anni'
'лэдэг'
'\uf033'
'▁escritura'
'▁sedež'
'▁birimleri'
'▁back'
'▁الفلسطينية'
'▁15:30'
'▁حقوق'
'▁prosjekter'
'▁مخابرات'
'▁Dur'
'язджа'
'▁реальность'
'▁разнообразие'
'▁kartic'
'▁ilişki'
'▁সবাই'
'찾'
'정'
'▁belanja'
'▁ابراهیم'
'▁Sporazum'
'मती'
'ქა'
'琺'
'▁Claro'
'▁Singapore'
'▁mousse'
'的時候'
'第二十'
'వర్గ'
'▁viimeinen'
'▁mahdollisesti'
'▁거부'
'ंस'
'▁Plas'
'▁Vitamin'
'WG'
'хан'
'▁iau'
'▁рећи'
'ătură'
'paşa'
'ਣਾ'
'सूर'
'▁zwłaszcza'
'▁شناسایی'
'尼斯'
'햐'
'▁sepatu'
'▁desperat'
'暢銷'
'▁senda'
'▁ۋاقىت'
'▁satisfacción'
'olah'
'不忘'
'▁अगाडी'
'જી'
'▁foreldre'
'мень'
'▁gleði'
'▁гэмт'
'న్నాడు'
'▁MEM'
'မား'
'▁Судалгаа'
'▁tenía'
'▁постане'
'▁roku'
'▁ھ'
'▁legi'
'mên'
'▁braku'
'▁fejlőd'
'ລັກສະນະ'
'甦'
'▁тканин'
'send'
'cera'
'ბენ'
'അ'
'▁беруге'
'▁Komunik'
'తొ'
'▁napred'
'▁Huset'
'あらかじめ'
'▁Hand'
'冷氣'
'▁гради'
'▁Svetainėje'
'▁हात'
'Надежда'
'▁Abend'
'elta'
'▁rasite'
'▁uvid'
'▁producto'
'▁својот'
'▁parlamento'
'▁لون'
'▁Blackberry'
'▁Rud'
'しましたが'
'▁začína'
'انہ'
'▁iam'
'чала'
'räume'
'eta'
'▁සමත්'
'记住'
'▁muusik'
'으'
'bordet'
'▁Ше'
'yka'
'▁prügi'
'▁pristupa'
'◐'
'诈'
'pasok'
'▁ödəmə'
'超過'
'▁نمايند'
'▁ინ'
'פרנס'
'▁sieci'
'държа'
'▁kritisk'
'▁виборів'
'▁آگے'
'▁ଜନ'
'ธรรมดา'
'▁planera'
'ում՝'
'тэхнічны'
'▁سوال'
'▁രീതിയില്'
'▁héten'
'▁કર્મચારી'
'υκ'
'وري'
'▁unkompliziert'
'▁modem'
'▁суроолор'
'trus'
'푸드'
'pildyt'
'靈'
'▁Tür'
'found'
'▁Simp'
'▁өдрий'
'▁υποψήφι'
'▁alltid'
'▁კონსტიტუცი'
'نظار'
'▁ပြောသည်။'
'ినా'
'pî'
'▁bekövetkez'
'▁gün'
'ବୁ'
'ေဒၚလာ'
'rijf'
'▁ary'
'▁LinkedIn'
'قراط'
'▁Cancel'
'ทิพย์'
'▁стави'
'🤟'
'▁numerosas'
'▁ekstra'
'dib'
'▁হে'
'▁едноставно'
'seits'
'ום'
'▁заверша'
'ולות'
'▁మా'
'▁yağış'
'ស៊ី'
'▁ცხოველ'
'▁locul'
'▁düzenleme'
'▁كەل'
'ത്തിന്റെ'
'ង្គ'
'▁dezakezu'
'▁Модел'
'כע'
'▁margine'
'▁naš'
'▁koristiti'
'▁caixa'
'انتخاب'
'낀'
'🌆'
'▁adicionais'
'巴士'
'ded'
'ขวาง'
'▁chặn'
'▁Корисн'
'▁الهجوم'
'▁콘텐츠'
'mą'
'ssi'
'ทราบว่า'
'czek'
'KK'
'▁renginiai'
'▁ತೀರ'
'Hu'
'▁Podobn'
'▁Szép'
'▁ఇంకో'
'▁İşleri'
'ịnh'
'▁bildirildi'
'attache'
'佯'
'Ἔ'
'骆'
'▁humanitar'
'▁ຊ'
'▁грошей'
'ถาวร'
'▁všeobecn'
'mente'
'▁فهي'
'▁Está'
'辞'
'▁isagoo'
'เครื่องดื่ม'
'性价比'
'▁жакын'
'डु'
'▁نادر'
'➨'
'ေက်ာင္း'
'▁Waziri'
'ကိုယ်'
'▁letiště'
'▁ДВ'
'▁đoán'
'▁φορ'
'▁Utiliza'
'▁Xildhibaan'
'▁international'
'▁suyu'
'兔'
'▁අමුතු'
'所謂'
'▁తూర్పు'
'IKAN'
'▁ಮಾತನಾಡಿದರು'
'deildar'
'▁الأمين'
'▁υπουργός'
'▁จํานวน'
'لىرىدىن'
'▁sarva'
'▁premio'
'▁bepaald'
'tner'
'ູ້'
'▁Xuventude'
'▁kW'
'▁اسلامی'
'▁opravdu'
'▁dous'
'▁الشريف'
'▁küsimuste'
'roll'
'année'
'ግራ'
'▁Velikost'
'▁izao'
'▁արել'
'▁haqiqiy'
'371'
'是我'
'▁skriv'
'▁startup'
'▁vendredi'
'声音'
'承'
'▁eğitim'
'▁Jokowi'
'▁خانوادگی'
'▁drejtave'
'▁للبيع'
'πουλ'
'▁امن'
'úr'
'ped'
'deep'
'▁opakovan'
'ktion'
'▁ծրագր'
'的一'
'▁Agent'
'▁საკ'
'▁comerç'
'Ser'
'▁dokładn'
'សំណើ'
'လေယာဉ်'
'可愛的'
'▁રૂપિયા'
'▁Vuodatus'
'娱'
'▁ಯಾರು'
'च्छेद'
'▁αυτούς'
'▁súhlas'
'▁Muxtar'
'▁Alde'
'▁Status'
'▁يأتي'
'網站'
'▁стане'
'▁കരുത'
'▁flytta'
'იას'
'▁याचा'
'▁অতিথি'
'嚷'
'▁указ'
'▁نامی'
'ո'
'▁працягвае'
'популярни'
'روس'
'gies'
'Tam'
'▁συμβολ'
'▁Октябрь'
'▁ممبئي'
'▁पोखरा'
'အိပ္'
'▁അക്കാദമി'
'खे'
'▁नौकरी'
'▁ваз'
'▁mengembangkan'
'▁társadalom'
'שקע'
'ကြောင့်'
'▁ਜਾਣ'
'▁smukke'
'▁토요일'
'▁халықтың'
'▁8-10'
'▁Håll'
'▁വാതില'
'▁Wojciech'
'dogo'
'▁põhjal'
'ლავ'
'กรรม'
'輸'
'▁받았'
'สมัคร'
'▁lưới'
'▁ripa'
'▁Menu'
'▁oleva'
'▁ప్లే'
'▁IMF'
'▁ترڅ'
'abuwar'
'▁හිතෙන'
'滇'
'幸'
'▁тапсырма'
'▁ações'
'ท่าน'
'▁барабан'
'ရွင္'
'▁کیونکہ'
'▁здароўе'
'▁kariuomenė'
'▁Условия'
'▁локалне'
'▁τρομοκρατ'
'▁žū'
'食事'
'ţul'
'▁दिलचस्प'
'educació'
'炆'
'បំណង'
'tulong'
'▁င'
'ugh'
'ಿಸುವ'
'üyü'
'лаар'
'▁Истори'
'▁catalanes'
'▁Chill'
'▁Britain'
'▁разве'
'▁Hoxha'
'hatóság'
'▁azi'
'ጦ'
'▁Zakona'
'▁dezelfde'
'▁metade'
'▁sepak'
'▁panto'
'峻'
'▁capire'
'ರುವ'
'▁Phố'
'▁hol'
'▁환'
'のではなく'
'▁거기'
'▁Finnland'
'اعم'
'▁pauvre'
'▁bûne'
'వాళ్ళ'
'なくなります'
'▁divizoù'
'dzīvo'
'มองเห็น'
'кът'
'▁Св'
'▁deschide'
'▁бібліотеці'
'ыкты'
'▁Województw'
'▁trailer'
'▁khoảng'
'▁miktar'
'▁Здрав'
'▁omejen'
'▁කරනවා'
'▁صوفی'
'▁Sarı'
'ກັດ'
'整合'
'▁нами'
'θείτε'
'▁Vartotoj'
'रौ'
'▁siis'
'▁ডট'
'▁doğma'
'▁atšaukti'
'▁დამოუკიდებელ'
'wołują'
'ସ'
'胖'
'ក់'
'▁quotidian'
'▁전부'
'▁ಮೀಡಿಯಾ'
'▁näitab'
'ntana'
'▁خودم'
'▁निःशुल्क'
'▁кујна'
'鬟'
'▁öğrencilerin'
'里面'
'▁દવા'
'કલ'
'▁took'
'▁پوهنتون'
'▁pake'
'违规'
'▁नवलपरासी'
'▁elde'
'▁Emanuel'
'艳'
'▁geçiş'
'妻子'
'несены'
'редно'
'यो'
'▁Bil'
'▁நிலைய'
'cool'
'ようで'
'▁rozpad'
'▁روزمره'
'▁ተስፋዬ'
'▁రాజధాని'
'▁runsaasti'
'▁اسان'
'磋'
'▁phó'
'▁pomoć'
'▁mampu'
'▁کانال'
'▁cheannach'
'▁võrra'
'นว'
'▁recorregut'
'▁Lanka'
'▁ሪፖርት'
'เข้าร่วม'
'▁Xaaji'
'▁వీటిని'
'▁sürücüsü'
'▁binh'
'isto'
'တည်'
'▁sabor'
'▁កុំ'
'мпи'
'▁mtandao'
'очок'
'▁tempada'
'▁purpur'
'รับประกัน'
'ລົດ'
'▁evdə'
'카이'
'▁تونس'
'郜'
'नामा'
'▁hivatkoz'
'▁gənclərin'
'▁υπολογίζ'
'▁העיר'
'▁ናቸው፡፡'
'▁tuổi'
'▁uwezo'
'优质'
'▁Бургас'
'▁berlalu'
'▁cuadro'
'▁yn'
'уватимуть'
'ներով'
'ύν'
'帶動'
'▁творческо'
'\ue005'
'▁riche'
'κρίσεις'
'signif'
'▁жертв'
'غیر'
'นโยบาย'
'▁concreta'
'▁xã'
'▁талкуу'
'▁Concurso'
'▁preuzima'
'▁ගොනු'
'▁gestor'
'発見'
'▁ТО'
'▁такмичења'
'▁wyposażenia'
'▁لكل'
'▁საშუალებ'
'ға'
'▁mengucapkan'
'eiriau'
'▁potenti'
'▁saudável'
'▁محا'
'▁ecce'
'▁首頁'
'ට'
'▁توجه'
'▁utána'
'▁nastąpi'
'RF'
'懷'
'转向'
'▁ଘରକୁ'
'▁Matangazo'
'MISSION'
'GOL'
'▁தனக்கு'
'▁допомагає'
'सक'
'981'
'ís'
'▁الشيخ'
'▁zarar'
'ტს'
'▁saapu'
'vis'
'▁جاذبه'
'▁Auskunft'
'▁De'
'▁وکړه'
'饿'
'▁തടയ'
'▁yanayo'
'▁Thompson'
'▁რუსეთი'
'▁нове'
'▁wyzwanie'
'fungua'
'▁وينا'
'قيام'
'▁suurta'
'▁fáil'
'▁çete'
'▁kuluttua'
'子ども'
'парк'
'▁מענטשן'
'▁Ελληνική'
'▁bieg'
'795'
'▁ступеня'
'▁allan'
'▁Saturn'
'ໃຜ'
'檔'
'▁rättigheter'
'▁izmantot'
'▁μπορεί'
'▁премиерот'
':21'
'။'
'▁impacto'
'lacaq'
'னார்'
'▁eemal'
'▁musikk'
'▁voivat'
'▁Looking'
'▁demuestra'
'▁รายละเอียด'
'▁చా'
'birin'
'▁პოლიტიკურ'
'204'
'▁Multumesc'
'▁BEZ'
'肴'
'▁něm'
'▁čtvrtek'
'▁готує'
'黯'
'ಕೊಳ್ಳ'
'▁vais'
'▁opnemen'
'ಿದ್ದಾನೆ'
'至於'
'▁हंस'
'▁kilometrov'
'▁proceed'
'▁Vamos'
'ໄຟຟ້າ'
'ក្រុង'
'▁නෙමේ'
'毛'
'而'
'▁lean'
'hila'
'ذيب'
'จักร'
'▁trimis'
'عد'
'αγ'
'▁sedemikian'
'▁symptomer'
'ιμο'
'aktiver'
'場'
'▁вопыт'
'sht'
'▁섹스'
'▁остане'
'ジャー'
'ಕ್'
'註'
'又能'
'▁kde'
'哞'
'▁imbunatati'
'▁Liefer'
'▁мнения'
'ଯିବା'
'▁adevarul'
'▁destruction'
'▁орден'
'▁valores'
'▁tarım'
'▁berkualiti'
'တက်'
'▁تحصیلی'
'▁tiếp'
'čiui'
'壩'
'▁гэтым'
'hlás'
'▁tusenvis'
'暌'
'明亮'
'▁työskentele'
'▁ఆసుపత్రి'
'▁விஜய்'
'々の'
'▁ұқсас'
'עמדה'
'▁gradu'
'▁Султан'
'▁satisfaction'
'сандр'
'▁sifatida'
'liittymä'
'ਐਮ'
'▁رکھتے'
'제품'
'▁भरोसा'
'นํามา'
'▁ଜଣ'
'▁ignore'
'▁बँके'
'անց'
'▁plano'
'анне'
'▁વાર'
'▁ХХК'
'▁Bull'
'▁cholesterol'
'ਸਾਂਝ'
'чання'
'▁pēc'
'▁નહી'
[...]
